<pad>	0
<unk>	0
<s>	0
</s>	0
▁	-3.61002
▁영화	-4.33052
이	-4.46972
의	-4.51591
는	-4.65349
도	-4.68187
가	-4.72324
을	-4.84612
에	-5.03473
고	-5.13996
은	-5.14818
▁너무	-5.24744
다	-5.27997
지	-5.30913
▁정말	-5.34198
▁이	-5.37667
를	-5.40981
▁진짜	-5.53591
만	-5.58205
한	-5.65058
로	-5.73357
게	-5.78185
나	-5.8813
과	-5.89694
영화	-5.96748
으로	-6.07048
▁그	-6.08479
▁점	-6.09901
▁잘	-6.1005
▁왜	-6.10516
▁이런	-6.13405
▁더	-6.14982
▁다	-6.15776
▁그냥	-6.20337
▁수	-6.20347
하고	-6.21085
▁아	-6.23442
와	-6.23955
서	-6.2581
인	-6.25913
▁안	-6.29749
라	-6.29865
네	-6.34725
에서	-6.3691
요	-6.40808
어	-6.43648
기	-6.43994
▁보고	-6.44483
▁드라마	-6.45038
하는	-6.45491
▁본	-6.48949
▁평점	-6.49283
들	-6.50671
▁좀	-6.51935
▁연기	-6.52296
▁영화를	-6.5291
리	-6.55127
▁내	-6.55657
아	-6.56847
면	-6.57893
네요	-6.59737
해	-6.60189
지만	-6.60505
거	-6.62994
▁이거	-6.65383
▁참	-6.65501
▁완전	-6.67623
▁한	-6.67727
▁내가	-6.68385
▁쓰레기	-6.69726
▁봤는데	-6.70264
▁영화가	-6.70622
▁스토리	-6.71656
▁최고의	-6.72256
▁없는	-6.72393
▁영화는	-6.72634
자	-6.73283
▁이건	-6.73292
▁최고	-6.78174
야	-6.78515
▁없다	-6.79311
이다	-6.7971
▁좋은	-6.80641
▁있는	-6.81917
수	-6.82142
▁개	-6.83031
▁이렇게	-6.8537
▁이게	-6.85412
니	-6.87051
▁다시	-6.88018
▁보는	-6.88381
▁그리고	-6.90918
음	-6.9095
▁난	-6.92302
함	-6.94164
▁나	-6.95177
▁것	-6.97295
까지	-6.97915
해서	-6.98187
보다	-6.98764
▁평점이	-6.99674
▁못	-7.00302
▁많이	-7.0079
▁역시	-7.01116
데	-7.018
하게	-7.0291
스	-7.02928
사	-7.03045
랑	-7.03575
임	-7.0381
는데	-7.04596
들이	-7.05337
듯	-7.064
진	-7.065
할	-7.07076
시	-7.07536
건	-7.07613
대	-7.07712
▁가	-7.0901
구	-7.09084
여	-7.09233
▁뭐	-7.09677
냐	-7.0975
일	-7.10342
▁넘	-7.10996
▁또	-7.12041
▁하는	-7.14104
▁재밌게	-7.14502
인데	-7.15909
▁마지막	-7.16484
▁작품	-7.16771
▁재미	-7.17774
▁볼	-7.18933
하다	-7.19679
▁시간	-7.19888
▁꼭	-7.21512
▁감동	-7.21544
안	-7.22852
적	-7.22858
하	-7.23026
▁별로	-7.23066
▁무슨	-7.23103
▁아깝다	-7.23381
던	-7.23729
▁말	-7.2427
드	-7.24679
치	-7.24744
▁가장	-7.25296
▁없고	-7.2553
미	-7.27025
▁전	-7.27706
▁감독	-7.27791
보고	-7.28523
우	-7.3034
▁이야기	-7.30635
▁보면	-7.30895
중	-7.32115
▁지금	-7.32354
성	-7.34334
주	-7.34484
상	-7.36038
▁대	-7.36624
▁하	-7.36874
▁하나	-7.36889
▁액션	-7.36912
▁와	-7.37019
▁같은	-7.37188
것	-7.38076
정	-7.38452
▁별	-7.38484
▁저	-7.39394
▁만든	-7.39435
보	-7.40167
▁다른	-7.41046
전	-7.41794
▁중	-7.41838
▁연출	-7.43377
질	-7.44087
오	-7.44348
▁하지만	-7.44506
▁오	-7.44917
▁기	-7.45012
▁할	-7.45621
입니다	-7.46468
라고	-7.47222
신	-7.47351
▁말이	-7.48367
이나	-7.48634
했다	-7.48899
▁끝까지	-7.4896
같은	-7.49127
▁영화다	-7.49719
용	-7.50182
▁때	-7.50231
▁명작	-7.50594
▁배우	-7.50706
장	-7.50789
씨	-7.51085
▁주	-7.5109
▁솔직히	-7.51489
▁년	-7.51781
▁느낌	-7.52771
▁지	-7.53484
▁일	-7.54927
비	-7.55366
된	-7.5545
하지	-7.56269
좀	-7.5646
▁뭔가	-7.56936
▁전혀	-7.57076
란	-7.57147
말	-7.57251
마	-7.57464
트	-7.57525
▁좋다	-7.57701
▁근데	-7.58627
처럼	-7.58857
▁같다	-7.58964
▁굿	-7.59323
걸	-7.59534
▁아주	-7.59541
▁내용	-7.59616
▁그래도	-7.59766
▁처음	-7.60495
습니다	-7.60589
▁한국	-7.60726
부	-7.60861
▁대한	-7.61212
부터	-7.61543
군	-7.61804
▁있다	-7.61893
히	-7.62012
적인	-7.62585
물	-7.62803
▁사	-7.63254
▁짱	-7.6379
▁자	-7.64476
때	-7.64711
려	-7.64779
▁아니	-7.64893
▁보	-7.65051
▁봐도	-7.65086
▁봤다	-7.65294
에게	-7.65337
▁사랑	-7.65358
있는	-7.65698
인지	-7.65913
▁많은	-7.65963
▁재밌다	-7.66003
▁생각	-7.66521
▁분	-7.66832
▁하고	-7.67493
한다	-7.6784
▁이걸	-7.67968
선	-7.68438
▁대박	-7.68552
내	-7.68995
라는	-7.6901
▁배우들	-7.69015
▁일본	-7.69224
긴	-7.69341
▁내용이	-7.69632
▁어떻게	-7.69819
▁코미디	-7.69938
▁계속	-7.70167
▁재미있게	-7.70194
소	-7.70242
▁보다	-7.70504
러	-7.70861
▁제	-7.71477
▁돈	-7.71706
▁내내	-7.71828
본	-7.71891
▁여자	-7.71931
더	-7.7207
▁두	-7.72589
▁최악의	-7.73283
▁모두	-7.74114
▁급	-7.7434
▁최악	-7.74354
▁편	-7.74717
▁기대	-7.74742
▁않고	-7.74785
세	-7.75005
▁나오는	-7.75269
원	-7.7559
때문에	-7.75643
▁주인공	-7.76175
화	-7.77373
며	-7.77457
▁재미없다	-7.77945
▁줄	-7.79172
면서	-7.79242
인가	-7.79443
이랑	-7.79481
없는	-7.79787
드라마	-7.80206
▁거	-7.80341
▁아니라	-7.80367
▁정	-7.8052
▁한번	-7.80763
▁딱	-7.81021
▁해	-7.81361
▁모든	-7.81396
▁감독이	-7.82299
무	-7.82405
▁듯	-7.82549
▁아니다	-7.82672
▁아름다운	-7.83024
▁연기가	-7.83364
▁세	-7.84154
구나	-7.8423
▁유	-7.84754
어요	-7.8506
들의	-7.85123
▁내용도	-7.8525
줄	-7.85283
▁비	-7.85412
▁나는	-7.85481
▁이영화	-7.85502
▁알	-7.85557
▁연기도	-7.8566
▁그런	-7.85685
▁아닌	-7.85909
▁후	-7.85911
▁제일	-7.85984
▁보다가	-7.86136
▁만드는	-7.86403
▁시간이	-7.8695
식	-7.87034
▁요즘	-7.87092
▁보기	-7.87122
▁특히	-7.87318
두	-7.8736
▁시	-7.88231
▁스토리가	-7.88268
했던	-7.88422
▁않은	-7.89009
▁차라리	-7.8907
▁스릴러	-7.89071
이라	-7.89265
하면	-7.89277
▁살	-7.89606
▁제대로	-7.89707
단	-7.89986
▁사람	-7.90357
영	-7.90411
조	-7.90495
당	-7.90972
▁우리	-7.91371
길	-7.91871
감	-7.92015
합니다	-7.92153
▁이제	-7.92356
▁미	-7.92442
그	-7.92745
▁진심	-7.93551
▁않는	-7.93737
엔	-7.93953
개	-7.9466
▁절대	-7.94973
▁점도	-7.94994
진짜	-7.95138
▁무	-7.95529
▁아니고	-7.9556
▁어	-7.95776
다니	-7.96052
▁재미도	-7.96534
▁애니	-7.96575
동	-7.96744
▁때문에	-7.96963
타	-7.97034
린	-7.97202
▁조	-7.9722
▁도대체	-7.97311
▁아직도	-7.97328
▁수준	-7.97654
▁이상	-7.97796
죠	-7.97937
울	-7.98
▁나름	-7.98076
되는	-7.9816
▁장면	-7.98339
▁싶다	-7.98416
▁걍	-7.9882
▁영화라고	-7.99318
제	-7.99349
▁마지막에	-7.99364
▁스토리도	-7.99517
▁막장	-8.00032
▁보면서	-8.00279
디	-8.00352
▁마	-8.008
▁인생	-8.00817
호	-8.00838
▁반전	-8.0095
▁나도	-8.01051
잘	-8.01118
▁남자	-8.01336
노	-8.01441
유	-8.01496
모	-8.01626
없이	-8.01626
▁여운이	-8.01847
봤는데	-8.02048
▁엄청	-8.02267
으면	-8.02367
▁재밌어요	-8.02595
▁년대	-8.02678
▁반	-8.02855
▁신	-8.02876
한테	-8.03383
▁연기력	-8.03681
까	-8.03884
운	-8.04279
▁추천	-8.04397
▁오랜만에	-8.04595
남	-8.04672
너무	-8.04707
▁영화의	-8.04781
▁아까운	-8.04817
들은	-8.04882
▁좋았다	-8.04947
▁주는	-8.05024
보면	-8.05081
▁전개	-8.05685
▁감독의	-8.05884
심	-8.05934
▁김	-8.0611
바	-8.06228
▁번	-8.06342
▁영화입니다	-8.06355
래	-8.06489
이라는	-8.06506
연	-8.0652
▁애	-8.06583
방	-8.06738
▁조금	-8.06789
▁되는	-8.07691
작	-8.08948
▁공포	-8.0899
▁음악	-8.09258
▁좋아	-8.09299
▁부	-8.09308
▁만들어	-8.09628
레	-8.09722
었다	-8.09803
▁보는내내	-8.10266
▁남는	-8.10395
▁사람들	-8.10795
▁뻔한	-8.10968
니까	-8.11396
▁원	-8.11608
▁개인적으로	-8.1161
▁소	-8.11859
▁좋아하는	-8.11982
▁지루하고	-8.12588
▁배우들의	-8.126
프	-8.12904
▁어떤	-8.12907
날	-8.12915
▁없음	-8.1297
▁봤습니다	-8.13278
▁이해	-8.13328
명	-8.13349
져	-8.13374
준	-8.13422
▁좋고	-8.13467
▁도	-8.13515
▁실망	-8.1366
▁우	-8.1383
▁지루한	-8.13998
르	-8.14238
▁결말	-8.14528
재	-8.14772
▁이해가	-8.15573
▁생각이	-8.15582
▁최고다	-8.15615
▁건	-8.15877
이란	-8.1617
하나	-8.16318
▁개봉	-8.16322
▁영화에	-8.16365
▁멋진	-8.16407
▁모	-8.16809
이라고	-8.16903
인듯	-8.16918
이고	-8.16941
님	-8.17143
▁없이	-8.17357
▁나온	-8.17577
▁제발	-8.17838
▁공포영화	-8.17858
▁사람이	-8.17957
▁뭘	-8.18107
하네요	-8.1819
▁구	-8.18363
지는	-8.18431
▁아무리	-8.18862
▁오늘	-8.18881
관	-8.19282
▁괜찮은	-8.19336
▁함께	-8.1965
▁강추	-8.19683
▁눈물	-8.19835
▁봤던	-8.19883
▁그저	-8.20153
간	-8.20162
▁재미가	-8.20386
되	-8.20514
▁되	-8.2054
분	-8.20591
▁애니메이션	-8.20766
판	-8.20781
▁가슴	-8.20808
없다	-8.21547
▁얼마나	-8.21595
하지만	-8.21875
▁정도	-8.22001
희	-8.22089
했는데	-8.22183
연기	-8.22299
편	-8.22611
▁우리나라	-8.22636
적으로	-8.22669
라도	-8.22777
▁노	-8.22784
위	-8.22901
만큼	-8.22952
▁기억	-8.22955
지도	-8.23045
민	-8.2321
▁못한	-8.23259
▁보세요	-8.23667
짱	-8.23882
▁재밌는	-8.24038
들을	-8.24186
▁싶은	-8.24206
▁배	-8.24246
겨	-8.24405
파	-8.24438
▁점은	-8.24527
▁만	-8.24585
▁지루하다	-8.25011
산	-8.25253
▁속	-8.25312
▁박	-8.2543
▁소재	-8.25581
급	-8.25947
▁큰	-8.25958
▁영화로	-8.26
▁졸작	-8.26203
▁그렇게	-8.26231
크	-8.26409
▁수작	-8.26667
못	-8.26924
밖에	-8.26943
루	-8.27291
▁알바	-8.27407
▁미국	-8.27424
는게	-8.27431
즈	-8.27779
반	-8.27781
▁될	-8.27822
▁로	-8.27962
▁같이	-8.28013
든	-8.2815
▁안되는	-8.28276
▁매우	-8.28322
▁시작	-8.28468
▁기억에	-8.28592
발	-8.28594
▁인	-8.29172
▁시리즈	-8.29294
▁막	-8.29299
▁류	-8.29486
생각	-8.29532
하네	-8.29662
▁사실	-8.29733
후	-8.29764
▁뭔	-8.29788
▁연기는	-8.29831
▁된	-8.29917
▁캐릭터	-8.29922
▁현실	-8.30025
건지	-8.3009
현	-8.30131
▁극장에서	-8.30205
해도	-8.30326
▁공감	-8.30626
▁영	-8.30702
▁점이	-8.30715
▁대사	-8.30744
▁좋아요	-8.30891
터	-8.31073
차	-8.31147
▁몰입도	-8.31262
는거	-8.31319
더라	-8.31371
▁바	-8.31426
▁걸	-8.31557
카	-8.31649
▁들	-8.31723
▁피	-8.31747
따	-8.31856
난	-8.31872
림	-8.3199
▁결국	-8.32121
▁그래서	-8.32856
▁너무나	-8.33352
▁장	-8.33563
▁남	-8.33873
▁눈	-8.34275
저	-8.34285
속	-8.3429
생	-8.34745
▁기분	-8.34751
▁성	-8.34774
▁원작	-8.34807
▁인간	-8.34857
▁모르겠다	-8.35165
▁음	-8.35207
▁마음이	-8.35256
경	-8.35494
▁것이	-8.35806
워	-8.35865
▁있고	-8.35924
▁지루함	-8.3596
티	-8.35965
키	-8.36407
▁스	-8.36476
애	-8.36508
살	-8.36513
▁시나리오	-8.36618
▁하나도	-8.36806
있다	-8.3687
▁초	-8.37081
중에	-8.37209
▁존나	-8.37306
▁봤어요	-8.37408
는지	-8.37621
▁준	-8.38204
▁내용은	-8.38311
다가	-8.38449
▁명	-8.38466
▁몇	-8.38734
▁위해	-8.38769
▁쓰	-8.3916
▁위한	-8.39217
▁않는다	-8.39244
▁그나마	-8.39421
▁재밌음	-8.39549
피	-8.39677
보는	-8.39952
▁강	-8.40096
▁날	-8.40123
▁한다	-8.40801
사람	-8.4087
국	-8.40897
정도	-8.40985
▁한국영화	-8.4099
▁눈물이	-8.41499
구만	-8.41676
역	-8.41702
▁발	-8.41825
해요	-8.41899
공	-8.41969
▁로맨스	-8.42055
▁대체	-8.42105
▁만들	-8.42316
▁결말이	-8.42712
▁불	-8.42744
▁영상	-8.42989
▁누가	-8.43191
▁가슴이	-8.43253
박	-8.43366
▁억지	-8.43754
실	-8.43954
▁갈수록	-8.44008
▁야	-8.44378
▁밖에	-8.44462
▁에서	-8.44481
하기	-8.44491
▁만화	-8.44542
▁전쟁	-8.44615
▁훨씬	-8.44936
▁보게	-8.44939
▁시즌	-8.45317
뿐	-8.45376
▁재밌	-8.45479
▁더빙	-8.45578
▁등	-8.45601
▁보지	-8.45684
▁머	-8.45815
▁표현	-8.46156
불	-8.4619
▁미친	-8.46358
▁재미없음	-8.46434
코	-8.46646
▁화	-8.47036
이지만	-8.47211
▁진	-8.47466
▁느낌이	-8.47574
▁노잼	-8.47645
▁꽤	-8.47713
▁끝	-8.47832
▁단	-8.47882
▁작가	-8.48
버	-8.48191
정말	-8.48441
▁영화네요	-8.48485
▁노래	-8.48509
▁알고	-8.48547
▁긴장감	-8.48701
▁간만에	-8.48963
겠다	-8.48985
▁다들	-8.49291
▁그만	-8.49505
▁기억이	-8.49824
배우	-8.49865
태	-8.49869
▁어설픈	-8.49894
▁없었다	-8.50049
▁쓰레기영화	-8.5018
▁연기를	-8.50361
▁차	-8.50385
▁예	-8.50602
거야	-8.50736
이야	-8.50797
▁점수	-8.5084
하며	-8.51026
▁가족	-8.51279
▁문제	-8.51489
▁매	-8.51534
이네	-8.51558
▁재밌고	-8.51614
했음	-8.51634
하면서	-8.5177
작품	-8.52472
▁캐스팅	-8.5248
▁보여주는	-8.52538
▁주고	-8.52591
▁애들	-8.52623
▁위	-8.52841
▁잔잔한	-8.5287
▁동	-8.52905
문	-8.52987
▁게	-8.53027
▁영화관에서	-8.53063
▁없어	-8.53072
▁아쉽다	-8.53277
▁설정	-8.53405
▁파	-8.53568
형	-8.53735
▁않다	-8.53742
▁걸작	-8.53926
▁별점	-8.54055
▁심	-8.54447
였다	-8.54542
▁않	-8.54596
▁감동도	-8.54599
▁재	-8.54813
▁여	-8.54905
▁당시	-8.54918
군요	-8.54942
▁매력	-8.55486
봄	-8.55736
▁에	-8.55859
▁코믹	-8.55894
하는데	-8.55904
어서	-8.56104
려고	-8.56108
쳐	-8.56132
점	-8.56275
담	-8.56421
체	-8.566
녀	-8.56635
스토리	-8.56792
▁사람들이	-8.57004
▁있을	-8.57132
▁진정한	-8.5722
었는데	-8.57634
양	-8.58034
업	-8.58141
▁배우들이	-8.5823
달	-8.58388
▁발연기	-8.58409
▁있	-8.58412
▁아님	-8.5845
▁바로	-8.5856
▁회	-8.58567
것도	-8.58588
포	-8.58624
망	-8.58933
▁감동적인	-8.58948
▁감동이	-8.58973
▁생각보다	-8.59002
주는	-8.59011
던데	-8.5906
▁영화중	-8.59335
▁울	-8.59362
갈	-8.59802
론	-8.59981
▁좋은데	-8.60116
토	-8.60217
▁것도	-8.60519
▁자기	-8.60634
배	-8.60832
▁중간에	-8.60849
▁다큐	-8.61089
▁욕	-8.61121
라면	-8.61223
▁것을	-8.61426
▁제목	-8.61523
매	-8.61531
테	-8.61583
▁영화였다	-8.6185
▁점대	-8.6195
대로	-8.61954
▁중국	-8.61969
▁뿐	-8.62103
▁재미있는	-8.62113
▁상당히	-8.62388
▁스토리는	-8.62411
인줄	-8.62429
▁상	-8.62566
▁같아요	-8.6261
▁생각을	-8.62676
이었다	-8.6277
▁너	-8.62946
꺼	-8.62958
▁재미있다	-8.63002
▁있을까	-8.63071
으	-8.6314
▁재미는	-8.63345
▁그러나	-8.63374
▁뭐야	-8.63462
▁대해	-8.6349
▁판타지	-8.63515
▁공	-8.63551
▁입	-8.63604
이라도	-8.6365
이네요	-8.63657
▁준다	-8.63676
력	-8.63788
집	-8.63999
▁했는데	-8.64006
최고	-8.64146
▁뭐지	-8.64326
▁거의	-8.64491
느낌	-8.64639
▁필요	-8.64958
봤다	-8.64958
▁아무	-8.64993
▁그대로	-8.64994
▁네이버	-8.65589
▁선	-8.65693
▁후회	-8.65734
▁줄거리	-8.65834
▁죽	-8.65979
▁같은데	-8.66031
▁없	-8.66177
행	-8.66194
▁주연	-8.66226
▁정도로	-8.66914
▁볼만한	-8.6717
▁모습	-8.67213
▁감동을	-8.67397
▁치	-8.67809
▁잼	-8.67984
▁찾아	-8.67993
▁친구	-8.6829
▁나와서	-8.68388
▁이영화를	-8.68463
▁마음	-8.68494
▁재미있어요	-8.68535
왜	-8.6854
입	-8.68898
▁얼굴	-8.68908
▁웃음	-8.68996
▁손	-8.69089
▁약간	-8.69168
▁카	-8.69184
종	-8.69184
▁자체	-8.69228
▁적	-8.69262
▁재미없는	-8.69359
금	-8.69395
▁갑자기	-8.69413
사랑	-8.69509
▁재밌네요	-8.69628
▁제가	-8.69703
▁아직	-8.69815
먹	-8.69823
쓰레기	-8.69958
장면	-8.69987
▁저런	-8.70075
기도	-8.70116
▁어디서	-8.70238
▁전부	-8.70306
▁허	-8.70366
▁훌륭한	-8.70486
▁있지만	-8.7069
병	-8.7089
봐	-8.70892
기는	-8.70977
▁물	-8.70999
▁분위기	-8.71014
등	-8.71136
해야	-8.71268
▁존	-8.71281
▁봤지만	-8.71408
▁일단	-8.71478
극	-8.71491
▁들어	-8.71512
▁각본	-8.71549
▁보니	-8.72002
▁굉장히	-8.72082
▁엔딩	-8.72089
▁원작을	-8.72173
▁포스터	-8.72282
악	-8.72417
▁나의	-8.72455
교	-8.72501
있	-8.72517
구요	-8.72598
▁마음에	-8.72724
▁행복	-8.72752
▁했다	-8.72901
▁새로운	-8.72949
년	-8.73042
감동	-8.73103
▁호	-8.7316
을까	-8.73194
보단	-8.73867
더니	-8.7387
▁장면이	-8.73971
▁구성	-8.74032
된다	-8.74057
나요	-8.7427
볼	-8.74287
▁방송	-8.74332
수준	-8.74387
▁영화인데	-8.74402
▁여기	-8.74526
▁아이	-8.74587
▁어느	-8.74669
글	-8.74872
▁점을	-8.74974
▁뭐냐	-8.75022
▁망	-8.75182
▁영화임	-8.75397
▁항상	-8.75545
▁빨리	-8.75603
▁주인공이	-8.75894
될	-8.75987
▁데	-8.76118
▁봐서	-8.76217
거나	-8.76219
▁있어서	-8.76626
기에	-8.76649
류	-8.76923
거지	-8.76974
▁꿀잼	-8.76984
넘	-8.77023
▁저는	-8.77311
이야기	-8.77452
▁라는	-8.77486
쓰	-8.7749
다고	-8.77495
▁여주	-8.77582
증	-8.77757
잡	-8.77848
▁총	-8.77869
▁평가	-8.77875
▁대단한	-8.78055
▁이딴	-8.78091
▁맘에	-8.78116
▁지루	-8.7821
에도	-8.7828
▁장난	-8.78319
▁평	-8.7833
▁하다	-8.78698
▁봐야	-8.78809
죽	-8.7895
통	-8.78978
▁생각하게	-8.79016
없고	-8.79044
▁얘기	-8.79119
짐	-8.79185
강	-8.79208
색	-8.7928
▁봐라	-8.79465
▁말도	-8.79494
▁여주인공	-8.79605
했지만	-8.79684
온	-8.79831
▁올	-8.80136
▁평점을	-8.80202
▁화면	-8.80411
▁악	-8.80463
리는	-8.80594
▁충분히	-8.80661
땜에	-8.80745
▁간	-8.8087
▁열	-8.80897
승	-8.8095
▁못하는	-8.80964
▁하지	-8.81148
▁예술	-8.81226
했	-8.8123
▁혼자	-8.81262
건가	-8.81356
▁년이	-8.81358
▁옛날	-8.81473
▁좋은영화	-8.81504
▁자체가	-8.81709
▁점점	-8.81714
▁한마디로	-8.81763
▁해서	-8.82092
▁엄마	-8.82151
봐도	-8.8217
기만	-8.8229
▁삼류	-8.82332
▁그런지	-8.82394
▁봤음	-8.82406
환	-8.82466
▁이런영화	-8.82511
▁가지고	-8.82528
▁감독님	-8.82692
▁딸	-8.82725
▁길	-8.82743
릴	-8.82761
▁살아	-8.8289
▁봄	-8.82976
학	-8.83508
▁흥행	-8.83533
▁비해	-8.83571
▁맞	-8.83583
움	-8.83788
▁뭐가	-8.83813
▁없어서	-8.8382
너	-8.83835
▁아까움	-8.8389
▁헐	-8.83964
▁허접	-8.84013
▁있는데	-8.84412
있고	-8.84487
을때	-8.84544
▁책	-8.84554
듯한	-8.84556
▁영화도	-8.8479
능	-8.85008
감독	-8.85059
회	-8.85121
보니	-8.85176
▁사람은	-8.85235
소리	-8.8527
▁휴	-8.85292
▁처음부터	-8.85352
▁아이들	-8.85439
▁최	-8.8545
해라	-8.8545
▁그때	-8.85507
▁토	-8.85765
▁스릴	-8.85782
평점	-8.85989
에선	-8.86057
▁짜증	-8.86179
▁돈주고	-8.86234
격	-8.86351
석	-8.86389
▁개연성	-8.8643
었던	-8.86517
▁잘못	-8.86545
▁똥	-8.86557
▁좋네요	-8.86593
▁편이	-8.8671
▁따라	-8.86753
는건	-8.86865
뭐	-8.86969
▁방	-8.86976
라서	-8.87001
▁도저히	-8.87006
▁백	-8.871
▁불륜	-8.87204
▁여배우	-8.87512
▁감독은	-8.87595
▁이름	-8.87639
▁안된다	-8.87645
▁이것도	-8.877
복	-8.87723
▁너무너무	-8.87813
라니	-8.88024
▁역	-8.88024
▁원래	-8.88029
▁소설	-8.88052
씬	-8.88068
▁높은	-8.88094
재미	-8.88222
권	-8.88388
▁다시봐도	-8.88436
▁약	-8.88498
잼	-8.88607
할때	-8.88661
▁비디오	-8.88667
액션	-8.88679
▁이영화는	-8.88751
참	-8.88774
▁그닥	-8.88802
▁더욱	-8.88897
▁무조건	-8.88952
▁예전에	-8.89026
영화는	-8.89043
내용	-8.89206
▁초반	-8.89358
▁어릴때	-8.89369
▁정신	-8.89404
▁시절	-8.89465
예	-8.89502
알	-8.89535
▁물론	-8.89606
됨	-8.89842
들에게	-8.89873
▁언제	-8.89899
▁재밌는데	-8.89905
▁망작	-8.8995
짓	-8.89983
보다는	-8.90019
▁달	-8.90242
계	-8.90301
스러운	-8.90302
▁유치한	-8.90308
▁요	-8.90399
▁나오	-8.90448
▁그게	-8.90956
▁것은	-8.91143
▁소리	-8.91178
▁엄청난	-8.91224
▁전개가	-8.91323
▁좋겠다	-8.91324
이상	-8.9144
겠지	-8.91731
이지	-8.91824
▁따뜻한	-8.91913
▁코	-8.92012
▁장르	-8.92018
▁아쉬운	-8.92023
▁재밌었다	-8.92066
▁슬픈	-8.92198
▁상황	-8.92226
▁보는데	-8.92262
▁지루해	-8.92307
보기	-8.92338
▁흠	-8.92346
맨	-8.92351
니다	-8.92382
이라면	-8.92399
았	-8.9247
▁극	-8.92533
▁추억	-8.92585
▁편은	-8.92648
▁오히려	-8.92689
▁극장판	-8.92699
▁합니다	-8.92783
▁볼만	-8.92784
▁멜로	-8.9295
▁나올	-8.92965
치고	-8.93059
▁성룡	-8.93141
없음	-8.93219
▁순간	-8.9322
되어	-8.93228
▁왕	-8.934
▁유치	-8.9341
▁감정	-8.93441
▁잡	-8.93675
▁평점은	-8.93869
▁출연	-8.9389
▁힘	-8.94015
▁만점	-8.94018
것이	-8.94099
▁재미없어	-8.9421
난다	-8.94387
▁꿈	-8.94465
▁그리	-8.94526
▁모르고	-8.9458
▁뒤	-8.94689
▁첫	-8.94763
▁금	-8.948
름	-8.9481
▁부족	-8.94821
잖아	-8.94866
▁역사	-8.95029
기를	-8.9504
▁낫다	-8.95064
짜	-8.95079
▁세계	-8.95089
스트	-8.95222
슴	-8.95262
▁있어	-8.95354
진다	-8.95453
▁만족	-8.9546
놓고	-8.95474
▁자꾸	-8.95737
머	-8.958
▁있었다	-8.9582
치는	-8.95842
거다	-8.95999
거냐	-8.96002
▁연	-8.96175
▁돈이	-8.96308
같이	-8.96355
영화를	-8.96367
것같다	-8.96421
나오는	-8.96514
▁사랑을	-8.96742
▁화이팅	-8.96797
▁나와	-8.96867
▁사람들은	-8.96911
▁없네	-8.96915
절	-8.96981
▁병맛	-8.97089
▁완벽한	-8.97095
▁전형적인	-8.97097
▁봤네요	-8.97131
▁잠	-8.97208
▁목소리	-8.97257
▁다음	-8.97316
천	-8.97503
▁초딩	-8.97581
투	-8.97677
▁관객	-8.97683
▁앞으로	-8.97689
▁좋	-8.97784
▁오래	-8.97856
▁반전이	-8.97877
▁인간의	-8.97898
케	-8.97992
채	-8.98111
▁과거	-8.9814
▁배경	-8.98215
출	-8.98296
▁아빠	-8.98296
▁쳐	-8.98359
▁편집	-8.98364
▁연출이	-8.98379
▁병	-8.9841
▁더럽게	-8.98689
▁배우가	-8.98781
▁있음	-8.9879
▁재밌어	-8.98804
세요	-8.98807
▁순	-8.99112
없	-8.99114
▁모르는	-8.99218
▁깨	-8.99283
다는	-8.99807
▁부족한	-8.99821
▁대한민국	-8.99965
었	-9.00053
▁외	-9.00189
▁그런데	-9.00366
목	-9.00382
시간	-9.00412
▁괜히	-9.00508
▁댓글	-9.00516
▁억지로	-9.00534
▁연출력	-9.00657
▁아무것도	-9.00744
▁맛	-9.00799
▁년전	-9.00811
▁뭔지	-9.00936
여자	-9.01061
나는	-9.0112
슨	-9.01134
▁된다	-9.01415
▁액션도	-9.01494
▁평점에	-9.01543
▁프랑스	-9.0157
▁현재	-9.01681
▁낮은	-9.01815
▁감	-9.01889
초	-9.01919
▁이상한	-9.02002
었음	-9.02041
조차	-9.02137
▁없네요	-9.02299
▁믿고	-9.0249
하냐	-9.02572
▁봐	-9.02598
▁우연히	-9.02617
▁느낄	-9.02633
척	-9.02697
▁예상	-9.02724
건데	-9.02914
뻔	-9.02979
추	-9.03078
순	-9.03086
▁알았다	-9.03092
번	-9.03182
▁좋음	-9.03207
▁이런거	-9.03419
▁사회	-9.03669
사람들	-9.03677
▁이정도	-9.03856
▁머리	-9.03943
▁지금까지	-9.04059
▁갈	-9.04086
▁지금도	-9.04151
남자	-9.04202
습	-9.04334
▁어디	-9.04394
▁굳	-9.04475
▁좋았어요	-9.04671
창	-9.04682
처	-9.04774
▁비슷한	-9.0479
막	-9.04852
이라니	-9.04905
▁이야기를	-9.05053
버린	-9.05058
▁존재	-9.05078
▁저도	-9.05137
좋아	-9.05149
▁영상미	-9.05178
▁복수	-9.05189
만한	-9.05258
▁시청률	-9.05381
▁어린	-9.05403
▁이런걸	-9.05641
▁처음으로	-9.05678
▁해도	-9.05693
▁이미	-9.05723
되고	-9.05739
▁포	-9.0588
▁아이들이	-9.05898
김	-9.05966
커	-9.05993
▁생	-9.06022
했습니다	-9.06132
▁아닌가	-9.06136
▁대단하다	-9.06837
▁아버지	-9.06863
▁특유의	-9.06883
▁수가	-9.0689
▁듯한	-9.07007
▁하게	-9.07012
▁시간낭비	-9.07086
▁탄	-9.0715
▁코메디	-9.07223
▁가는	-9.0729
▁그래픽	-9.07341
웃	-9.07408
표	-9.07501
▁부분	-9.07644
브	-9.07821
▁년도	-9.07894
▁어렸을때	-9.07914
▁선택	-9.07932
▁글	-9.07945
▁타	-9.07948
▁의미	-9.07964
▁관계	-9.08011
▁실제	-9.08117
마다	-9.08163
열	-9.08207
▁재미있고	-9.08246
왕	-9.08249
▁많	-9.08293
범	-9.08317
욕	-9.08319
정도로	-9.08342
▁천	-9.08369
철	-9.0837
▁이리	-9.08384
덕	-9.08459
▁액션영화	-9.08485
▁느끼게	-9.08506
▁팬	-9.08573
▁참고	-9.0864
언	-9.08663
▁나만	-9.08693
▁프로	-9.0875
▁제작	-9.08807
▁까지	-9.08858
▁왜이리	-9.09073
▁저질	-9.09088
엇	-9.09114
▁월	-9.09131
평	-9.09273
▁말고	-9.09275
▁개그	-9.09306
▁졸	-9.09376
▁나라	-9.09388
▁베	-9.09439
▁두번	-9.09453
▁만들지	-9.09535
▁입니다	-9.09556
▁비추	-9.09701
▁알았는데	-9.09702
▁속편	-9.09707
▁것이다	-9.09762
▁왠지	-9.09896
▁먹	-9.09912
으니	-9.09919
돈	-9.09936
만으로도	-9.10011
▁재미없	-9.10078
들도	-9.10078
▁하면	-9.10168
▁화려한	-9.10207
▁볼수	-9.10297
▁실	-9.1043
▁유치하고	-9.10814
어야	-9.10922
▁짜	-9.10964
설	-9.11012
▁재미없고	-9.11116
여서	-9.11217
▁마치	-9.11261
▁않았다	-9.1145
▁힘든	-9.11475
탄	-9.11502
▁최악이다	-9.11505
▁지난	-9.11528
▁무엇보다	-9.1154
▁모습이	-9.1162
▁영화보다	-9.11632
▁진부한	-9.11647
▁기대하고	-9.11691
봐서	-9.1176
할수	-9.11833
▁본다	-9.11939
이냐	-9.11952
규	-9.11975
▁않을	-9.11994
▁이젠	-9.1209
▁나이	-9.12182
나오	-9.12266
에는	-9.12271
▁또한	-9.12386
▁명작이다	-9.12397
▁그러	-9.12421
느	-9.12454
▁양	-9.12548
▁삶	-9.12576
▁겁나	-9.12611
새	-9.12613
퍼	-9.12659
▁추	-9.12712
▁산	-9.12813
▁경	-9.12825
였	-9.12885
▁이유	-9.12891
▁변	-9.1302
▁귀여운	-9.1309
▁보고나서	-9.13112
▁졸라	-9.13119
▁결혼	-9.13155
린다	-9.13188
외	-9.13273
였는데	-9.13334
도록	-9.13458
했어요	-9.13461
▁나쁜	-9.13537
▁레	-9.13645
▁비교	-9.1371
으며	-9.13711
▁일본영화	-9.13796
겠지만	-9.13799
▁메	-9.13962
근	-9.13997
▁용	-9.1403
잇	-9.14054
길래	-9.14258
▁잘봤습니다	-9.14264
▁영화라	-9.14324
▁인정	-9.14325
▁않음	-9.1434
▁대작	-9.14532
▁있다는	-9.14554
▁첨	-9.14572
▁싶	-9.14597
▁알게	-9.14659
▁장면은	-9.14661
인거	-9.14671
▁중에	-9.1469
▁귀신	-9.14835
▁나온다	-9.14886
▁내인생	-9.14901
한거	-9.14909
▁를	-9.14963
했고	-9.14987
께	-9.15028
법	-9.15144
▁전체적으로	-9.15382
▁점짜리	-9.15458
▁까	-9.15565
▁아니면	-9.1566
▁감성	-9.15725
좋	-9.15732
친	-9.15797
▁대충	-9.15812
같다	-9.15879
수가	-9.16012
▁영화에서	-9.16029
직	-9.16031
▁군대	-9.16037
▁별루	-9.1627
▁마음을	-9.16293
▁그렇고	-9.16328
▁아니지만	-9.16377
▁지금봐도	-9.16422
영화다	-9.1643
▁리	-9.16438
▁성우	-9.16446
슬	-9.16466
▁죽음	-9.16494
▁웃	-9.16523
않	-9.16534
▁범죄	-9.16591
▁재밌었어요	-9.16632
▁떠나	-9.16656
영화가	-9.16665
쯤	-9.16675
놈	-9.16736
훈	-9.1679
츠	-9.1682
▁심리	-9.16866
▁아닐까	-9.17169
▁좀비	-9.17181
▁좋았습니다	-9.17348
봐라	-9.17352
락	-9.17479
▁카메라	-9.17587
배우들	-9.17588
나라	-9.17697
▁소재는	-9.17719
하여	-9.17721
▁여성	-9.17751
▁노출	-9.17791
▁허접한	-9.17797
렸	-9.17807
▁눈이	-9.17873
주의	-9.17901
▁평론가	-9.17943
▁세상에	-9.18144
▁재밋	-9.18295
▁아놔	-9.18423
▁네	-9.18457
또	-9.1846
▁독립영화	-9.18528
▁충격	-9.18588
▁몰입	-9.18601
빈	-9.1864
▁쓴	-9.18651
▁좋았고	-9.18659
▁실화	-9.18715
▁남주	-9.18752
간다	-9.18962
▁감사합니다	-9.19071
하는거	-9.19197
▁생각한다	-9.19241
분들	-9.19263
많이	-9.19263
▁먼저	-9.19269
틀	-9.19284
돌	-9.19309
▁드	-9.19326
▁담	-9.19363
▁없을	-9.19485
▁암	-9.1954
▁서로	-9.19564
▁너무나도	-9.19626
▁보여주	-9.19781
▁질	-9.19815
▁어색한	-9.19846
▁상영	-9.19863
이면	-9.19876
으나	-9.19901
▁웃기	-9.19982
▁이번	-9.20003
▁써	-9.20134
▁지루하지	-9.20189
▁드라마를	-9.20203
에겐	-9.20214
▁촬영	-9.20244
런	-9.20354
▁보여준	-9.20412
▁작품이	-9.2048
▁사랑이	-9.20495
▁스토리에	-9.20509
▁둘	-9.20529
▁집중	-9.20637
▁사건	-9.20664
▁삶을	-9.20705
찬	-9.20742
별로	-9.20764
▁년에	-9.20785
▁같습니다	-9.20816
▁그녀	-9.20969
▁그래	-9.2099
눈	-9.21014
▁되어	-9.21019
▁못하고	-9.21052
▁돌	-9.21105
▁맞는	-9.21108
▁영화였습니다	-9.21302
▁역시나	-9.21304
▁액션이	-9.21315
▁여자가	-9.2132
▁어이없는	-9.21359
▁다소	-9.21376
▁경찰	-9.21391
침	-9.21419
▁점준다	-9.21486
▁새	-9.21836
▁확실히	-9.21924
▁별로다	-9.22046
▁자신의	-9.22074
▁하는데	-9.22077
▁끝나	-9.22108
▁일상	-9.22174
▁함	-9.22184
보는데	-9.2221
했으면	-9.22265
▁노력	-9.22337
▁예전	-9.22351
▁깊은	-9.22437
▁낮	-9.22443
좋다	-9.22599
▁다만	-9.22642
하니	-9.22668
▁만들었다	-9.22706
▁보이는	-9.22713
속에	-9.22799
▁무서운	-9.23144
▁디	-9.23267
▁이후	-9.23326
▁재미있	-9.23396
아니	-9.23428
▁이영화가	-9.23428
▁흥미	-9.23447
았다	-9.23499
▁매력적인	-9.23528
낸	-9.23565
▁문	-9.23586
어도	-9.2359
▁상상	-9.23864
▁형	-9.23937
기대	-9.23943
을듯	-9.23978
▁힘들	-9.23982
더군요	-9.24008
▁확	-9.24016
일까	-9.24041
▁인물	-9.24115
▁으	-9.24204
▁보지마세요	-9.24281
▁설명	-9.24369
▁완성도	-9.24464
▁영웅	-9.24508
▁이런게	-9.24517
하던	-9.2461
▁교훈	-9.24697
▁순수한	-9.24873
광	-9.24936
들과	-9.24958
허	-9.25029
가서	-9.25033
션	-9.25038
빠	-9.25055
향	-9.25122
한번	-9.25226
▁라고	-9.25234
▁메시지	-9.25238
▁있었던	-9.25281
▁유쾌한	-9.25465
▁전에	-9.25524
▁낭비	-9.25547
▁귀	-9.25595
쉬	-9.25639
▁전기세	-9.25646
성이	-9.25651
▁미래	-9.25687
리고	-9.25698
▁감상	-9.25743
▁웃긴	-9.25747
▁그런가	-9.25777
▁프로그램	-9.25857
▁이야기가	-9.25897
▁알아	-9.25905
▁왜이렇게	-9.25922
▁같네요	-9.25938
▁좋았는데	-9.25993
▁기분이	-9.26105
▁킬링타임용	-9.26119
▁좋았음	-9.2612
▁볼때마다	-9.26149
이에요	-9.26228
처음	-9.26379
▁이건뭐	-9.26571
▁고민	-9.26771
▁역대	-9.26831
▁작	-9.26834
▁가지	-9.26837
▁모습을	-9.26966
▁관람	-9.27077
▁아들	-9.2709
▁같	-9.27096
▁찍	-9.2711
▁나를	-9.27169
▁리메이크	-9.27223
▁감탄	-9.27292
▁분명	-9.27298
▁평생	-9.27323
풍	-9.2736
▁현	-9.27365
▁부분이	-9.27464
▁애들이	-9.27562
▁진행	-9.27618
▁라	-9.27623
것이다	-9.27667
▁질질	-9.27802
약	-9.27893
졌다	-9.27918
▁행동	-9.27956
그냥	-9.27977
▁영화중에	-9.28048
▁연애	-9.28064
▁슬프다	-9.28125
▁스토리와	-9.28149
▁내용을	-9.28193
베	-9.28232
▁매력이	-9.28256
끼	-9.28292
플	-9.28297
▁천재	-9.28342
▁했지만	-9.28346
▁아저씨	-9.28434
▁몸	-9.28456
받	-9.28486
▁완벽	-9.28516
▁나중에	-9.28655
였음	-9.28681
▁해주는	-9.28744
▁느껴지는	-9.28838
▁목	-9.28894
▁여전히	-9.2896
▁액션은	-9.28976
▁든다	-9.29079
거임	-9.29133
였습니다	-9.29158
▁독특한	-9.29175
▁눈을	-9.29299
▁평범한	-9.29313
메	-9.29433
▁로맨틱	-9.29497
▁아름답다	-9.29716
▁떨어지는	-9.29763
▁보고싶다	-9.29827
▁더이상	-9.29838
각	-9.29888
▁태	-9.29904
▁찍은	-9.30013
▁드라마가	-9.30021
삼	-9.30042
던지	-9.30142
▁끝나고	-9.30177
끝	-9.30177
결	-9.30188
▁단순	-9.30246
전개	-9.30248
▁온	-9.30311
걸까	-9.30331
▁부터	-9.30481
▁당	-9.30523
▁그럼	-9.30538
▁마라	-9.30571
▁깊이	-9.3059
▁정치	-9.30636
▁긴	-9.3066
▁억	-9.30705
▁음악이	-9.30714
▁주제	-9.30725
▁유머	-9.30826
▁살짝	-9.3086
▁마무리	-9.30877
려는	-9.30895
▁사람을	-9.31029
▁자연	-9.31092
▁역할	-9.31201
▁처음이다	-9.31291
▁춤	-9.31362
들어	-9.31386
올	-9.31395
련	-9.31397
뜨	-9.31399
지고	-9.31409
▁꼴	-9.31431
▁살인	-9.3157
▁사랑하는	-9.3162
렸다	-9.3166
▁나오고	-9.31732
▁과연	-9.3181
▁아닌데	-9.31851
▁사극	-9.31873
▁통	-9.31877
▁악역	-9.3192
▁재미있음	-9.3195
▁해준	-9.31988
함을	-9.32049
나온	-9.32063
▁독	-9.32076
▁늘	-9.32144
▁저렇게	-9.32155
▁게임	-9.32198
▁예고편	-9.32259
▁굳이	-9.3231
▁표절	-9.32373
내요	-9.32456
잔	-9.32462
▁돌려	-9.32464
▁추천합니다	-9.32493
▁소재를	-9.32511
▁예쁜	-9.32531
▁그들의	-9.3254
▁했던	-9.32553
▁판	-9.32649
▁청춘	-9.32706
▁연기력이	-9.32749
▁귀엽고	-9.32757
▁집	-9.32784
▁성공	-9.32798
▁이유가	-9.32819
시리즈	-9.32936
▁떠	-9.32939
▁이연걸	-9.32945
▁그의	-9.32949
▁봤었는데	-9.32967
하는게	-9.33042
▁드는	-9.33104
▁있다면	-9.33243
▁감동적이고	-9.33267
▁홍콩	-9.33299
다운	-9.33334
▁괴물	-9.33424
▁신선한	-9.33455
야지	-9.33529
였던	-9.33679
▁아름답고	-9.33694
▁고전	-9.33712
▁밑에	-9.33857
▁기대를	-9.33968
▁트	-9.33987
▁좋을	-9.34043
해지는	-9.34069
▁에휴	-9.34128
있게	-9.34182
▁버	-9.34185
사람이	-9.3421
▁우정	-9.34306
▁안되	-9.34328
▁아오	-9.34393
맛	-9.34483
셨	-9.34515
▁수준이	-9.34742
까진	-9.34802
▁감사	-9.34891
▁빠	-9.34913
▁처음엔	-9.34914
겠	-9.35053
▁가진	-9.35194
▁보는게	-9.35206
주고	-9.35344
▁짓	-9.35408
▁미화	-9.3549
▁나에게	-9.35515
▁뮤지컬	-9.3554
재밌	-9.3554
▁처	-9.35646
아깝다	-9.3567
▁몰입이	-9.35687
▁재밌었는데	-9.35738
▁티비에서	-9.35777
▁젤	-9.3587
햇	-9.3591
▁주인공들	-9.35937
완전	-9.35962
▁용서	-9.36177
일뿐	-9.36195
▁싫다	-9.36227
▁안되고	-9.36299
스럽다	-9.36301
▁진실	-9.36318
시대	-9.36348
드는	-9.36462
▁등장	-9.36463
▁크	-9.36479
▁느끼	-9.3656
나서	-9.36585
맞	-9.3661
▁잘만든	-9.36638
▁공감이	-9.36685
▁이정도면	-9.367
▁몰입감	-9.36703
▁난다	-9.36713
▁보기엔	-9.3679
▁스토리를	-9.36813
도없고	-9.36853
▁바보	-9.36922
준다	-9.37006
▁통해	-9.37067
▁그럭저럭	-9.37186
좋은	-9.37283
땐	-9.37327
▁아는	-9.37329
▁열심히	-9.37369
거리	-9.37468
▁연기에	-9.37528
▁성장	-9.37576
▁돌아	-9.37594
네여	-9.37671
아이	-9.37795
이며	-9.37801
▁작품성	-9.37845
▁어제	-9.37877
합	-9.37952
블	-9.3797
한데	-9.38105
먼	-9.3811
벌	-9.38119
아닌	-9.38138
료	-9.3817
셔	-9.38199
▁접	-9.38233
록	-9.38308
▁사는	-9.38336
▁윤	-9.38384
▁나서	-9.38424
▁끝내	-9.38443
▁말로	-9.38449
▁남는다	-9.38565
▁여운	-9.3859
▁잼있게	-9.38634
▁안됨	-9.38634
▁안하고	-9.38655
▁삼	-9.38695
▁연기와	-9.3873
▁복	-9.3882
술	-9.38889
다면	-9.38959
▁스타일	-9.38977
▁빠져	-9.39007
▁중간중간	-9.39008
▁영화보고	-9.39118
▁북한	-9.39134
리가	-9.39139
▁여러	-9.39144
▁같아	-9.39145
▁싫어	-9.39194
▁맨	-9.39313
▁진심으로	-9.3933
▁사랑에	-9.39395
▁숨	-9.39491
▁만큼	-9.39524
▁키	-9.39532
▁나왔으면	-9.39544
▁주인공의	-9.3956
귀	-9.39668
재밋	-9.39704
▁동화	-9.39726
▁짜증나는	-9.39819
▁한계	-9.39836
▁하나하나	-9.39836
▁무지	-9.39838
▁팔	-9.39842
▁현대	-9.39863
없어	-9.39868
▁같음	-9.39877
적이고	-9.39925
▁올해	-9.39946
▁사이	-9.39946
▁딴	-9.4002
▁관	-9.4003
별	-9.4005
▁추억의	-9.40065
졌	-9.40076
▁벌	-9.40098
▁바람	-9.40139
▁그림	-9.40196
▁아닌듯	-9.40232
대박	-9.40383
▁생각합니다	-9.40403
▁재미없네	-9.40408
▁커	-9.40441
▁꼬	-9.40449
▁몸매	-9.40553
▁언제나	-9.406
▁관심	-9.4065
▁만들어진	-9.40662
▁궁금	-9.40735
▁세상	-9.40893
▁그다지	-9.40896
▁티비	-9.40909
▁한편	-9.40927
▁최근	-9.40996
▁짜증나	-9.41069
▁음악도	-9.41105
써	-9.41223
▁재밌습니다	-9.41239
패	-9.41272
▁나가	-9.41335
엉	-9.41375
▁지루해서	-9.41391
었으면	-9.41471
▁보시길	-9.41628
▁지나	-9.41677
▁시간을	-9.41702
▁느끼는	-9.41755
▁니	-9.41771
▁퀄리티	-9.41885
그런	-9.41997
▁성인	-9.42097
▁광고	-9.42153
▁게이	-9.42181
▁분들	-9.42183
이거	-9.42232
▁힐링	-9.42299
▁투	-9.42302
백	-9.42318
▁되었다	-9.42422
▁감동적이	-9.4244
▁어찌	-9.42459
▁아까워	-9.42479
▁극장	-9.42488
▁영화이다	-9.42632
▁제작진	-9.42663
▁이유는	-9.42669
▁감동과	-9.4269
▁우리가	-9.42751
▁제목이	-9.43006
자가	-9.43046
▁쓰래기	-9.43047
▁크게	-9.43096
▁티	-9.43134
▁답답	-9.43135
▁볼만함	-9.43136
▁쉽게	-9.43163
▁범인	-9.43259
씨가	-9.4326
▁있었	-9.4326
▁있지	-9.43268
팬	-9.433
힌	-9.43329
품	-9.43358
▁메세지	-9.43367
▁디즈니	-9.43383
▁봤으면	-9.43383
▁암튼	-9.43392
▁봤다가	-9.43394
▁민	-9.4344
▁이어	-9.43517
▁끌	-9.43524
▁많다	-9.43627
▁창	-9.43705
▁재미를	-9.4378
▁흥미진진	-9.43782
적이	-9.43801
지마라	-9.43851
▁엉성한	-9.43855
▁무섭다	-9.43873
방송	-9.43876
취	-9.43911
▁유치함	-9.43944
딸	-9.4398
▁생각해	-9.44001
잉	-9.44022
킹	-9.44022
말이	-9.44173
씩	-9.44177
▁다큐멘터리	-9.44183
▁섹스	-9.44281
▁높다	-9.44303
▁임	-9.44349
명작	-9.4438
▁생각나는	-9.44446
▁캐	-9.44607
▁종교	-9.44652
▁가볍게	-9.44686
▁볼수록	-9.44755
▁패	-9.44763
▁어쩔	-9.44927
▁슬프고	-9.44945
거같다	-9.45069
▁빈	-9.45113
▁종	-9.45126
▁상상력	-9.45134
▁하면서	-9.45153
▁되게	-9.45201
▁드라마는	-9.45296
▁만든다	-9.45313
▁가끔	-9.45396
▁후반부	-9.455
보면서	-9.45518
▁짱짱	-9.45703
하세요	-9.4573
▁좋았던	-9.45817
▁글쎄	-9.45842
이런	-9.45881
▁재밌네	-9.45901
▁알바들	-9.45983
▁폭력	-9.45986
▁헐리우드	-9.46006
▁삶의	-9.46225
마저	-9.46302
▁희생	-9.46331
▁스케일	-9.46336
▁소름	-9.46402
▁스타	-9.46491
해주는	-9.46532
앗	-9.46652
▁싸구려	-9.46672
염	-9.46696
▁반전도	-9.46704
▁남을	-9.46766
▁비주얼	-9.46791
▁아쉬움	-9.46832
오빠	-9.47091
낮	-9.47201
량	-9.4723
봐야	-9.47238
부분	-9.47272
시켜	-9.47303
찌	-9.47334
▁법	-9.47355
익	-9.47356
▁방금	-9.47376
▁좋습니다	-9.47427
▁게다가	-9.47445
▁소재가	-9.47463
더라구요	-9.47467
▁필요없는	-9.47498
▁흐	-9.47512
▁현실성	-9.47783
변	-9.47791
▁필요없다	-9.47796
▁없지만	-9.47801
▁골	-9.47891
한듯	-9.47921
놈들	-9.48038
최악	-9.48086
▁다시한번	-9.48149
▁해야	-9.48234
▁재미있네요	-9.48266
보세요	-9.48274
▁잔인한	-9.48289
▁어이가	-9.48314
▁전작	-9.48315
▁봐야할	-9.48368
▁영화지만	-9.48368
하자	-9.4838
▁배우의	-9.48445
는것	-9.48474
▁가서	-9.4865
레이	-9.4866
▁싶어	-9.48692
본다	-9.48713
로써	-9.48784
▁잼있	-9.48878
▁리뷰	-9.48934
▁딱히	-9.48964
있어	-9.49002
는걸	-9.49097
▁설	-9.49123
▁그걸	-9.49201
▁만나	-9.49304
▁인상	-9.4936
▁문화	-9.49447
▁누구	-9.49476
함이	-9.49489
▁결말은	-9.49575
였지만	-9.49651
▁몰라도	-9.49787
▁보고싶은	-9.49898
청	-9.49898
독	-9.4991
▁쫌	-9.4994
득	-9.49941
▁사람의	-9.50018
▁덜	-9.50036
▁평이	-9.50052
렌	-9.50071
▁따	-9.50072
고싶다	-9.50076
▁못했다	-9.50121
▁어릴적	-9.50157
하긴	-9.50296
▁조연	-9.50438
닥	-9.50446
▁있나	-9.50449
▁멋지다	-9.50454
▁여기서	-9.50483
속에서	-9.50516
다시	-9.50565
튼	-9.50644
▁중간	-9.50665
▁잊혀지지	-9.50684
겠네	-9.50739
▁둘다	-9.50763
었어요	-9.50826
책	-9.50827
▁진정	-9.50829
▁끝나는	-9.50868
▁소재로	-9.5092
▁연출도	-9.50937
기가	-9.50967
탈	-9.51058
▁대단	-9.51114
▁얼	-9.51155
▁자막	-9.51194
▁싸	-9.51224
▁거지	-9.51282
▁슬픔	-9.51353
▁씬	-9.514
▁점수를	-9.51402
되지	-9.51473
▁점주는	-9.51511
▁좋아서	-9.51513
▁인생을	-9.5152
▁재밋다	-9.51543
쿠	-9.51589
윤	-9.51628
▁좀더	-9.51661
▁지금은	-9.5176
만들어	-9.51831
▁어른	-9.51836
만든	-9.51844
▁아깝지	-9.51855
▁결말도	-9.51869
▁펑펑	-9.51898
▁재밋게	-9.51948
▁정말로	-9.51951
주세요	-9.51953
▁이제야	-9.52029
▁발전	-9.52032
▁웃기고	-9.5204
곡	-9.5206
▁저예산	-9.52169
▁드럽게	-9.52175
▁기본	-9.52212
▁그랬	-9.52373
스런	-9.5246
▁사랑과	-9.5254
▁되지	-9.52592
쪽	-9.52708
▁반성	-9.52767
▁제작비	-9.52783
째	-9.52785
▁와우	-9.52801
할듯	-9.52848
▁어려운	-9.52891
▁포장	-9.5291
▁캐릭터들	-9.52911
하는지	-9.52918
완	-9.52928
▁마세요	-9.52941
가지고	-9.53071
▁배우들도	-9.53112
▁작가가	-9.53295
▁표	-9.533
지않	-9.53307
▁보여	-9.53458
동안	-9.53475
버렸다	-9.535
▁쵝오	-9.53596
▁뛰어난	-9.53611
▁놀	-9.53626
▁중요한	-9.53627
▁단지	-9.53646
면서도	-9.53674
▁사랑스러운	-9.53685
▁젊은	-9.53707
숙	-9.5371
▁받	-9.53741
▁쩝	-9.53743
▁다르	-9.53757
만으로	-9.53771
으론	-9.53843
드라	-9.53911
▁높	-9.53921
▁취향	-9.54006
▁재밌었음	-9.54008
▁초반에	-9.54048
▁압권	-9.54195
▁인기	-9.54247
▁있습니다	-9.54275
▁견자단	-9.54315
▁불구하고	-9.54315
▁있게	-9.54325
▁만들고	-9.54328
▁세기	-9.5434
▁씨	-9.54424
▁않게	-9.5443
찍	-9.54469
▁국	-9.5447
▁영화냐	-9.5459
▁나왔	-9.54668
▁산으로	-9.54698
▁리얼	-9.54789
▁시대를	-9.5479
봣는데	-9.54856
▁느와르	-9.54873
▁그렇다고	-9.54903
▁이러	-9.54943
▁능력	-9.54974
없네	-9.5502
▁볼만하다	-9.55046
▁어머니	-9.55055
▁시선	-9.5506
▁생애	-9.55087
▁단연	-9.55136
▁채	-9.55146
하면서도	-9.55163
▁의심	-9.55248
▁유치하다	-9.55265
봤던	-9.55318
▁없나	-9.55364
▁집에서	-9.55388
아서	-9.55522
▁낮아서	-9.55544
▁봣는데	-9.55576
▁몇번을	-9.5561
▁벌써	-9.5578
▁맨날	-9.55806
▁아름다움	-9.559
▁건지	-9.55993
▁자유	-9.55996
보다가	-9.56009
▁묘사	-9.56043
▁시걸	-9.56054
혜	-9.56069
▁빌려	-9.56122
▁사기	-9.56236
▁이쁜	-9.56311
싶	-9.56357
시키는	-9.56358
▁먼	-9.56372
▁찾	-9.5638
▁하네요	-9.56436
▁의도	-9.56489
▁흔한	-9.56513
▁끝이	-9.56627
▁대화	-9.56627
듬	-9.56639
싸	-9.56639
▁동생	-9.56652
에요	-9.56694
견	-9.56711
▁뻔	-9.5674
▁인간이	-9.56744
▁시대	-9.56876
▁죄다	-9.56884
▁그렇다	-9.56895
▁연속	-9.56903
▁희망	-9.56931
▁에로	-9.56942
걸로	-9.57015
▁맥	-9.57073
▁분이	-9.57092
▁말을	-9.57131
▁스스로	-9.57247
▁옛날에	-9.57249
▁이런영화가	-9.573
반전	-9.57314
▁찍어	-9.57362
▁멍청한	-9.57397
에서는	-9.57431
▁급영화	-9.57491
좋고	-9.57517
딱	-9.57552
혀	-9.5757
▁탄탄한	-9.57581
을텐데	-9.57592
전에	-9.57694
겟	-9.57729
더만	-9.57824
▁현실적인	-9.57848
▁미드	-9.57882
낼	-9.57938
▁재미있었다	-9.57944
있음	-9.57984
▁헐리웃	-9.57992
빨	-9.58128
▁눈물을	-9.58156
칠	-9.5822
▁밥	-9.5823
▁무엇을	-9.58297
손	-9.58335
▁누구나	-9.58345
▁남자가	-9.58402
에대한	-9.58447
▁아마	-9.58553
해보	-9.58562
▁아이돌	-9.58566
이건	-9.58614
재밌게	-9.58736
▁굿굿	-9.58783
▁영국	-9.58827
때마다	-9.58859
꼬	-9.5893
충	-9.5896
▁표현한	-9.59042
▁모든게	-9.59062
▁식	-9.59132
팔	-9.59137
▁재미없어요	-9.59146
▁죽는	-9.59172
▁뻔하고	-9.59193
▁단순한	-9.59239
▁폭	-9.59253
▁안돼	-9.59272
시절	-9.59308
▁이후로	-9.594
것을	-9.59554
한영화	-9.5957
▁환상	-9.59617
▁있어요	-9.59628
▁몰입해서	-9.59642
▁그린	-9.5972
▁웃겨	-9.59736
▁힘들다	-9.59853
코미디	-9.59888
▁긴장감도	-9.60022
▁답	-9.60038
던가	-9.60058
했을	-9.60071
▁청	-9.60073
▁남겨	-9.60146
▁끌어	-9.60232
▁덕분에	-9.60241
▁이거보고	-9.60284
▁분노	-9.60372
▁안타깝다	-9.60428
영화중	-9.60455
▁한심	-9.60481
니깐	-9.60527
▁나옴	-9.60564
봣	-9.60597
같	-9.60613
놓	-9.60639
쇼	-9.60673
▁보니까	-9.60705
▁유쾌	-9.60719
▁같아서	-9.60727
인가요	-9.60801
령	-9.60823
▁운	-9.61014
▁어휴	-9.61049
▁지나치	-9.61175
▁밀	-9.61188
▁아나	-9.61199
▁보았다	-9.61254
▁생각없이	-9.61267
▁잔잔하고	-9.61292
▁노답	-9.61348
▁말하는	-9.61364
▁조폭	-9.61374
▁몰	-9.61444
▁못한다	-9.61447
깨	-9.6145
▁무비	-9.61474
혹	-9.61474
▁발로	-9.61561
▁줌	-9.61609
짝	-9.61671
▁황당	-9.61805
▁눈에	-9.61859
▁벗	-9.61876
왔	-9.61914
▁점준	-9.61918
▁히	-9.6201
▁됐	-9.62025
나고	-9.62032
▁떠나서	-9.62123
▁철	-9.62257
▁틀	-9.62402
▁않아	-9.62485
▁표정	-9.62514
멘	-9.6259
▁높아	-9.62615
▁채널	-9.62655
▁위대한	-9.6266
▁되고	-9.62665
답	-9.62721
▁유쾌하고	-9.62795
▁계	-9.62808
한다는	-9.62831
▁명작이	-9.62886
▁포기	-9.62954
려서	-9.62975
밀	-9.63001
놓은	-9.63076
▁홍보	-9.63187
▁권	-9.63194
얘기	-9.63234
하시	-9.63312
▁취	-9.63342
▁즐겁게	-9.63379
▁우주	-9.63435
재미없다	-9.6345
▁재밌을	-9.63506
▁느낌을	-9.63561
▁공부	-9.63579
▁올리	-9.63583
봉	-9.63629
▁신기	-9.63637
▁잊지	-9.63758
▁장면에서	-9.63884
▁로봇	-9.6389
죄	-9.63906
▁유명한	-9.63943
▁시도	-9.6397
▁동물	-9.6398
▁쩐다	-9.64124
결말	-9.64147
었습니다	-9.64151
▁레전드	-9.64172
▁학교	-9.64184
▁멋있다	-9.64223
▁보고나면	-9.64262
▁허세	-9.64283
▁우와	-9.64307
▁싶네요	-9.64327
▁소녀	-9.64329
▁한참	-9.64461
▁시트콤	-9.64466
▁바라	-9.64519
▁않지만	-9.64582
▁죽여	-9.64587
엄	-9.64674
▁한데	-9.64677
갑	-9.64682
▁순수	-9.64704
뜻	-9.64714
▁연예인	-9.64792
▁했	-9.64803
▁읽	-9.64873
▁되었	-9.64885
성을	-9.64893
같음	-9.64983
▁베스트	-9.64995
▁갈등	-9.65003
▁호러	-9.65054
그러	-9.65075
▁빼	-9.65078
▁엉성	-9.65132
▁뭐라	-9.65153
▁최고입니다	-9.6518
▁진리	-9.65187
▁정서	-9.65232
관계	-9.65241
으로서	-9.6539
지않고	-9.65446
▁이해할	-9.65466
징	-9.6554
▁보길	-9.65637
▁하는지	-9.6564
▁안보고	-9.65686
몰	-9.65694
▁즐거운	-9.65778
▁보인다	-9.65812
버리는	-9.65826
▁코난	-9.65831
로서	-9.65832
겁니다	-9.65866
▁없었	-9.65941
▁학교에서	-9.65969
▁뜻	-9.66019
▁황	-9.66026
보이	-9.66029
▁여자들	-9.66076
하라	-9.66156
인것	-9.66193
▁않나	-9.66335
돼	-9.66355
▁넘어	-9.66377
▁영어	-9.66456
▁생각하고	-9.66464
▁달라	-9.66478
▁빼고	-9.66556
▁하루	-9.66601
▁출연진	-9.6661
▁멋	-9.66614
것은	-9.66615
▁왜케	-9.66658
말고	-9.66668
▁부모	-9.66762
▁앞으로도	-9.66809
▁대사가	-9.66848
였어요	-9.66897
▁관객들	-9.66906
봤음	-9.66921
▁속에	-9.66954
곤	-9.6713
▁고생	-9.67145
▁의리	-9.67176
하구	-9.67211
연출	-9.67256
현실	-9.67303
▁지구	-9.67327
▁의외로	-9.67411
시는	-9.6745
▁편견	-9.67459
났	-9.6747
기분	-9.67475
▁못해	-9.67486
▁있네요	-9.67517
▁작가님	-9.67519
▁만들었	-9.67595
▁에피소드	-9.67602
▁전편	-9.67659
▁멋있	-9.6771
엿	-9.67719
▁여행	-9.67731
나와	-9.67751
▁이쁘고	-9.67768
▁페	-9.67774
갔	-9.67792
십	-9.67797
것만	-9.67806
시킨	-9.67887
▁영화에요	-9.67927
▁시사회	-9.67941
▁보고싶	-9.67953
▁어색	-9.67963
굿	-9.68021
했는지	-9.68032
봐요	-9.68133
▁필요한	-9.68139
▁꿈을	-9.6823
른	-9.68242
▁설마	-9.68302
▁있으면	-9.68335
했네요	-9.68354
▁작은	-9.68357
기엔	-9.68363
▁다행	-9.68388
한건	-9.68394
존	-9.6842
▁지루했다	-9.68428
무비	-9.68439
▁군	-9.68523
▁후반	-9.68553
▁미모	-9.68605
▁느낄수	-9.68624
▁짝퉁	-9.68657
▁꺼	-9.68688
▁친	-9.68703
▁울었다	-9.68713
▁칼	-9.68734
▁음악과	-9.68762
▁년전에	-9.68817
▁실제로	-9.68835
둘	-9.68893
▁연기력도	-9.68902
▁모르겠고	-9.68972
▁손발이	-9.68996
▁보이	-9.69005
▁돌아가	-9.69006
▁원작이	-9.69035
값	-9.69054
▁아이가	-9.69066
▁동안	-9.69116
▁무척	-9.6914
▁개연성이	-9.69216
▁나오지	-9.69255
▁자살	-9.69263
와서	-9.69304
재밌다	-9.69318
▁한국인	-9.69364
▁흐름	-9.69394
▁헤	-9.69483
는건지	-9.69495
가족	-9.69524
▁자신	-9.69585
▁당시에	-9.69664
▁전달	-9.69796
▁대부분	-9.69888
▁못할	-9.69889
떄	-9.69911
▁젠장	-9.69911
▁힘이	-9.69948
▁쓸	-9.70064
아님	-9.70069
▁몰랐	-9.70149
▁개판	-9.7022
▁편보다	-9.70295
▁재미있었어요	-9.70301
탕	-9.70363
▁풀	-9.7037
▁신선하고	-9.70396
음악	-9.70449
▁헤어	-9.70461
거라	-9.70567
▁처럼	-9.70574
빵	-9.70624
▁웃음이	-9.70628
땅	-9.70668
▁죽은	-9.70698
힐	-9.70749
▁주성치	-9.70759
▁인생의	-9.70815
▁어린이	-9.70832
▁나오면	-9.70849
▁이쁘다	-9.70861
▁평론가들	-9.70881
▁아픔	-9.70889
사이	-9.70908
▁아쉽네요	-9.7091
▁지루할	-9.70943
▁제로	-9.71016
▁따뜻해지는	-9.71129
▁경험	-9.71145
▁좋게	-9.71149
▁뇌	-9.71218
▁국민	-9.71259
▁영화였어요	-9.71274
▁찡	-9.71344
▁없는데	-9.71349
▁김기덕	-9.71377
폭	-9.71427
했네	-9.71527
들아	-9.71557
▁더불어	-9.71615
▁교	-9.71639
▁송	-9.71641
▁더러운	-9.7168
▁그거	-9.71764
영화라고	-9.7187
먹고	-9.71922
▁생각하는	-9.71929
▁달리	-9.72046
▁귀엽	-9.72195
▁클	-9.72328
앙	-9.72354
▁앞	-9.72367
송	-9.72393
▁비극	-9.72459
▁봤더니	-9.72475
▁왠만하면	-9.72475
▁흥미로운	-9.72484
지루	-9.72489
▁외모	-9.72596
▁완전히	-9.72649
▁청소년	-9.72651
▁싸이코	-9.72729
▁밤	-9.72768
▁웃김	-9.72826
▁오바	-9.72849
갔다	-9.72874
▁울고	-9.72879
▁고양이	-9.7289
▁평범	-9.72928
▁좋지만	-9.72995
사는	-9.73001
놀	-9.73073
▁작품을	-9.73188
▁철학	-9.73228
느라	-9.73245
▁사랑의	-9.73296
▁무시	-9.73303
▁직접	-9.73348
였고	-9.73368
▁역대급	-9.73386
▁카리스마	-9.735
▁패러디	-9.735
시키	-9.73525
수록	-9.73586
▁광	-9.73641
▁모르겠지만	-9.73749
따라	-9.73755
이었음	-9.73785
풀	-9.73806
▁조합	-9.73813
하려는	-9.73836
했어	-9.73876
▁무섭지도	-9.73902
▁나왔다	-9.73915
효	-9.73923
끄	-9.73949
일이	-9.73973
▁작품이다	-9.74009
프로	-9.7403
작가	-9.74047
주인공	-9.74089
보자	-9.74121
▁신고	-9.74197
▁갑	-9.74198
▁유명	-9.7424
▁평점보고	-9.7424
▁레알	-9.74249
▁아깝	-9.74249
엄마	-9.74267
▁엉망	-9.7427
있나	-9.7428
▁말할	-9.74283
▁질리지	-9.74303
▁없었던	-9.74343
▁삶에	-9.7437
▁극치	-9.74386
▁괜찮다	-9.74402
▁훌륭	-9.74413
점이	-9.74415
▁빼고는	-9.74449
▁포르노	-9.74451
한게	-9.74468
▁박수를	-9.74486
▁사랑은	-9.74495
▁말하고	-9.74499
▁일이	-9.74518
▁피해자	-9.7457
되서	-9.74612
▁지루하게	-9.74665
▁적당	-9.74696
누	-9.74747
이니	-9.74773
▁뜨	-9.74806
에서도	-9.74811
▁뒷	-9.7483
▁필름	-9.74902
▁감동적이다	-9.75068
▁나쁘지	-9.75092
▁감정을	-9.75103
▁원작의	-9.75105
▁긴장	-9.75118
▁있던	-9.75126
▁잼있다	-9.75212
▁가능	-9.75213
▁좋았지만	-9.75237
▁웃기지도	-9.75241
▁부족하다	-9.75276
있는데	-9.75294
▁답답한	-9.75407
▁알았	-9.75575
지않은	-9.7558
됬	-9.75663
▁들어가	-9.7573
▁케이블	-9.75776
▁한명	-9.75794
▁탈	-9.75849
▁이것	-9.75918
▁수도	-9.75979
접	-9.75995
▁받아	-9.76019
▁일품	-9.76076
▁에이	-9.76087
표현	-9.76105
▁해석	-9.76107
웠다	-9.76108
언니	-9.76191
씨의	-9.76204
▁기대했는데	-9.76228
▁감동적	-9.76232
추천	-9.76242
사람은	-9.76256
모습	-9.76273
▁내려	-9.76285
지않는	-9.76286
▁행복한	-9.76377
하신	-9.76381
▁주기	-9.76482
▁보았	-9.76488
▁좋겠어요	-9.76502
▁영화인듯	-9.7656
▁화가	-9.76578
이였다	-9.7664
만큼은	-9.76678
▁크리스마스	-9.7681
▁로그인	-9.76811
▁많아	-9.7682
실망	-9.7685
▁이해하기	-9.76871
암	-9.76901
▁좋았으나	-9.7691
이라서	-9.76922
▁영화보면서	-9.76927
▁왠	-9.76949
져서	-9.7696
새끼	-9.77003
▁본다면	-9.77004
▁비판	-9.77093
님의	-9.77123
▁훈훈한	-9.77137
수도	-9.77164
페	-9.77165
▁기자	-9.77196
▁무협	-9.77233
시고	-9.77261
껄	-9.77286
▁탑	-9.7729
▁있네	-9.77293
▁어렸을	-9.77523
대는	-9.77619
특	-9.7763
▁그럴	-9.7771
점수	-9.77732
▁영화관	-9.77755
▁의미를	-9.77788
▁국내	-9.77791
▁몇몇	-9.77821
▁다룬	-9.77852
▁쓰레기다	-9.7786
쓴	-9.77963
▁편의	-9.78039
▁할말이	-9.78054
▁오버	-9.78078
랄	-9.78112
▁진부하고	-9.78146
▁착한	-9.78183
▁간다	-9.7819
▁푹	-9.78195
하다니	-9.78239
▁할까	-9.78312
애니	-9.78313
▁홍콩영화	-9.78328
감이	-9.78345
▁남녀	-9.78367
킨	-9.78417
▁가슴에	-9.78419
▁개막장	-9.78506
할까	-9.78537
▁좋았을	-9.78538
▁뒤로	-9.78585
영화임	-9.78683
▁이유를	-9.78692
▁마이클	-9.78731
▁잠깐	-9.78732
나올	-9.78744
▁남자의	-9.78749
▁알수	-9.78758
▁빵점	-9.7882
링	-9.78827
▁좋아할	-9.78887
▁악마	-9.78923
▁개봉한	-9.7895
▁멀	-9.78972
▁스트레스	-9.79017
▁보내	-9.79066
▁할머니	-9.79097
▁똑같은	-9.79227
▁하는거	-9.7932
▁끝난	-9.79412
▁멍청	-9.79422
▁열정	-9.79465
▁자식	-9.79552
▁부작	-9.79587
▁됨	-9.79652
스타	-9.79666
클	-9.79715
▁그녀의	-9.79738
▁실력	-9.79742
▁낚시	-9.79761
▁감히	-9.79769
▁뿐이다	-9.79822
▁커플	-9.79877
▁모르게	-9.799
▁드립니다	-9.79907
으면서	-9.79929
애들	-9.79943
▁본방사수	-9.79944
▁반개도	-9.79953
만의	-9.7999
중의	-9.80033
만화	-9.80038
▁느껴진다	-9.80052
▁막판에	-9.80072
▁풍경	-9.80074
▁짜증난다	-9.80204
▁꽝	-9.80281
나와서	-9.80301
▁한마디	-9.80318
▁전개도	-9.8034
와는	-9.80399
▁없지	-9.804
▁우리는	-9.80409
▁넘치는	-9.80509
▁불쌍	-9.80511
▁할수	-9.80586
▁졸리	-9.80591
예요	-9.80603
▁기대안하고	-9.80625
▁루	-9.80626
▁긴장감이	-9.80638
▁욕망	-9.8065
▁보며	-9.80696
응	-9.80706
버리고	-9.80765
▁흑인	-9.80834
▁말도안되는	-9.80901
▁좋아해서	-9.80907
▁잊을	-9.80948
▁않을까	-9.80974
▁과정	-9.8105
▁먹고	-9.8107
▁차이	-9.81083
▁남편	-9.81095
▁보여준다	-9.81166
▁추억이	-9.81203
▁풍	-9.81258
안에	-9.81259
필	-9.8128
▁허무	-9.81321
졸	-9.81373
▁재미와	-9.81429
▁홍	-9.8145
형님	-9.81505
▁괜찮	-9.81508
▁신선	-9.81523
▁겨우	-9.81539
▁이제서야	-9.81552
▁봤을때	-9.81574
▁아줌마	-9.81619
▁붙	-9.81622
텐데	-9.81626
▁잔	-9.81649
많은	-9.81651
▁보통	-9.81663
▁빠진	-9.81682
▁야동	-9.81687
▁도전	-9.81696
한다면	-9.81719
밥	-9.81729
치곤	-9.81778
기위해	-9.81837
지를	-9.8189
▁많고	-9.81922
▁한심한	-9.82002
▁따로	-9.82015
▁사랑이야기	-9.82044
▁이것이	-9.82047
줘	-9.82088
▁재밌다고	-9.82133
▁가득	-9.82158
▁싶은데	-9.82207
▁관한	-9.82348
▁폴	-9.824
▁보지마라	-9.82458
휘	-9.8246
얼	-9.82483
▁어린시절	-9.82498
▁남자주인공	-9.82519
▁변태	-9.82525
났다	-9.82536
▁웃고	-9.82683
▁한국영화는	-9.82719
꼭	-9.82721
▁이래서	-9.82731
▁무섭	-9.8276
▁설레	-9.82763
▁이래	-9.8279
▁이하	-9.8284
족	-9.82846
버림	-9.82868
▁시청	-9.82949
▁색	-9.82956
▁퍼	-9.82974
▁잼있어요	-9.82999
▁그건	-9.83007
하시는	-9.83108
줘야	-9.83139
줌	-9.83166
▁아내	-9.83204
▁둘이	-9.83237
▁각	-9.83254
있었	-9.83286
설정	-9.83305
▁괜찮은데	-9.8337
▁싶지	-9.83384
릭	-9.83396
▁실패	-9.83446
▁개뿔	-9.83464
필요	-9.83469
▁죽어	-9.8347
▁들었다	-9.83475
▁보려고	-9.83475
▁받을	-9.83494
▁양심	-9.83543
▁기술	-9.8356
안되	-9.83589
있어서	-9.83628
▁엄	-9.83667
했다는	-9.83674
▁그렇지	-9.83739
▁볼거리	-9.83749
▁거기에	-9.83763
▁심하게	-9.83777
▁싫	-9.83825
▁망한	-9.83855
오는	-9.83869
▁속에서	-9.8388
▁하나의	-9.83899
▁자주	-9.84067
상황	-9.841
장면이	-9.84128
▁형사	-9.84129
▁돋	-9.84152
▁정의	-9.84163
▁좋아하는데	-9.84171
웠	-9.84196
▁대해서	-9.84256
뒤	-9.84257
껏	-9.84265
영상	-9.84298
▁죽이는	-9.84353
넹	-9.84416
멋	-9.84434
▁반복	-9.84469
해진다	-9.8448
정신	-9.84567
줬다	-9.84615
▁술	-9.84647
쥐	-9.84687
▁장르가	-9.84701
▁재밌던데	-9.84731
인이	-9.84743
하려	-9.84766
▁효과	-9.84796
재밌음	-9.84861
하다가	-9.84876
▁소중한	-9.84963
▁시리즈중	-9.84984
▁보긴	-9.84985
짜리	-9.84995
▁누군가	-9.85026
▁웃기다	-9.85046
냥	-9.85046
▁참신한	-9.85101
▁우리의	-9.85137
긴한데	-9.85159
▁살려	-9.85222
▁점수가	-9.85389
▁나머지	-9.85425
▁무술	-9.85453
▁전체	-9.85503
줘서	-9.85561
▁재밌었	-9.85614
끈	-9.85685
첨	-9.85697
▁몇번	-9.85701
님이	-9.85725
▁국가	-9.8578
▁섹시	-9.85819
▁근	-9.85831
▁보여주고	-9.85847
▁케	-9.8585
▁미안	-9.85856
▁킬링타임용으로	-9.85903
▁빠지	-9.85931
▁대본	-9.85949
▁퇴	-9.86004
연기가	-9.86016
람	-9.86078
▁응	-9.8616
로운	-9.86172
▁비디오로	-9.86286
들만	-9.86352
▁자신이	-9.86366
팅	-9.86384
▁영원히	-9.86409
딩	-9.86443
▁못함	-9.86574
▁보기에	-9.86575
▁팬이	-9.86596
▁캐릭터가	-9.86648
▁있었지만	-9.86696
됐	-9.86701
확	-9.86753
▁노래도	-9.86932
▁안보	-9.86996
▁불편	-9.87041
▁재미없게	-9.87051
내고	-9.87053
▁체	-9.87094
▁없어요	-9.8712
씬은	-9.87144
는것도	-9.87239
좋아요	-9.87282
▁맞아	-9.87308
▁관객을	-9.87309
▁생각함	-9.87311
▁정도의	-9.8734
납니다	-9.87396
▁여러가지	-9.87396
▁왜이래	-9.87406
려면	-9.87444
▁인해	-9.87593
▁거짓말	-9.87642
▁척	-9.87676
봅니다	-9.87686
▁죽이	-9.87688
줬	-9.87703
▁치고	-9.87728
캐릭터	-9.87748
▁재미잇	-9.87769
답답	-9.87792
았음	-9.87839
함과	-9.87894
▁아예	-9.87924
▁이쁘	-9.87927
▁합	-9.87959
▁발견	-9.87967
▁그것도	-9.87976
▁끄	-9.87984
지말고	-9.87991
롱	-9.88055
▁받았	-9.88095
▁아픈	-9.88104
놔	-9.88183
▁좋았	-9.88202
▁이런영화를	-9.8826
력이	-9.88271
받고	-9.88271
▁무서워	-9.88276
▁명품	-9.88279
▁어쩜	-9.88296
협	-9.88338
빡	-9.88368
▁영상이	-9.88391
▁특별한	-9.88407
▁남아	-9.8843
까지는	-9.88441
▁번째	-9.88442
▁있구나	-9.88542
▁배역	-9.88586
였어	-9.88625
싶다	-9.8866
▁형님	-9.88674
▁살고	-9.88685
▁세상을	-9.88704
하셨	-9.88713
재미있	-9.88722
▁소름이	-9.88793
만드는	-9.88844
▁모두가	-9.88849
내용이	-9.88854
▁이때	-9.8887
▁보았습니다	-9.88902
▁조작	-9.88912
▁싸움	-9.88944
▁내면	-9.8899
▁야구	-9.89025
▁전쟁영화	-9.89029
▁중반	-9.89051
▁쓰는	-9.89152
폐	-9.89165
인건	-9.89266
▁슈퍼	-9.89367
▁초등학생	-9.89369
춘	-9.8937
문제	-9.89406
▁모험	-9.89438
▁비밀	-9.8947
거같은데	-9.89475
▁죽는줄	-9.89481
이자	-9.89489
봤어요	-9.89512
▁외국	-9.89553
묘	-9.89582
소재	-9.89586
▁안타까운	-9.89599
▁악당	-9.89611
인생	-9.89633
▁점줌	-9.89656
▁떨어진다	-9.89664
▁죄	-9.89698
▁영화들	-9.89702
▁최초	-9.89722
것같아요	-9.89729
골	-9.89749
영화로	-9.89763
▁본거	-9.89807
▁최강	-9.89831
▁떨어지	-9.89996
▁가족영화	-9.90025
▁짠	-9.90045
▁명작입니다	-9.90048
버리	-9.90109
들고	-9.90159
켜	-9.90199
랜	-9.90303
▁감정이	-9.90324
▁있는지	-9.90362
▁자신을	-9.90368
▁보지마	-9.90378
▁전문가	-9.90427
릿	-9.90435
▁제임스	-9.90448
▁잔뜩	-9.90449
▁색다른	-9.90453
▁눈빛	-9.90458
▁못하다	-9.90545
▁킬링타임	-9.90576
▁꽃	-9.90612
▁대놓고	-9.90617
▁그만큼	-9.90644
▁우울	-9.90676
임에도	-9.9069
나게	-9.90746
▁기독교	-9.90858
▁최고였다	-9.90895
▁주변	-9.90895
▁만들면	-9.90969
립	-9.9097
▁잭	-9.91016
▁않네요	-9.91049
▁조화	-9.91098
▁괴	-9.91111
▁터	-9.91129
사가	-9.91138
▁전설의	-9.9131
▁나은	-9.91335
▁깨닫게	-9.91394
▁에로영화	-9.91407
▁빨	-9.91415
▁믿	-9.91422
▁최고임	-9.91428
착	-9.91462
층	-9.91489
▁그저그런	-9.91534
▁억지스러운	-9.9155
▁오래된	-9.91624
▁등등	-9.91638
▁생각하면	-9.91649
▁결과	-9.91711
▁위해서	-9.91712
▁흘러	-9.91745
▁풀어	-9.91872
▁낮다	-9.91883
▁집에	-9.91909
▁넌	-9.91992
도아니고	-9.92028
친구	-9.92039
▁행	-9.92043
간의	-9.92062
었지만	-9.92123
▁상처	-9.92134
혼	-9.92154
황	-9.92203
▁생각나서	-9.92262
▁만든영화	-9.92287
▁사진	-9.92299
욱	-9.92326
▁정말이지	-9.92331
▁찍었	-9.92353
▁가치가	-9.92363
▁쇼	-9.92372
▁단어	-9.92395
▁봤을	-9.92395
한다고	-9.92395
율	-9.92445
압	-9.92494
▁블랙	-9.92534
▁심지어	-9.92545
▁재난영화	-9.92553
▁훌륭하다	-9.92562
▁결코	-9.92564
▁아이디어	-9.9258
▁하나같이	-9.92711
하려고	-9.92715
▁자극	-9.92755
했나	-9.92804
▁보려	-9.92822
놨	-9.92832
▁답답하고	-9.92879
▁있어야	-9.92897
▁먼가	-9.92932
속의	-9.92953
옥	-9.92983
▁바꾸	-9.93011
아가	-9.93014
▁감동의	-9.93068
▁짜임새	-9.93159
▁똑같	-9.93229
사회	-9.93244
엇다	-9.9328
▁필요없	-9.93316
▁작품은	-9.93319
▁최근에	-9.9335
하지도	-9.934
▁분위기가	-9.93426
끌	-9.93506
▁죽이고	-9.93599
▁극장가서	-9.93625
▁싶을	-9.93635
▁영화보는	-9.93642
▁교육	-9.93665
▁알겠는데	-9.9369
때부터	-9.93693
▁없다는	-9.93758
▁격	-9.93788
▁아래	-9.93837
▁낚였다	-9.93842
재밌어요	-9.93853
▁재미도없고	-9.93854
▁매력있	-9.93887
▁문제가	-9.93892
힘	-9.93909
▁죽을	-9.93934
▁결	-9.93953
▁방영	-9.93977
▁쓰레기같은	-9.94005
북	-9.94087
▁색감	-9.94097
▁옥	-9.94147
잠	-9.94152
▁만들다니	-9.94167
▁분들은	-9.9421
▁있었는데	-9.94211
내는	-9.94218
▁느꼈다	-9.94241
▁이미지	-9.94286
▁남은	-9.94427
▁배우를	-9.94434
▁봣	-9.94471
▁만드	-9.94474
▁원작에	-9.94477
▁애들은	-9.94548
▁다운받아	-9.9458
▁의미가	-9.94624
혁	-9.94653
온다	-9.94661
▁무엇인지	-9.94711
▁존경	-9.94717
▁아무런	-9.94718
▁듣고	-9.94724
▁뭉클	-9.94729
이즈	-9.94737
옴	-9.94737
시간에	-9.94746
▁마이너스	-9.94795
▁살아가는	-9.94888
했었는데	-9.94976
▁여운을	-9.94981
흐	-9.94996
▁재미없었다	-9.9503
다른	-9.95045
▁비하면	-9.95061
▁후속작	-9.95073
▁하네	-9.95083
▁그당시	-9.95137
▁갖	-9.95158
▁캬	-9.9517
▁추리	-9.95229
노잼	-9.95238
생활	-9.95241
▁모르겠음	-9.95254
▁성격	-9.95269
▁친구들	-9.95287
엘	-9.95294
▁느낀	-9.95298
스릴러	-9.95313
▁핵	-9.95362
▁돼	-9.95433
▁없습니다	-9.95466
쳤	-9.95522
▁출연한	-9.95533
하겠다	-9.95543
마음	-9.95603
기억	-9.95703
누나	-9.95717
생겼	-9.95748
리스	-9.9576
▁다르다	-9.95761
▁블록버스터	-9.95768
중에서	-9.95818
▁적당히	-9.95829
▁연극	-9.95858
건가요	-9.95866
▁이따위	-9.95883
시작	-9.95908
▁찬	-9.95944
▁가정	-9.96023
픈	-9.96092
▁갔	-9.96127
▁풍자	-9.9613
▁승리	-9.96137
듯이	-9.96162
해주세요	-9.96223
▁뭐하나	-9.96278
▁노래가	-9.96367
항	-9.96368
▁가치	-9.96557
▁반전은	-9.96582
▁주인공은	-9.96618
▁혹시	-9.96642
▁막장드라마	-9.96663
▁살다살다	-9.96685
▁개연성도	-9.96696
▁지나도	-9.96716
빼고	-9.96793
▁길게	-9.968
▁만한	-9.96854
▁아닙니다	-9.96867
▁소소한	-9.96868
▁두고	-9.96889
▁변화	-9.96899
▁첨엔	-9.9695
는듯	-9.9695
▁갖고	-9.96957
그리고	-9.97029
▁어이	-9.97098
▁볼만하	-9.97133
▁별로임	-9.97133
▁콩	-9.97157
때매	-9.97191
재미없	-9.97208
정이	-9.97232
▁본영화	-9.97258
▁수준의	-9.97259
▁식상한	-9.97264
▁업	-9.97306
▁개인	-9.97331
▁안습	-9.9734
▁해결	-9.97424
하길	-9.97437
▁데리고	-9.97463
▁재미있습니다	-9.97468
▁년도에	-9.97526
꼴	-9.97547
햇다	-9.97547
▁편을	-9.97549
▁여주가	-9.97584
해진	-9.97589
스타일	-9.97591
한것	-9.97624
줄이야	-9.97652
▁잘봤어요	-9.97671
▁해라	-9.97713
▁아니야	-9.97726
▁명화	-9.97749
▁싸우는	-9.97849
▁시청자	-9.97905
▁모르겠	-9.97968
▁장국영	-9.97978
▁울컥	-9.9798
▁가면	-9.97984
▁내가본	-9.98016
▁어쩔수	-9.9802
▁여름	-9.98037
았던	-9.98053
▁또다른	-9.98062
▁그야말로	-9.9809
▁가슴을	-9.98109
▁연출과	-9.98144
▁시청률이	-9.98147
▁불러	-9.98197
▁책을	-9.98198
▁높게	-9.98202
▁수많은	-9.98221
▁등장인물	-9.98224
▁요리	-9.98231
▁신경	-9.98235
▁엉성하고	-9.98258
사람들이	-9.98274
▁잼나게	-9.98309
마지막	-9.98333
▁통쾌	-9.98351
▁놓	-9.98352
▁아쉽	-9.98359
지마	-9.98382
▁살면서	-9.98382
▁마지막까지	-9.9843
▁연기자들	-9.98436
▁잼나	-9.98469
▁좀비영화	-9.98485
▁당신은	-9.98535
높	-9.98587
좋음	-9.98623
▁구성이	-9.98666
탁	-9.98705
▁옛	-9.98714
▁으리	-9.98717
▁지켜	-9.98836
▁돈을	-9.98847
▁시각	-9.98872
그래	-9.99023
껴	-9.99075
매력	-9.99096
혈	-9.99101
▁예쁘고	-9.99138
▁첫사랑	-9.99149
▁태어나서	-9.99194
▁중에서	-9.99199
▁열연	-9.99206
▁사상	-9.99212
거같아요	-9.99248
였으면	-9.99249
겟다	-9.99276
▁신파	-9.99283
감독이	-9.99288
▁낮네	-9.99319
▁외계인	-9.99401
▁놀랍다	-9.99448
자체가	-9.99461
거리는	-9.99466
만하다	-9.99507
▁포인트	-9.99509
랄까	-9.99559
했지	-9.99572
보게	-9.99604
▁특이	-9.99626
▁낮아	-9.99628
▁의문	-9.99643
다는게	-9.99732
▁약간의	-9.99765
끝나	-9.99787
▁이기	-9.99797
▁봅니다	-9.99825
▁한국에서	-9.99842
총	-9.99846
얼굴	-9.99849
나오고	-9.99852
붙	-9.99864
▁엔딩이	-9.99924
▁주말	-9.9993
▁편도	-9.99956
하지않	-10.0007
섭	-10.0011
▁본인	-10.0012
▁이드라마	-10.0013
▁꾸	-10.0014
▁처음에는	-10.0021
옹	-10.0022
렁	-10.0024
▁특수효과	-10.0024
▁다양한	-10.0024
▁아류작	-10.0025
▁배경음악	-10.0026
▁대중	-10.0026
▁잘만들었	-10.0026
▁뽑	-10.0027
▁매력을	-10.0027
▁공포물	-10.0031
노래	-10.0043
▁조카	-10.0043
딴	-10.0043
냈다	-10.0046
▁만남	-10.005
▁낳	-10.0052
▁년작	-10.0058
▁브	-10.0059
▁바다	-10.0062
▁코미디영화	-10.0063
▁많은데	-10.0063
▁사고	-10.0069
▁썩	-10.0071
▁결말을	-10.0074
모르	-10.0078
▁핵노잼	-10.0079
▁아직까지	-10.0082
▁탄생	-10.0088
▁만들수	-10.0089
자의	-10.0091
▁챙겨	-10.0095
혹은	-10.0096
▁하아	-10.01
▁안나오	-10.0107
▁받는	-10.012
▁뛰어	-10.0122
▁봤네	-10.0122
▁맘	-10.0126
▁그자체	-10.0135
▁요소	-10.0136
닝	-10.0138
▁러시아	-10.0139
▁심형래	-10.0139
▁짧은	-10.014
▁언니	-10.0149
▁이딴걸	-10.0156
큐	-10.0157
겠습니다	-10.0162
▁투자	-10.0163
▁이런건	-10.017
나옴	-10.0171
▁시간아깝다	-10.0176
▁레이	-10.0176
흔	-10.0176
▁잼잇	-10.0179
▁됩니다	-10.018
▁무리	-10.0183
▁집중해서	-10.0183
▁생활	-10.0186
▁부르	-10.0195
월	-10.0199
▁앤	-10.0199
▁인도	-10.0206
▁볼게	-10.0211
하는건	-10.0218
▁어릴	-10.0221
무슨	-10.0223
▁가족이	-10.0223
▁당신	-10.0227
▁낙	-10.023
▁그려	-10.0247
▁친구가	-10.0249
엠	-10.0255
▁반대	-10.0255
▁플롯	-10.0255
▁누	-10.0255
▁안나	-10.0257
▁놀라운	-10.0259
▁집착	-10.026
▁짜증만	-10.026
▁여자주인공	-10.0261
겠죠	-10.0263
▁맹	-10.0264
만이	-10.0265
용으로	-10.0265
▁혼	-10.0266
▁궁금하다	-10.0269
▁아쉽지만	-10.027
더라도	-10.027
▁아까울	-10.0277
▁떨	-10.0278
▁그립다	-10.0279
되었다	-10.0281
▁정작	-10.0282
▁고통	-10.0282
▁놈	-10.0282
▁생각했는데	-10.0286
쓰고	-10.0289
▁야한	-10.0291
하기도	-10.0294
없어서	-10.0296
▁영혼	-10.0296
▁멍	-10.0298
▁만들었는지	-10.0305
▁많은걸	-10.0309
▁시간만	-10.031
스터	-10.0316
▁꼬마	-10.0321
▁이상하게	-10.0325
▁낮게	-10.0325
▁현실이	-10.0326
▁해피엔딩	-10.0326
▁남네요	-10.0331
▁디테일	-10.0337
홍	-10.0337
논	-10.0338
▁곳	-10.0338
럼	-10.0344
▁모를	-10.0344
갑니다	-10.0344
▁인물들	-10.0347
끔	-10.0347
▁쉬	-10.0349
▁다시보니	-10.0354
▁내용인지	-10.0355
▁논	-10.0357
부족	-10.0358
르는	-10.0362
▁생긴	-10.0364
가요	-10.0367
▁뭘까	-10.037
▁빼면	-10.037
▁쓸데없이	-10.0373
로만	-10.0374
▁바랍니다	-10.0374
▁당연히	-10.0376
▁맞지	-10.0379
▁불쌍한	-10.038
▁어느정도	-10.0381
▁조절	-10.0383
▁최고로	-10.0385
▁역사를	-10.0388
▁했으면	-10.0388
▁보기에는	-10.0389
아니다	-10.0394
▁자리	-10.0394
▁소년	-10.0396
▁부모님	-10.0397
▁호구	-10.0405
▁욕심	-10.0409
▁소재도	-10.0415
▁때문	-10.0416
을수	-10.0418
▁처음에	-10.0419
지금	-10.0422
감을	-10.0423
▁교훈을	-10.0427
좋았	-10.0431
▁배우들은	-10.0433
▁몰랐다	-10.0435
▁볼수있는	-10.0437
▁주제가	-10.0441
▁애기	-10.0442
▁놀라	-10.0444
▁살린	-10.0453
유치	-10.0462
▁한편의	-10.0462
쓸	-10.0464
개봉	-10.0465
었고	-10.0467
▁주제를	-10.0467
커플	-10.0467
▁그것	-10.0468
▁주기도	-10.0472
생각이	-10.0482
▁엘	-10.0483
텔	-10.049
▁주윤발	-10.0492
▁해리포터	-10.0492
▁교과서	-10.0492
▁점이상	-10.0494
▁할아버지	-10.0495
해준	-10.0496
▁낮지	-10.0496
▁따분	-10.0497
▁일부러	-10.0498
스의	-10.0499
▁만약	-10.05
▁잠이	-10.0501
드리	-10.0502
▁하다가	-10.0506
▁꽤나	-10.0507
▁소설을	-10.0507
▁잡아	-10.0509
▁필	-10.0512
것같은	-10.0515
▁케이블에서	-10.0517
자는	-10.052
▁귀여워	-10.0521
▁어른이	-10.053
▁망친	-10.053
▁짜증나서	-10.0531
스럽	-10.0538
이렇게	-10.0539
보니까	-10.054
▁이런영화는	-10.0541
내가	-10.0543
▁영화화	-10.0545
눈물	-10.0547
하는것	-10.0561
괴	-10.0562
스럽고	-10.0563
▁점대는	-10.0564
거면	-10.0565
▁보자	-10.0569
▁끝에	-10.0576
▁러닝타임	-10.0577
싱	-10.058
▁후에	-10.0583
▁포스터가	-10.0587
것들	-10.0588
▁불쌍하다	-10.059
거죠	-10.0593
▁잘하는	-10.0602
▁몇년	-10.0603
인간	-10.0604
▁순수함	-10.0606
▁빵	-10.0607
례	-10.0607
▁아닐	-10.0607
냉	-10.0612
▁가벼운	-10.0612
▁반드시	-10.0612
▁유일하게	-10.0612
그리	-10.0613
▁두번째	-10.0614
▁년만에	-10.0615
▁출	-10.0619
▁재밋어요	-10.062
▁안맞는	-10.0624
▁나름대로	-10.0627
▁봐도봐도	-10.0629
▁다시는	-10.0633
▁임팩트	-10.0634
▁나에겐	-10.0637
▁어설프고	-10.0637
▁혹시나	-10.0643
▁느꼈	-10.0644
▁않아서	-10.0645
거같음	-10.0647
▁섬	-10.0654
▁승	-10.0656
▁좋겠네요	-10.0675
▁명장면	-10.0676
▁어울리는	-10.0683
▁잘하고	-10.0684
친다	-10.0686
▁시리즈는	-10.0689
스가	-10.069
▁테러	-10.069
▁미소	-10.0691
헤	-10.0692
▁모르	-10.0693
쩌	-10.0694
▁손에	-10.0695
▁예쁘다	-10.0695
▁끈	-10.0695
▁내용과	-10.0699
자들	-10.0703
▁나랑	-10.0703
순간	-10.0708
계의	-10.0708
▁어른들	-10.0709
돋	-10.071
받는	-10.0712
쟁이	-10.0718
스키	-10.0722
자나	-10.0724
▁인간들	-10.0728
▁볼때	-10.0729
▁안에	-10.073
▁많았	-10.0733
▁배트맨	-10.0734
▁클레멘타인	-10.0734
▁내생에	-10.0735
▁인내심	-10.0736
▁타고	-10.0737
▁인상적	-10.074
▁어째	-10.0741
▁재능	-10.0741
▁따뜻하고	-10.0741
▁낫	-10.0741
▁심장	-10.0742
▁괜찮았	-10.0743
▁봤을까	-10.0745
▁마약	-10.0745
▁터미네이터	-10.0746
▁있다니	-10.0751
▁아름답게	-10.0752
본영화	-10.0753
▁아까웠다	-10.0754
▁부분도	-10.0754
▁연인	-10.0756
▁들었	-10.0758
▁매력적이	-10.0759
▁강렬한	-10.0759
▁엄마가	-10.0765
이든	-10.0765
▁곧	-10.0769
▁그동안	-10.0774
▁보던	-10.0775
▁확인	-10.078
따위	-10.0783
▁결론은	-10.0787
할만한	-10.0788
▁아까운영화	-10.079
막장	-10.0794
인데도	-10.0797
▁한국의	-10.0797
▁떨어지고	-10.0805
되면	-10.0806
이죠	-10.0807
▁재미없어서	-10.0808
▁거기다	-10.0808
▁삶이	-10.081
구성	-10.0813
▁불편한	-10.083
▁흐르는	-10.0833
▁어이없	-10.0833
사건	-10.0833
몽	-10.0835
버려	-10.0851
나왔	-10.0851
▁놓고	-10.0857
▁넘게	-10.0857
▁조니뎁	-10.0858
▁흔들	-10.0858
▁유일한	-10.0858
▁시간가는줄	-10.0859
▁웃으면서	-10.086
▁설득력	-10.086
▁세상이	-10.0863
▁디워	-10.0864
리를	-10.0867
▁단순히	-10.0868
잼있	-10.0869
▁생각으로	-10.087
▁자체는	-10.0872
▁기가	-10.0872
▁방법	-10.0874
▁바꿔	-10.0878
▁목적	-10.0883
▁쥐	-10.0884
▁짜집기	-10.089
고싶은	-10.0892
하더라	-10.0892
▁이야기는	-10.0894
▁현실과	-10.0899
▁새벽에	-10.0905
이해	-10.0905
많	-10.0908
▁선물	-10.0909
이제	-10.0913
짜증나	-10.0913
▁내일	-10.0922
▁빛	-10.0923
▁점이다	-10.0923
▁마지막장면	-10.0926
▁수작이다	-10.0931
▁모른다	-10.0937
▁동성애	-10.0943
▁됬	-10.0947
▁예능	-10.0955
▁빌	-10.0958
똥	-10.0958
▁잊	-10.0961
▁다운	-10.0962
냈	-10.0964
밤	-10.097
콘	-10.0972
제작	-10.0976
▁상대	-10.0978
▁개성	-10.0979
▁사운드	-10.0983
▁유덕화	-10.0983
▁로버트	-10.0983
▁이소룡	-10.0983
▁용기	-10.0983
▁숨겨진	-10.0984
▁응원	-10.0985
▁여러번	-10.0985
▁제목만	-10.0986
주기	-10.0987
하니까	-10.0989
▁싶었	-10.099
시간이	-10.0991
▁강한	-10.0995
▁하지원	-10.1
▁몽	-10.1002
▁독일	-10.1002
▁뱀파이어	-10.1005
했다면	-10.1015
▁오랜만	-10.1016
▁기다려	-10.1024
▁발상	-10.1028
▁연결	-10.103
▁모든걸	-10.1032
틱	-10.1035
▁쓰고	-10.1036
▁음식	-10.105
적은	-10.1051
▁초딩때	-10.1052
긴하지만	-10.1054
▁아우	-10.1057
▁괜찮았다	-10.1058
기로	-10.106
▁뭐니	-10.1067
▁같고	-10.1068
았는데	-10.1069
▁스토리의	-10.1074
않은	-10.1076
▁독특	-10.1079
▁어디에	-10.1082
기까지	-10.1083
▁어렵	-10.1086
▁어렵다	-10.1091
▁지루하	-10.1094
겠음	-10.1095
▁실화를	-10.1095
▁찌	-10.1097
아저씨	-10.1099
▁재미로	-10.1101
▁옷	-10.1104
했으나	-10.1105
곳	-10.1112
▁언제봐도	-10.1114
▁에효	-10.1115
▁희망을	-10.1118
▁잔인	-10.1119
▁로코	-10.1127
▁한번도	-10.1134
부분이	-10.1135
▁마지막회	-10.1137
▁감동은	-10.1141
▁대통령	-10.1142
것같	-10.1145
▁매일	-10.1151
좋아하는	-10.1152
늘	-10.1155
▁이상하고	-10.1156
▁편에	-10.1157
도안	-10.1157
물이	-10.1157
것처럼	-10.1159
당한	-10.1164
으니까	-10.1166
▁정신없	-10.1168
▁명작을	-10.1168
▁재밌어서	-10.1179
▁하나로	-10.1182
▁이해를	-10.1186
▁살리	-10.1196
▁해주	-10.12
▁짜증이	-10.1205
▁소중	-10.1208
겁	-10.121
지않아	-10.121
▁아이들과	-10.121
▁받은	-10.1212
▁삼류영화	-10.1218
에대해	-10.1219
냐고	-10.1224
샤	-10.1227
으로써	-10.123
▁무언가	-10.1231
는구나	-10.1233
좌	-10.1237
▁뭥미	-10.1237
▁우뢰매	-10.1237
룩	-10.1237
▁제니퍼	-10.1237
▁갠적으로	-10.1237
▁이토록	-10.1237
스럽게	-10.1242
까요	-10.1244
▁동양	-10.1247
해야지	-10.1247
▁장면들	-10.1251
▁괜찮음	-10.1251
▁컴퓨터	-10.1253
▁기다리	-10.1254
▁본게	-10.1255
▁십	-10.126
▁영상과	-10.126
메이	-10.126
▁집중이	-10.1261
씨는	-10.1263
▁아쉬움이	-10.1265
상을	-10.1271
▁최고의영화	-10.1279
▁사랑해요	-10.128
▁맞춰	-10.1286
스러움	-10.1289
▁끼	-10.129
세계	-10.1293
▁선생님	-10.1293
이여	-10.13
▁때려	-10.1303
▁샘	-10.1307
▁좋네	-10.1307
슈	-10.1308
▁갔다	-10.1311
주면	-10.1311
▁오락영화	-10.1313
먹는	-10.1314
▁점정도	-10.1318
씀	-10.1324
▁여러분	-10.1328
▁많아서	-10.1332
▁들고	-10.1344
▁하는게	-10.1347
▁안봐도	-10.1351
▁봐야하는	-10.1357
▁여주인공이	-10.1358
라지만	-10.1358
객	-10.136
큰	-10.1364
썼	-10.1365
▁시원	-10.1366
▁할리우드	-10.1367
▁깜짝	-10.1368
▁착각	-10.1368
▁않았	-10.137
▁아무튼	-10.1371
▁부부	-10.1371
▁푸	-10.1372
▁보다니	-10.1372
▁형제	-10.1375
▁지루하기	-10.1376
▁관점	-10.1378
▁개노잼	-10.138
▁머리가	-10.1383
이름	-10.1386
▁넣	-10.1389
▁재미있어	-10.1391
보인다	-10.1392
▁북	-10.1393
톤	-10.1395
▁미쳤	-10.14
▁지겹다	-10.1406
▁사투리	-10.1412
보지	-10.1413
▁가수	-10.1417
▁아니지	-10.1418
▁재밋음	-10.1419
했다고	-10.1423
▁줄수	-10.1424
▁돋보이는	-10.1425
▁잔잔	-10.1426
▁하길래	-10.1426
▁느낌의	-10.1427
▁울리는	-10.1428
였나	-10.143
▁톰	-10.1437
있지	-10.1438
▁이번에	-10.1442
▁얻	-10.1442
▁잼있음	-10.1444
▁사랑해	-10.1445
▁잤다	-10.1445
▁생각나	-10.1451
이게	-10.1451
▁와닿	-10.1452
▁아깝고	-10.1455
▁매니아	-10.1456
있네	-10.1457
평점이	-10.1458
▁마음으로	-10.1468
▁맛이	-10.1473
▁싶어요	-10.1481
▁거장	-10.1487
▁마이	-10.1487
▁예쁘	-10.1488
▁사랑한다	-10.1491
▁기대이상	-10.1491
버릴	-10.1494
시길	-10.1495
▁쓸데없는	-10.1499
▁아놀드	-10.1499
▁흑백	-10.1499
▁실험	-10.15
▁반전을	-10.1507
▁장면도	-10.1509
배경	-10.1509
▁재미있을	-10.1509
받은	-10.151
알바	-10.1511
▁잘못된	-10.1518
공포영화	-10.1519
겠어요	-10.152
▁보라	-10.1522
▁실수	-10.1523
최고의	-10.1528
장이	-10.1531
▁없었음	-10.1533
▁언	-10.1534
듯하다	-10.1536
▁흥	-10.1537
▁적어도	-10.1539
낫	-10.1542
안됨	-10.1552
▁멋지고	-10.1555
▁하늘	-10.1559
▁어색하고	-10.1561
▁검색	-10.1562
▁마리	-10.1564
▁여자의	-10.1564
▁짜증남	-10.1565
만들었	-10.157
▁감독을	-10.1571
▁영화인가	-10.1574
연기도	-10.1576
좋았다	-10.1576
▁유치해	-10.1577
▁망치	-10.1578
더라면	-10.1578
▁배경이	-10.1579
꾸	-10.1579
시다	-10.1581
▁일반	-10.1582
▁한번쯤	-10.1584
▁시대에	-10.1584
▁포스	-10.159
▁얼마	-10.1592
▁멋있는	-10.1597
▁줍니다	-10.1598
하는영화	-10.1603
▁인생에	-10.1603
왔다	-10.1603
▁대단하	-10.1606
▁생각할	-10.1606
공포	-10.1609
녕	-10.1609
▁깎	-10.161
▁영환데	-10.1611
▁전설	-10.1617
▁올라	-10.1618
턴	-10.1621
축	-10.1623
웅	-10.1625
벨	-10.1631
▁왤케	-10.1632
▁하정우	-10.1632
▁희대의	-10.1632
▁공감할	-10.1633
▁나레이션	-10.1634
▁명대사	-10.1635
▁만화책	-10.1636
▁서울	-10.1637
▁장난하냐	-10.1637
몰입	-10.1637
덜	-10.1639
▁겨울	-10.1641
이었던	-10.1643
두고	-10.1645
▁하품	-10.1646
▁일본은	-10.1646
문화	-10.1647
▁아니라고	-10.1656
▁기억나는	-10.166
▁포스터에	-10.1662
▁장면을	-10.1664
▁정신병자	-10.1664
▁충분	-10.1666
일듯	-10.1667
▁진부	-10.1667
님들	-10.167
▁없나요	-10.1671
▁컨셉	-10.1671
▁올려	-10.1671
▁영화인	-10.1673
▁어디가	-10.1679
▁안간다	-10.1683
▁영화인지	-10.1684
▁아냐	-10.1694
사람들은	-10.1699
▁모르겠네요	-10.17
하지마라	-10.1708
롭	-10.1708
▁연출은	-10.1715
식이	-10.1716
재밌어	-10.1717
▁결론	-10.1724
▁나네요	-10.1725
▁의지	-10.1727
▁쿠	-10.1738
▁뒤에	-10.174
넣	-10.1742
머리	-10.1746
세상	-10.1762
잇는	-10.1763
눌	-10.1767
굴	-10.1768
▁평균	-10.1768
빛	-10.1771
▁요새	-10.1772
팀	-10.1773
▁여친	-10.1773
젤	-10.1774
▁아프	-10.1776
▁공짜로	-10.1781
집니다	-10.1782
▁오랫만에	-10.1784
▁어거지	-10.1785
찾	-10.1786
겠네요	-10.1786
▁본지	-10.1787
▁우연	-10.1788
▁떨어짐	-10.1792
▁만든거	-10.18
셈	-10.18
있었다	-10.1802
▁아니었	-10.1804
▁연기자	-10.1808
▁진수	-10.1809
▁믿을	-10.1818
▁아진짜	-10.1818
▁오빠	-10.1818
▁탈출	-10.1823
▁힘들었	-10.1824
▁허술한	-10.1826
역시	-10.1826
▁다르게	-10.1827
▁겁	-10.1831
계속	-10.1833
▁별로고	-10.1836
▁중심	-10.1838
▁사용	-10.1841
▁볼수있	-10.1841
▁내게	-10.1843
끼리	-10.1843
▁앞에	-10.1844
할뿐	-10.1845
▁히어로	-10.1847
는거야	-10.185
으려	-10.1855
워서	-10.1856
장르	-10.1856
▁갓	-10.1865
살아	-10.1865
▁잊고	-10.1866
▁배우도	-10.1874
▁충격적이	-10.1878
받았	-10.1879
킬	-10.1882
▁점수는	-10.1884
떨	-10.1885
▁참나	-10.1898
솔	-10.1903
랫	-10.1904
▁송강호	-10.1904
▁인터넷	-10.1904
럭	-10.1904
▁도무지	-10.1905
▁이런류의	-10.1905
▁장난치	-10.1908
▁돈내고	-10.1911
▁판단	-10.1914
▁배우는	-10.1915
▁황당한	-10.1915
▁이뻐서	-10.1915
려나	-10.1917
감독님	-10.192
▁최고봉	-10.1924
▁잘만들	-10.1927
느끼	-10.1931
▁떼	-10.1934
▁님	-10.1935
▁여자는	-10.1938
▁이루	-10.194
▁높아서	-10.194
▁케릭터	-10.194
▁안보는게	-10.1941
었네요	-10.1942
▁봤다면	-10.1945
▁버리	-10.1952
▁잇	-10.1953
▁찾는	-10.1957
▁없게	-10.1958
▁얼굴이	-10.1959
▁쩔어	-10.1961
▁인형	-10.1965
▁궁금해서	-10.1968
▁의상	-10.1969
▁왔	-10.1972
▁폐지	-10.1972
못하는	-10.1974
즘	-10.198
▁알겠다	-10.198
▁답이	-10.1983
▁이름이	-10.1986
▁다신	-10.1989
▁귀엽다	-10.1997
▁이상해	-10.2
▁오브	-10.2
▁한국영화의	-10.2006
쁘	-10.2007
▁깔	-10.2011
▁액션씬	-10.2013
▁아역	-10.2017
▁따라가	-10.202
▁줬	-10.2023
▁학년	-10.2026
▁있다고	-10.2029
▁꿀	-10.2033
▁짜증나고	-10.2038
▁박진감	-10.2039
▁달려	-10.2041
▁늦게	-10.2043
▁짐캐리	-10.2043
▁걱정	-10.2043
▁제이슨	-10.2043
▁알겠	-10.2045
▁각색	-10.2045
▁재개봉	-10.2046
▁유럽	-10.2047
자를	-10.2047
나온다	-10.2049
▁믿고보는	-10.2051
할수있	-10.2051
▁개도	-10.2052
▁기존	-10.2054
랜드	-10.2054
▁아만다	-10.2057
대사	-10.206
▁스릴도	-10.2065
▁잔잔하게	-10.2066
소설	-10.207
▁최소한	-10.2078
▁한국판	-10.208
▁어쩌면	-10.2081
▁갑니다	-10.2081
▁읽어	-10.2082
▁안볼	-10.2085
트리	-10.2087
영화인데	-10.2093
▁보시면	-10.21
올리	-10.21
게하는	-10.2105
▁볼만했다	-10.2107
▁폭발	-10.2108
험	-10.2111
▁피해	-10.2112
▁맡	-10.2117
보긴	-10.2118
▁말자	-10.2125
▁쪽	-10.2135
▁인간은	-10.2135
▁불안	-10.214
▁파리	-10.214
▁사람도	-10.214
▁숙	-10.2146
▁자극적인	-10.2149
▁마지막엔	-10.2149
▁다루	-10.2154
▁안맞	-10.2155
또한	-10.2156
▁아들이	-10.2158
▁초등학교	-10.216
▁작품입니다	-10.2164
▁최소	-10.2167
▁비슷	-10.2167
▁찾아보	-10.2176
▁여자애	-10.2178
렵	-10.218
▁없냐	-10.2181
▁무너	-10.2182
하시길	-10.2183
뮤	-10.2184
▁브루스	-10.2184
▁내생애	-10.2184
▁명복을	-10.2184
▁담배	-10.2187
▁중요	-10.2188
▁극복	-10.2189
▁거북	-10.219
▁인생이	-10.2191
▁무엇인가	-10.2191
모두	-10.2191
▁억지감동	-10.2194
▁괜찮았는데	-10.2195
▁절정	-10.2196
▁살인마	-10.2197
▁볼만합니다	-10.2198
▁땅	-10.2198
털	-10.22
▁반담	-10.2202
▁적당한	-10.2202
▁손발	-10.2208
출연	-10.2212
▁스토리전개	-10.2215
▁시작부터	-10.2225
▁액션신	-10.223
▁글고	-10.2233
에서의	-10.2234
인들	-10.2237
▁부정	-10.2239
보다도	-10.2244
▁설정이	-10.2248
▁의사	-10.225
▁빅	-10.2252
▁난리	-10.2258
치고는	-10.2262
▁어이없다	-10.2264
▁먹는	-10.2266
야한다	-10.2266
▁잼없	-10.2269
▁받고	-10.227
쓰레기영화	-10.2273
쓰는	-10.2277
▁예술영화	-10.2284
▁그것이	-10.2289
▁다시보고	-10.2297
▁벤	-10.2306
▁재미없을	-10.2316
▁홍상수	-10.2321
▁팀	-10.2321
▁시나리오가	-10.2324
칙	-10.2326
▁오프닝	-10.2327
▁임창정	-10.2327
닼	-10.2327
▁리얼리티	-10.2327
덩어리	-10.2327
▁정우성	-10.2327
▁언젠가	-10.2327
▁소중함을	-10.2328
▁왠만한	-10.2329
▁영상미가	-10.2329
▁샤	-10.233
▁무겁	-10.2331
▁은근히	-10.2331
▁천국	-10.2334
▁나이가	-10.2335
▁거품	-10.2337
▁하하	-10.2339
▁꼭보세요	-10.2343
부분은	-10.2344
햇는데	-10.2348
▁소장	-10.2348
▁배신	-10.2354
됐다	-10.2359
▁스포츠	-10.2366
▁생각도	-10.2366
▁기대없이	-10.2367
▁보게된	-10.2375
▁사랑합니다	-10.2375
▁대신	-10.2379
▁자동차	-10.238
▁그렇지만	-10.2384
▁가능한	-10.2387
만큼이나	-10.2387
되었	-10.2388
▁느	-10.2391
▁신인	-10.2392
▁잔잔하면서	-10.2394
싫어	-10.2397
차이	-10.2401
▁전쟁의	-10.2404
▁일본의	-10.2409
▁환경	-10.2412
적이다	-10.2413
▁빛을	-10.2421
▁어쩌	-10.2426
못하고	-10.2426
▁곰	-10.2427
▁파괴	-10.2431
▁과장	-10.2433
▁정도면	-10.2436
▁누나	-10.2438
▁가득한	-10.2439
▁포스터만	-10.2441
▁영화라니	-10.2446
나가는	-10.2449
▁재미없다고	-10.245
▁보아	-10.2455
하기에	-10.2456
▁시간에	-10.2462
▁어울리지	-10.2466
납	-10.247
▁본건데	-10.247
▁명불허전	-10.2472
▁도데체	-10.2472
▁블랙코미디	-10.2473
▁슈	-10.2479
▁축구	-10.2488
▁않았지만	-10.2488
▁영원한	-10.2495
새끼들	-10.2498
▁담은	-10.2499
▁심한	-10.2508
▁이해할수	-10.2509
겼	-10.2514
▁매미	-10.2517
▁여배우들	-10.2517
▁소화	-10.2519
▁매력에	-10.2519
억지	-10.2523
웃음	-10.2526
▁찍고	-10.2526
▁유치해서	-10.2528
▁안될	-10.2531
▁뻔한스토리	-10.2534
▁한개도	-10.2536
▁좋지	-10.2537
든다	-10.2537
감독의	-10.2547
줄은	-10.2549
▁정도가	-10.255
▁범	-10.255
왔어요	-10.255
아요	-10.2554
▁육	-10.2561
▁니들	-10.2562
뻐	-10.2565
▁절	-10.2571
▁끌고	-10.2574
▁갖다	-10.2574
지요	-10.2576
▁이보다	-10.2578
▁알려	-10.258
▁듣	-10.2585
▁극중	-10.2597
있지만	-10.26
▁지났	-10.2602
▁좋다고	-10.2603
▁그것을	-10.2608
사를	-10.2613
져요	-10.2615
꾼	-10.2616
▁묻어	-10.2617
▁스티븐	-10.2619
▁깡패	-10.2619
▁류승범	-10.2619
▁아무생각없이	-10.2619
▁동시에	-10.2619
▁역겨운	-10.262
▁답답함	-10.262
▁등장인물들	-10.262
▁돈아까워	-10.2622
▁그림체	-10.2623
▁슬	-10.2625
▁좋을듯	-10.2633
▁첨부터	-10.2634
▁전체적인	-10.2635
▁생각난다	-10.2637
▁심각	-10.2637
▁웃는	-10.2638
▁보았는데	-10.2639
▁기적	-10.264
▁잠시	-10.2642
▁재미있는데	-10.2642
▁제목을	-10.2642
택	-10.2642
▁찍는	-10.2643
깔	-10.2644
▁되네요	-10.2646
▁만난	-10.2646
▁목소리가	-10.2648
▁화나	-10.2648
덤	-10.2648
이었습니다	-10.2649
어울리	-10.265
하지말고	-10.265
놨네	-10.2653
▁분만에	-10.2654
더빙	-10.2655
유쾌하게	-10.2656
▁위로	-10.266
▁친구랑	-10.2663
▁교훈도	-10.2663
▁따위	-10.2666
▁빵빵	-10.2672
쩔	-10.2672
극장	-10.2672
▁액션과	-10.2673
▁각자	-10.2674
▁작가의	-10.2682
▁싶었다	-10.2696
▁짐	-10.2698
▁분장	-10.2698
요소	-10.2699
▁실망이	-10.2699
▁찌질	-10.2703
▁땜에	-10.2719
▁감독과	-10.2724
▁만들어서	-10.2725
영화입니다	-10.2725
▁착	-10.2726
▁인생은	-10.2732
▁나무	-10.2733
▁아깝네	-10.2734
▁허무한	-10.2735
스톤	-10.2736
▁조연들	-10.2737
▁만들었나	-10.2737
▁하시	-10.2743
었지	-10.2747
▁믿기지	-10.2752
▁영화였음	-10.2752
겹	-10.2755
▁폐	-10.2758
액	-10.2767
▁이병헌	-10.2768
▁베드신	-10.2768
▁어두운	-10.2768
▁가까운	-10.2768
▁진지한	-10.2769
▁좋았을텐데	-10.277
▁고독	-10.2772
드만	-10.2774
▁전반적으로	-10.2775
▁이해불가	-10.2777
▁엿	-10.278
▁인류	-10.2782
하자면	-10.2782
▁식상	-10.2794
폰	-10.2806
▁명작은	-10.2806
▁빛나는	-10.2806
▁조선	-10.2807
▁아깝네요	-10.2809
▁탄탄하고	-10.2812
▁볼려고	-10.2813
느낌이	-10.2814
▁도망	-10.2814
▁가족의	-10.2814
▁죽고	-10.2815
▁봐야지	-10.2815
▁왜곡	-10.2816
가슴	-10.2817
보느니	-10.2824
▁반전에	-10.2827
▁멋지	-10.2827
▁보단	-10.2829
▁앞뒤	-10.2831
▁씹	-10.2831
▁뭐임	-10.2831
뿐이다	-10.2834
▁썼	-10.2841
것같은데	-10.2843
▁아프다	-10.2845
어지는	-10.2846
보네	-10.2846
▁일부	-10.2849
▁조금은	-10.285
였지	-10.2851
▁내리	-10.2852
▁생에	-10.2854
▁널	-10.2855
▁아동	-10.2856
▁사람들에게	-10.2861
▁무섭고	-10.2863
▁슬프	-10.2863
▁무섭지	-10.2869
자리	-10.287
▁침	-10.287
▁쌍	-10.2875
▁책으로	-10.2876
▁남성	-10.2878
▁명연기	-10.2879
▁없으면	-10.2884
▁밤에	-10.2884
▁김치	-10.2885
최	-10.2897
떠	-10.2901
무섭	-10.2904
▁영화라는	-10.2904
▁아니었다	-10.2909
▁자기가	-10.2912
▁류영화	-10.2914
▁듭니다	-10.292
▁신하균	-10.292
▁웰메이드	-10.292
▁드디어	-10.292
▁양아치	-10.292
▁즐기	-10.2921
▁절망	-10.2922
▁민폐	-10.2923
▁상징	-10.2923
보구	-10.293
▁강력	-10.2931
▁보기싫	-10.2932
▁개콘	-10.2933
▁적절한	-10.2936
▁짝이	-10.2936
었을	-10.2936
▁치유	-10.2938
▁품	-10.2938
봐야지	-10.2938
쳐서	-10.294
재미없음	-10.2942
▁강간	-10.2943
▁울면서	-10.2943
▁만들어낸	-10.2943
▁불쌍하	-10.2944
▁이럴	-10.2945
▁읽고	-10.2946
▁사람이라면	-10.295
아주	-10.2951
▁전개와	-10.2952
▁미스	-10.2957
푸	-10.296
▁분들이	-10.2966
웃겨	-10.2969
감정	-10.297
비가	-10.2971
▁다행이다	-10.2974
할것	-10.2975
▁미국의	-10.2976
이후	-10.2977
있습니다	-10.298
잃	-10.2984
▁미국식	-10.2992
▁이야	-10.2997
▁충	-10.2998
장면은	-10.2999
▁세번	-10.3
▁시대의	-10.3006
▁진한	-10.3007
▁부실	-10.3007
▁번은	-10.3009
▁상관없	-10.3021
고요	-10.3023
▁떨어져	-10.3025
▁소장하고	-10.3035
▁보는거	-10.3043
▁안본	-10.3053
▁초반부	-10.3057
놈이	-10.306
▁영상도	-10.3065
▁얘	-10.3067
▁빕니다	-10.3073
▁호기심	-10.3074
▁일주일	-10.3074
▁무간도	-10.3074
▁이것보단	-10.3076
임을	-10.3078
▁백인	-10.3081
▁재난	-10.3087
▁느낌은	-10.3088
▁부족함	-10.3088
▁돼지	-10.3089
▁담긴	-10.3091
▁내돈	-10.3091
▁재미있었음	-10.3095
▁남기	-10.3096
▁허술	-10.3098
▁실감	-10.3099
▁현실감	-10.3103
▁느껴지	-10.3107
▁시키	-10.3108
같아요	-10.3108
▁배급사	-10.311
▁기대이하	-10.3113
자고	-10.3115
에비해	-10.3133
▁귀여움	-10.3136
▁끝나서	-10.3137
들에	-10.3139
▁가족들	-10.314
▁영화예요	-10.314
▁뜬금없는	-10.3141
지도않고	-10.3141
▁했음	-10.3141
▁속이	-10.3143
▁끊	-10.3145
▁틀어	-10.3147
▁동네	-10.3148
는대	-10.3149
▁보이지	-10.315
버렸	-10.3153
▁솔직	-10.3156
▁마지막이	-10.3156
▁나오는데	-10.316
▁배경으로	-10.3163
▁신선함	-10.3165
씬이	-10.317
▁보고나니	-10.317
▁전화	-10.3172
▁찾아서	-10.3175
▁말아야	-10.3175
능력	-10.3177
▁버려	-10.3179
공감	-10.3181
▁이제는	-10.3184
▁느리	-10.3185
▁내용에	-10.3188
▁영화속	-10.3189
있을	-10.3191
▁망할	-10.3196
쳤다	-10.3197
진심	-10.3201
보는게	-10.3207
되나	-10.3211
▁단점	-10.3216
▁늘어	-10.322
핑	-10.323
▁박중훈	-10.323
▁무거운	-10.323
▁하이틴	-10.323
▁은근	-10.323
▁러브라인	-10.323
▁고뇌	-10.323
▁즐	-10.3233
기에는	-10.3233
▁말그대로	-10.3235
먹은	-10.3237
▁분동안	-10.324
으려고	-10.3242
▁괜찮았음	-10.3243
방식	-10.3247
▁놀란	-10.325
▁알았음	-10.3253
▁풋풋한	-10.3254
본사람	-10.3254
▁것만	-10.3256
▁거지같은	-10.3257
▁단편	-10.3257
없나	-10.3261
잖아요	-10.3265
▁감동적이네요	-10.3266
영화에	-10.3266
▁좋앗	-10.3268
▁의도가	-10.3269
▁언제까지	-10.3269
수없는	-10.3271
▁장난아니	-10.3273
갓	-10.3275
궁	-10.3281
▁무대	-10.3281
▁아무도	-10.3281
▁반영	-10.3281
강추	-10.3284
▁캐릭터들이	-10.3284
▁여신	-10.3285
▁장애인	-10.3288
재미있어요	-10.3294
▁탓	-10.3295
▁박수	-10.33
▁동영상	-10.33
▁수입	-10.3302
▁거리	-10.3303
▁누군지	-10.3304
▁보러	-10.3307
▁아침	-10.3309
▁끝났	-10.3316
▁검	-10.3317
해주고	-10.3325
▁연출력이	-10.3327
둥	-10.333
▁당신이	-10.3332
▁느낌이다	-10.3333
▁궁	-10.3333
재미있게	-10.3334
뭐냐	-10.3334
려다	-10.334
▁이라는	-10.334
▁잘만들었다	-10.334
▁웃기는	-10.3344
▁따뜻해	-10.3344
빙	-10.3359
▁신선하	-10.336
▁말하고자	-10.3368
▁같지	-10.3369
▁혐오	-10.3369
▁볼것	-10.3375
래도	-10.3383
▁오글오글	-10.3384
▁못보겠다	-10.3384
엑	-10.3388
▁비행기	-10.3389
▁스파이	-10.3389
▁화장실	-10.3389
▁가히	-10.3392
답니다	-10.3393
▁재미있었습니다	-10.3395
▁봤는데도	-10.3396
▁매번	-10.3396
▁상어	-10.3396
엇는데	-10.3397
하지마	-10.3399
▁장난하나	-10.3402
▁싶었던	-10.3404
▁헛	-10.3407
물을	-10.3409
답게	-10.341
▁어이없음	-10.3416
▁유지	-10.3417
▁향수	-10.3417
▁본듯	-10.342
아쉽	-10.3421
▁가족애	-10.3425
없네요	-10.3425
▁공감도	-10.3426
▁줘야	-10.3428
▁나을듯	-10.343
▁일본인	-10.343
▁직	-10.3433
▁요즘은	-10.3438
▁빠져서	-10.344
▁괜찮게	-10.3442
에다가	-10.3442
▁없는게	-10.3444
삶	-10.3448
▁뭐하는	-10.3451
때문	-10.3454
우스	-10.3458
나면	-10.3459
▁블	-10.3465
▁액션을	-10.3471
▁완	-10.3476
▁운명	-10.3476
▁극장에	-10.3478
것보다	-10.3478
▁쭉	-10.3479
▁정보	-10.348
보내	-10.3484
▁일어나	-10.3488
▁근래	-10.3489
▁괜찮고	-10.3489
부터가	-10.3492
짧	-10.3494
안된다	-10.3495
▁쿨	-10.3497
▁답답하다	-10.35
부리	-10.3506
보이는	-10.351
▁요소가	-10.3516
▁개인적	-10.3519
▁인상적인	-10.3525
라는걸	-10.3526
▁뛰어나	-10.3527
▁링	-10.353
높은	-10.3531
▁뉴	-10.3532
▁니가	-10.3533
▁장면들이	-10.3535
식으로	-10.3536
룡	-10.3537
법한	-10.3539
▁소름돋	-10.3542
▁울었	-10.3547
닷	-10.355
렀	-10.355
▁놀랐다	-10.355
▁타란티노	-10.355
룰	-10.355
▁박보영	-10.355
▁흥미로웠	-10.3551
▁흡입력	-10.3552
▁결정	-10.3552
▁개그맨	-10.3555
▁되는데	-10.3555
▁크리스	-10.3559
▁미안하다	-10.3562
영이	-10.3563
▁있었으면	-10.3563
괜찮	-10.3564
▁말하려는	-10.3564
였네요	-10.3568
▁모르지만	-10.3569
▁진지하게	-10.3571
▁여인	-10.3571
▁역겹다	-10.3571
▁생기	-10.3583
▁빨갱이	-10.3583
▁소개	-10.3584
▁연기하는	-10.3588
▁넘넘	-10.359
▁안들	-10.3592
▁인상적이	-10.3594
▁열받	-10.3598
었어	-10.3602
하군	-10.3604
▁삭제	-10.3606
올라	-10.3607
▁편안	-10.3608
컷	-10.3609
맥	-10.361
▁그리워	-10.361
분위기	-10.3611
▁잘한다	-10.3612
흘리	-10.3616
목소리	-10.3617
선택	-10.3618
▁빼곤	-10.3618
않는	-10.3619
없는영화	-10.3627
▁손가락	-10.3628
힘들	-10.3628
할수있는	-10.363
이예요	-10.3632
▁안본다	-10.3632
하실	-10.3637
보여	-10.3637
▁드네요	-10.3644
▁대부	-10.3645
▁않은데	-10.3649
▁드림	-10.3651
▁과학	-10.3653
▁정신이	-10.3658
같아	-10.3662
▁막판	-10.3664
▁맞추	-10.3669
닌	-10.367
▁가고	-10.3671
▁재미있었	-10.3676
게임	-10.3679
▁탐	-10.3687
▁키스	-10.3688
주기도	-10.3689
꺼야	-10.3692
닐	-10.3693
빠지	-10.3696
그만	-10.3703
했었	-10.3705
▁했더니	-10.371
쩜	-10.371
찐	-10.3712
컬	-10.3713
뚝	-10.3714
▁깊게	-10.3714
▁비쥬얼	-10.3714
▁알파치노	-10.3714
욤	-10.3714
▁섬세한	-10.3714
▁한효주	-10.3714
▁스타뎀	-10.3714
▁폭풍	-10.3714
▁최고네요	-10.3714
▁픽사	-10.3715
안되는	-10.3717
▁만들었을까	-10.3719
했을때	-10.3723
▁오글거리는	-10.3724
▁꼽	-10.3725
▁미스터리	-10.3726
▁다시보기	-10.3726
하겠	-10.3729
▁공유	-10.3733
▁보았던	-10.3734
▁재밌었던	-10.374
▁점부터	-10.374
▁정도는	-10.3745
▁어설프다	-10.3745
▁기준	-10.3746
럽	-10.3746
▁프랑스영화	-10.3747
▁빠졌	-10.3749
▁깔끔한	-10.3752
받을	-10.3753
▁쩌는	-10.3753
▁순수하고	-10.3756
▁쏘	-10.3757
▁나올때	-10.3758
▁오로	-10.3759
▁것에	-10.3762
▁한다는	-10.3764
터짐	-10.3764
▁노인	-10.3765
▁사랑스럽다	-10.3766
▁학생	-10.3768
▁감동받	-10.3771
▁전문	-10.3771
육	-10.3773
▁몬	-10.3777
▁재밌다는	-10.3788
▁나오네	-10.3789
▁이거보다	-10.3794
▁뜬금없이	-10.3799
▁살아야	-10.3801
▁기대하지	-10.3801
지말자	-10.3804
▁빠지는	-10.3809
우리	-10.381
▁보라고	-10.3816
잤	-10.3817
▁가능성	-10.3818
▁넘어가	-10.382
▁고등학교	-10.383
▁스크린	-10.3831
하던데	-10.3836
▁드라마입니다	-10.384
▁하며	-10.3842
▁탄탄	-10.3856
없구	-10.3857
댄	-10.3859
▁당신의	-10.387
▁염	-10.3875
▁나머지는	-10.3876
톱	-10.3878
찔	-10.3879
컨	-10.388
숭	-10.388
긋	-10.388
풋	-10.388
닉	-10.388
▁비호감	-10.388
▁여러모로	-10.388
▁워낙	-10.3881
▁잃은	-10.3882
▁실망이다	-10.3882
▁예측	-10.3882
▁들어간	-10.3885
당시엔	-10.3885
아들	-10.3885
▁속았다	-10.3889
▁비록	-10.3891
▁감정이입	-10.3892
합시다	-10.3893
장난	-10.3895
▁여전	-10.3896
▁옛날영화	-10.3896
▁알았네	-10.3896
가며	-10.3899
타고	-10.39
▁부산	-10.3907
▁더빙이	-10.3908
▁말투	-10.391
▁다운받아서	-10.3911
▁버리고	-10.3912
어여	-10.3914
였다면	-10.3916
연기력	-10.3916
▁사회적	-10.3916
외엔	-10.392
▁첨이다	-10.3922
▁장점	-10.3925
▁예수	-10.3927
▁떡	-10.3929
▁않았던	-10.393
▁다시금	-10.3937
웨이	-10.394
▁한번더	-10.394
시즌	-10.3941
것같네요	-10.3942
▁이용	-10.3944
▁땀	-10.3944
▁두시간	-10.3945
긴다	-10.3946
맞는	-10.3949
몸	-10.3951
▁소름끼치는	-10.3956
▁생각해보게	-10.3963
▁한시간	-10.3964
후회	-10.3965
▁이상하다	-10.3967
▁칠	-10.3967
했을까	-10.3967
멋있	-10.3968
▁분량	-10.3973
▁짜증나게	-10.3977
▁범죄자	-10.3979
▁슬퍼	-10.3982
▁별로였다	-10.3985
▁새벽	-10.3985
웃기	-10.3986
기전에	-10.3986
▁하나님	-10.3987
애들이	-10.3992
▁아기	-10.3994
미가	-10.3994
▁것들이	-10.3995
스러웠	-10.3996
든지	-10.4
자체	-10.4004
는거지	-10.4004
▁감각	-10.4005
▁년대에	-10.4006
▁봤어	-10.4012
▁내용의	-10.4015
▁주지	-10.4015
▁현실은	-10.4017
▁알리	-10.4022
▁당연	-10.4023
▁이도저도	-10.4025
▁날아	-10.4027
▁어쩌다	-10.4027
해줘서	-10.4028
▁잊을수	-10.4029
▁넘치	-10.4031
▁다운받	-10.4034
▁드라마로	-10.4035
▁천만	-10.4035
오브	-10.4038
▁같았다	-10.4038
▁숨은	-10.4039
▁먹먹	-10.4039
▁이상은	-10.4041
모르겟	-10.4044
▁최악의영화	-10.4045
엽	-10.4048
▁뭐하자는	-10.4048
▁욕이	-10.4049
딘	-10.405
▁뒤죽박죽	-10.405
▁디카프리오	-10.405
▁왕조현	-10.405
▁클래식	-10.405
▁스타워즈	-10.405
▁김수현	-10.405
▁혁명	-10.405
▁칭찬	-10.405
▁둘째치고	-10.4051
▁레옹	-10.4052
▁에라이	-10.4052
있어요	-10.4062
▁형편없	-10.4063
▁소통	-10.4066
▁이별	-10.4072
▁빠져들	-10.4076
▁평화	-10.4076
있으면	-10.408
▁촌	-10.4081
아깝	-10.4082
▁멋지게	-10.4085
▁우린	-10.4085
▁형편없는	-10.4086
▁절로	-10.4092
있던	-10.4093
극히	-10.4094
▁제작비가	-10.4095
▁짜리	-10.4096
▁철학적	-10.4096
▁편까지	-10.4098
캐	-10.4099
▁더러워	-10.41
았지만	-10.4104
신이	-10.4106
이었는데	-10.4115
▁진짜로	-10.4116
같지	-10.4118
널	-10.412
▁전투	-10.4121
▁책임	-10.4122
▁캐스팅이	-10.4124
▁희	-10.4124
▁무서움	-10.4128
▁살다	-10.4129
▁보지마셈	-10.4129
느껴	-10.4132
찾아	-10.4135
▁나와야	-10.4139
▁및	-10.4142
▁표현할	-10.4145
같고	-10.4148
▁심심	-10.4148
▁끝도	-10.4151
▁삶과	-10.4151
▁묘한	-10.4153
▁뛰어넘는	-10.4153
나보다	-10.4154
스크	-10.4154
▁세월이	-10.4155
▁몰라	-10.4155
▁할말	-10.4159
▁낚	-10.4161
▁보겠다	-10.4162
▁어디로	-10.4177
▁시기	-10.4182
하거나	-10.4184
▁내시간	-10.4186
▁매력적	-10.4195
▁번을	-10.4196
▁슬픈영화	-10.4197
▁아이유	-10.4204
▁잠을	-10.4212
▁부탁	-10.4217
렷	-10.4219
인걸	-10.422
닫	-10.4221
랩	-10.4222
립니다	-10.4222
벼	-10.4222
▁시종일관	-10.4222
▁아마추어	-10.4222
▁차승원	-10.4222
▁감명깊게	-10.4223
더군	-10.4224
▁향연	-10.4224
▁그려낸	-10.4225
▁부활	-10.4225
▁낫겠다	-10.4225
▁따름	-10.4226
▁킬러	-10.4227
▁허허	-10.4227
▁힘을	-10.4228
▁좋겠습니다	-10.4228
▁철저	-10.4228
▁엄청나게	-10.4229
▁마시길	-10.423
▁대박이다	-10.4232
▁대학	-10.4234
▁아니잖아	-10.4234
▁로빈	-10.4234
▁최후	-10.4235
▁믿음	-10.4239
하기엔	-10.424
▁재방	-10.4243
▁눈물나	-10.4243
▁아파	-10.4244
▁재미있었는데	-10.4245
▁스파이더맨	-10.4249
▁독특하고	-10.425
▁캐릭터를	-10.4251
▁케미	-10.4253
하겠습니다	-10.4254
▁진지	-10.4258
▁싱	-10.4261
▁싶어서	-10.4261
▁말고는	-10.4266
▁사랑스럽고	-10.4266
▁새끼	-10.4267
▁쩔	-10.427
▁길이	-10.427
▁아이들에게	-10.4271
▁개봉당시	-10.4272
▁시도는	-10.4273
▁신이	-10.4273
▁감독도	-10.4277
▁논리	-10.428
▁뭐여	-10.4282
▁살아있는	-10.4284
분이	-10.4291
사의	-10.4292
▁뭐고	-10.4294
▁맡은	-10.4294
▁읽는	-10.4296
줄알았다	-10.4296
▁발음	-10.4298
맞음	-10.4298
▁캐릭터도	-10.4302
앤	-10.4305
콜	-10.4305
빌	-10.4307
싸움	-10.4308
▁완벽하다	-10.4309
▁중년	-10.431
역할	-10.431
같은영화	-10.4312
좋으나	-10.4314
곳이	-10.4315
▁코믹영화	-10.4316
▁재밌게봤어요	-10.432
기도하고	-10.4323
서야	-10.4327
거에요	-10.4329
▁그들이	-10.4332
못함	-10.4333
▁뭐라고	-10.434
▁그런거	-10.4345
셔야	-10.4346
▁팬들	-10.4356
▁동심	-10.4361
왔는데	-10.4365
▁쉽지	-10.4368
준것들	-10.4372
▁무료	-10.4375
▁흘러가는	-10.4377
▁역사에	-10.438
어용	-10.4386
▁연기력에	-10.4386
▁있었고	-10.4391
연기는	-10.4392
▁처절	-10.4393
데요	-10.4394
장애	-10.4395
겠어	-10.4395
멸	-10.4395
▁명의	-10.4397
벅	-10.4398
켄	-10.4398
▁강동원	-10.4398
▁닥치고	-10.4398
▁미스캐스팅	-10.4398
▁떡밥	-10.4398
▁괜찬	-10.4398
았으면	-10.44
었네	-10.4402
▁멋졌	-10.4405
▁땡	-10.4409
받아	-10.4409
▁감명	-10.4411
▁스포	-10.4413
▁시시	-10.4414
▁한심하다	-10.4415
▁작화	-10.4419
▁의문이	-10.442
▁기대한	-10.442
▁있으나	-10.4422
▁귀여워요	-10.4422
▁충격적인	-10.4423
까봐	-10.4424
▁산만하고	-10.4426
모든	-10.4428
시킬	-10.4437
▁신의	-10.4438
▁오글	-10.4444
무시	-10.4445
▁우선	-10.4447
▁것인가	-10.4447
▁조금만	-10.4451
▁지키	-10.4451
엔딩	-10.4454
▁원하는	-10.4459
▁전편보다	-10.4462
▁멋져	-10.4469
보고싶다	-10.4473
▁든	-10.4482
▁유발	-10.4485
흘	-10.4486
못해	-10.4487
▁당황	-10.4488
둔	-10.4489
▁무서웠	-10.4489
▁됐다	-10.449
제로	-10.4491
▁있긴	-10.4495
▁네티즌	-10.4496
▁천사	-10.4497
▁그이상	-10.4513
▁세상에서	-10.4515
▁역사상	-10.4516
▁대사도	-10.4516
라인	-10.4517
▁코드	-10.4517
▁되야	-10.4518
▁충분한	-10.452
어진	-10.452
▁러브	-10.452
▁화려하	-10.4525
▁공주	-10.4525
지루함	-10.4528
텐	-10.453
개그	-10.4532
덕에	-10.4535
야겠다	-10.454
주연	-10.4542
▁글을	-10.4542
▁어처구니	-10.4544
▁사람들을	-10.4547
▁안나온다	-10.4548
보네요	-10.4553
도좋고	-10.4562
▁잼없다	-10.4565
▁다보고	-10.4566
것인가	-10.4569
▁비교해	-10.4571
낀	-10.4571
아빠	-10.4572
측	-10.4572
덴	-10.4576
▁엔딩크레딧	-10.4576
혔	-10.4576
▁엄정화	-10.4576
▁극혐	-10.4577
▁빠른	-10.4577
▁직업	-10.4579
▁난해한	-10.458
▁감동적이에요	-10.4581
▁늙어	-10.4582
▁태국	-10.4584
▁김혜수	-10.4585
▁권력	-10.4587
▁고문	-10.4587
▁유치찬란	-10.4588
▁모욕	-10.4588
▁조낸	-10.4588
▁티비로	-10.459
이었어요	-10.459
▁당장	-10.4595
▁말인가	-10.4596
신분	-10.4597
▁로망	-10.4599
놈들은	-10.4601
였을	-10.4609
▁오래전에	-10.461
맘	-10.461
▁한동안	-10.4611
분은	-10.4612
▁만화영화	-10.4616
▁점만점에	-10.4618
▁잼있네요	-10.462
느냐	-10.4622
대단	-10.4623
▁기대가	-10.4623
▁살렸다	-10.4624
▁원숭이	-10.4624
미화	-10.4624
▁가짜	-10.4625
▁신선했	-10.4626
▁돌리	-10.4627
▁최고라고	-10.4628
▁말밖에	-10.4641
▁방해	-10.4652
센	-10.4653
▁일반인	-10.4657
시면	-10.4663
▁자고	-10.4664
▁가시	-10.4668
홀	-10.467
함에	-10.467
▁열라	-10.4674
롤	-10.4677
▁자아	-10.468
▁입장에서	-10.4684
▁생각만	-10.4685
▁재미없네요	-10.4686
할수가	-10.4692
▁만들다	-10.4693
▁학	-10.47
▁스릴러물	-10.4703
▁주연배우	-10.4704
이유	-10.4707
▁족	-10.4708
▁뻔하	-10.4718
▁사람에게	-10.4726
▁없다고	-10.4726
▁넣어	-10.4728
▁관련	-10.473
▁선동	-10.4733
▁헬	-10.4733
▁버린	-10.4737
▁생명	-10.4738
▁사랑하고	-10.4738
싫다	-10.4741
보게되	-10.4741
할줄	-10.4741
▁허나	-10.4742
▁영화보다가	-10.4746
▁왔습니다	-10.4751
▁후반부에	-10.4754
▁권상우	-10.4758
▁한석규	-10.4758
됫	-10.4758
▁피아노	-10.4758
▁애초에	-10.4758
▁섬뜩	-10.4758
▁바탕으로	-10.4758
▁온갖	-10.4759
▁쩌	-10.476
▁케빈	-10.476
▁말이필요없다	-10.4761
주지	-10.4762
▁시험	-10.4763
▁올라가	-10.4763
▁준비	-10.4766
▁승부	-10.4766
▁말씀	-10.4768
▁충분하다	-10.4768
▁개꿀잼	-10.4769
▁살리지	-10.4769
▁받았다	-10.477
▁만들어라	-10.4776
▁초반엔	-10.4776
뿌	-10.4776
▁뻔하다	-10.4776
▁똑같이	-10.4782
자들이	-10.4782
머니	-10.4783
▁주온	-10.4788
▁났다	-10.4788
▁그대	-10.4789
▁한가지	-10.4791
하진	-10.4791
▁보여줄	-10.4794
▁끝을	-10.4797
▁모르겠네	-10.4797
▁것들	-10.4797
▁원작과	-10.4807
▁감흥	-10.4808
▁맞다	-10.4809
란다	-10.4809
몇	-10.4811
▁심하다	-10.4812
▁욕먹	-10.4813
바라	-10.4815
▁억지스럽고	-10.4815
▁시리즈의	-10.482
▁할때	-10.4823
▁부인	-10.4823
▁봉	-10.4824
▁느껴지지	-10.4825
면에서	-10.4826
▁잔잔함	-10.4826
▁성인이	-10.4826
그래도	-10.4827
▁니네	-10.4827
▁못보겠	-10.4829
▁잔인함	-10.4829
▁혹	-10.4834
짜증	-10.4837
▁남자들	-10.4846
▁영상은	-10.4847
흥	-10.4847
▁재밌지	-10.4854
되네요	-10.4856
굳	-10.4861
탑	-10.4863
▁광구	-10.4864
꿈	-10.4865
▁구성도	-10.4865
▁니들이	-10.4867
▁아련	-10.4875
으로만	-10.4876
▁추천하고	-10.4884
이랄까	-10.4884
▁드라마중	-10.4884
▁하다니	-10.4886
▁개념	-10.4887
▁죽인	-10.4892
끝까지	-10.4893
간에	-10.4893
▁미소가	-10.4895
애들은	-10.4896
▁여자친구	-10.4898
▁서양	-10.4902
▁털	-10.4923
▁영환	-10.4925
줄알았	-10.4927
잖	-10.4927
▁낚인	-10.4927
▁학생들	-10.4931
였구나	-10.4932
▁정리	-10.4932
▁남는게	-10.4934
▁아무나	-10.4934
▁마냥	-10.4935
스러워	-10.4935
▁보아도	-10.4943
▁안타까움	-10.4943
▁즐거움	-10.4943
▁테이큰	-10.4943
▁마찬가지	-10.4943
▁어차피	-10.4943
▁라이언	-10.4943
▁지겨워	-10.4944
▁기발한	-10.4944
▁수면제	-10.4944
▁두고두고	-10.4944
▁자연스럽게	-10.4945
▁로맨틱코미디	-10.4946
▁슈퍼맨	-10.4946
특집	-10.4947
당시	-10.4947
▁재앙	-10.4948
▁방향	-10.4948
▁풀어낸	-10.495
▁흥분	-10.4951
▁십점	-10.4953
▁울었어요	-10.4953
시작해서	-10.4953
시키고	-10.4954
▁표현이	-10.4954
▁감동적입니다	-10.4956
▁세계관	-10.4956
▁거기	-10.4958
▁개똥	-10.4959
었나	-10.496
▁성형	-10.4961
어린	-10.4961
어색	-10.4963
▁짱이다	-10.4967
리스트	-10.4968
▁영화라서	-10.4969
전쟁	-10.4972
▁긴장감을	-10.4973
▁신비	-10.4974
▁조잡한	-10.4979
만듬	-10.4981
▁배우분들	-10.4983
▁안나오는	-10.4983
▁남아있	-10.4984
▁조잡	-10.4985
▁나열	-10.4986
▁절대로	-10.4987
▁화질	-10.499
▁눈으로	-10.4991
▁연기잘하	-10.4992
▁끔	-10.4994
▁캐릭	-10.4996
있네요	-10.4998
인게	-10.4998
곳에	-10.4999
▁아까워서	-10.5
▁못하겠다	-10.5
▁신화	-10.5002
▁커서	-10.5003
▁몰아	-10.5004
▁좋아하지만	-10.5005
▁밑	-10.5007
▁의도는	-10.5007
▁들게	-10.501
브라	-10.5013
▁났	-10.5014
▁낮은지	-10.5016
내용도	-10.5018
▁이해도	-10.5019
▁영화인줄	-10.5023
▁음악은	-10.5028
검	-10.5029
▁간지	-10.5033
좋네요	-10.5034
아까움	-10.5039
투성이	-10.504
거든	-10.504
▁제작자	-10.5041
▁액션만	-10.5042
랬	-10.5047
찡	-10.505
탓	-10.5054
빼곤	-10.5054
거라고	-10.5054
프로그램	-10.5055
맞추	-10.5057
흑	-10.5058
바람	-10.506
▁했을까	-10.5062
▁보기가	-10.5069
▁후하게	-10.5069
▁다른영화	-10.507
▁이것보다	-10.5072
▁망했	-10.5075
▁관객이	-10.5076
수를	-10.508
적이지	-10.5083
르고	-10.5087
재미없어	-10.5088
▁마시	-10.5093
▁같았	-10.5106
▁보고있는데	-10.5111
혼자	-10.5111
▁인생영화	-10.5122
▁나음	-10.5123
▁바닥	-10.5123
델	-10.5126
렉	-10.5128
버전	-10.5129
가면서	-10.5132
뚱	-10.5132
솜	-10.5132
▁데이빗	-10.5132
▁김희선	-10.5132
오랫동안	-10.5132
▁감성팔이	-10.5132
▁킬링	-10.5132
어울림	-10.5132
아니고	-10.5133
자마자	-10.5134
▁나타나	-10.5138
▁고증	-10.5141
▁음향	-10.5141
▁지옥	-10.5144
▁또라이	-10.5147
읽	-10.5148
▁괜찮았던	-10.5148
▁쉬운	-10.5149
▁해외	-10.5149
▁흑	-10.5151
▁힘들어	-10.5151
어이없	-10.5153
야할	-10.516
▁언어	-10.516
이어서	-10.5163
▁하세요	-10.5166
▁타임	-10.5169
▁웃겼다	-10.5173
▁찾기	-10.5176
었는지	-10.5178
제목	-10.5178
▁땐	-10.5178
▁지나가	-10.518
리아	-10.5181
▁매주	-10.5181
▁행복하게	-10.5185
▁이만한	-10.5187
▁여기에	-10.519
▁영화라지만	-10.5191
▁사라지	-10.5194
▁무섭게	-10.5195
▁망쳐놓	-10.5196
▁참신	-10.5201
▁웃었다	-10.5207
않다	-10.5208
▁이거보단	-10.5209
▁아쉬워요	-10.521
▁오지	-10.5215
▁상황이	-10.5218
▁줄이야	-10.5225
▁민족	-10.5226
으신	-10.5232
▁짱구	-10.5235
벗	-10.5238
꿀잼	-10.5238
죽는	-10.524
▁모자라	-10.524
▁완성	-10.5242
▁느껴	-10.5243
▁귀여웠	-10.5244
▁답답해	-10.5244
웃김	-10.5244
있는영화	-10.5244
▁넘어서	-10.5248
활	-10.5249
몬	-10.525
비디오	-10.5252
하고싶다	-10.5254
포인트	-10.5255
광고	-10.526
노답	-10.526
▁미녀	-10.5266
봣어요	-10.5276
팬이	-10.5278
제대로	-10.5281
▁잘생겼	-10.5285
렬	-10.5285
▁무엇이	-10.5287
▁관심이	-10.5289
▁성룡의	-10.529
▁현실적이	-10.5291
멋잇	-10.5293
▁정체	-10.5298
▁공간	-10.5303
▁별로네요	-10.531
물로	-10.531
생겨서	-10.531
▁옆에	-10.5313
▁높이	-10.5314
▁따지	-10.5314
보셈	-10.5319
하러	-10.532
대를	-10.5322
▁늑대	-10.5324
뜸	-10.5324
▁나루토	-10.5324
▁후속편	-10.5325
▁전성기	-10.5325
▁굳굳	-10.5326
▁알게되	-10.5327
으시	-10.533
▁사이코	-10.5331
▁점주	-10.5334
▁거짓	-10.5338
▁미안해	-10.5338
▁복선	-10.5339
있었는데	-10.534
▁딸이	-10.5341
▁의미도	-10.5341
▁달달	-10.5343
▁비참	-10.5345
▁극본	-10.5347
▁공포가	-10.5348
▁했으나	-10.5349
▁미쳐	-10.5353
▁무엇	-10.5353
▁개인적인	-10.5356
▁시청자들	-10.5359
▁순위	-10.536
▁일을	-10.5362
▁강추합니다	-10.5362
▁괜찮네요	-10.5364
▁했는지	-10.5375
▁보게되는	-10.5378
▁만드네	-10.538
▁안보면	-10.5381
▁벽	-10.5383
▁만원	-10.5384
▁예고	-10.5384
수밖에	-10.5384
▁충격이	-10.5385
▁막상	-10.5385
▁했나	-10.5386
▁미스테리	-10.5386
둥이	-10.5394
▁수록	-10.5397
▁별점이	-10.5398
로서는	-10.54
▁시간은	-10.5404
▁본격	-10.5406
▁몰입도도	-10.5408
재미있다	-10.5408
스티	-10.5413
▁밀라	-10.5415
뻔했다	-10.5419
못한	-10.5421
됩니다	-10.5422
▁돌아보게	-10.5422
▁무기	-10.5423
▁웃을	-10.5423
▁이영화의	-10.5433
▁빠져들게	-10.5434
▁한사람	-10.5434
▁놈들	-10.5435
라는게	-10.5437
허접	-10.544
후에	-10.5442
▁죽음을	-10.5442
▁하기엔	-10.5445
▁짤	-10.5446
▁구분	-10.5448
틈	-10.5448
꽃	-10.5449
아버지	-10.5449
▁끝날	-10.545
칸	-10.545
▁시켜	-10.545
섬	-10.545
낚	-10.5455
▁사과	-10.5456
속으로	-10.5457
▁모든것이	-10.5457
초반	-10.5464
▁보는것	-10.5466
▁살아남	-10.5466
▁싶습니다	-10.5466
틴	-10.5473
▁센스	-10.5475
▁없던	-10.5477
좋은영화	-10.5483
▁최대	-10.5486
▁나왔던	-10.5492
▁듣는	-10.5493
▁루즈	-10.5494
▁건가	-10.5498
로우	-10.5501
▁살때	-10.5502
▁전개는	-10.5503
▁괜찮아	-10.5504
윈	-10.5508
긴했지만	-10.5513
에게는	-10.5513
흡	-10.5514
▁기타	-10.5517
쿵	-10.5518
▁껐다	-10.552
▁런닝타임	-10.552
▁어쨌든	-10.552
▁설경구	-10.552
▁세련된	-10.552
▁스페인	-10.552
▁완젼	-10.552
▁늙은	-10.5522
▁제시카	-10.5522
▁도시	-10.5522
▁닮았	-10.5523
▁자연스러운	-10.5525
▁억지스런	-10.5526
▁시골	-10.5528
▁필요가	-10.5529
▁아니라면	-10.553
▁제목에	-10.5531
▁담고	-10.5532
▁불쌍해	-10.5535
▁재밌었습니다	-10.5536
▁편에서	-10.5536
▁지독	-10.554
▁가족을	-10.554
▁죽었	-10.5544
▁이영화에	-10.5545
갈때	-10.5547
리오	-10.5547
▁느껴질	-10.5551
하였다	-10.5551
성과	-10.5554
▁가슴아프	-10.5555
▁녹	-10.5555
▁모방	-10.5555
▁잊지못할	-10.5556
▁하하하	-10.5557
는건가	-10.5557
는것이	-10.5558
▁밋밋한	-10.5558
▁채워	-10.5559
▁보고싶은데	-10.5561
▁자랑	-10.5568
▁상태	-10.5569
▁느껴졌다	-10.5569
알아	-10.5573
시대에	-10.5577
▁졸잼	-10.5584
해야할	-10.5593
▁외국인	-10.5593
분들은	-10.5595
▁제대로된	-10.5596
▁의미있는	-10.5597
▁광기	-10.5597
▁우리에게	-10.5598
▁하도	-10.5598
▁평을	-10.5598
▁머냐	-10.56
▁필요한가	-10.56
▁세월	-10.5601
▁해야지	-10.5603
▁본능	-10.5606
▁느끼고	-10.5606
▁농	-10.5609
▁머야	-10.5614
▁멋짐	-10.5614
▁첨으로	-10.5617
▁뛰어넘	-10.562
▁잘해	-10.562
▁부족하고	-10.5621
▁있었음	-10.5622
▁맞나	-10.5623
휴	-10.5625
▁어우	-10.5627
▁눈치	-10.563
▁오해	-10.5631
▁웃음을	-10.5632
▁앞에서	-10.5635
▁폼	-10.5636
해지고	-10.5637
▁들어서	-10.5639
▁만들기	-10.5642
자들의	-10.565
▁사라	-10.5651
고싶어	-10.5651
▁감독에게	-10.5653
불쌍	-10.5655
화이팅	-10.5656
어떻게	-10.5656
▁될수	-10.5658
▁알아야	-10.566
▁재밋는	-10.5661
▁삐	-10.5671
▁버렸다	-10.5671
▁전율	-10.5673
▁액션물	-10.5678
▁중국영화	-10.5678
싫	-10.5685
▁알려주는	-10.5687
▁점이나	-10.5688
▁오랜	-10.5689
▁한숨	-10.5691
여행	-10.5703
쾌	-10.5705
▁엉망이	-10.5705
▁남자배우	-10.5707
▁우려먹	-10.5708
▁했습니다	-10.571
▁살아있	-10.5711
닮	-10.5711
더라고요	-10.5712
랭	-10.5719
▁니콜	-10.572
덩	-10.572
쟈	-10.572
▁고등학생	-10.572
▁뒤늦게	-10.572
▁박찬욱	-10.572
▁크레딧	-10.572
깃	-10.572
▁손예진	-10.572
▁원피스	-10.572
▁어딘가	-10.572
▁나머진	-10.572
▁겨울왕국	-10.5721
▁오그라드는	-10.5721
▁환장	-10.5721
▁욕나온다	-10.5723
▁바란다	-10.5724
▁기억나	-10.5725
▁재탕	-10.5725
▁아침드라마	-10.5726
▁주인공들이	-10.5731
▁마블	-10.5732
안하고	-10.5733
▁처음본다	-10.5736
답다	-10.5739
않고	-10.5742
▁감정선	-10.5744
▁화끈한	-10.5747
▁여유	-10.5748
하길래	-10.575
▁추가	-10.575
▁시체	-10.575
▁억지스럽	-10.5751
▁최고에요	-10.5757
▁봐주	-10.5763
▁나오기	-10.5764
떨어지	-10.5765
▁빠질	-10.5767
▁난해하	-10.5771
▁웃겨서	-10.5772
▁락	-10.5772
▁얻어	-10.5772
▁귀신이	-10.5773
▁해준다	-10.5774
점을	-10.5777
했어도	-10.5778
▁일본에서	-10.5778
▁게스트	-10.5778
▁안감	-10.5783
▁두개	-10.5783
▁상업영화	-10.5784
▁역작	-10.5787
▁있냐	-10.5789
▁현실적이고	-10.579
재밋다	-10.5795
▁오는	-10.5795
▁이끌어	-10.5796
소재와	-10.5796
▁공룡	-10.5798
▁스릴감	-10.5802
▁정부	-10.5802
타임	-10.5805
안에서	-10.5806
▁보구	-10.5808
놈은	-10.5818
▁한방	-10.5822
모를	-10.5824
자면	-10.5827
▁연습	-10.583
해줄	-10.5836
▁지루함을	-10.5844
▁위험	-10.5845
▁잼있는	-10.5845
나왓	-10.5846
자신	-10.5846
거같	-10.5848
떡	-10.5851
▁내용전개	-10.5852
촌	-10.5855
▁높지	-10.5855
보소	-10.5856
▁입장	-10.5857
▁혼란	-10.5857
벽	-10.5859
쏘	-10.586
▁젖	-10.5864
▁역사적	-10.5866
▁멋있고	-10.5869
▁최악임	-10.5872
▁편하게	-10.5872
▁결국은	-10.5874
녀석	-10.5874
▁볼만했	-10.5876
▁여운도	-10.588
▁집중도	-10.5882
▁느낀다	-10.5884
▁두명	-10.5884
▁여자들이	-10.5885
▁안나옴	-10.5885
방에서	-10.5887
▁본건	-10.5888
▁되서	-10.589
▁의해	-10.5891
▁완성도가	-10.5891
주시	-10.5904
▁하자	-10.5911
▁킬링타임용으로도	-10.5913
▁너무하네	-10.5914
▁무협영화	-10.5915
▁프리	-10.5919
픽	-10.5921
찮	-10.5922
▁진부하다	-10.5924
▁봤고	-10.5924
▁영웅본색	-10.5924
▁짬뽕	-10.5924
뚫	-10.5924
▁그냥저냥	-10.5924
▁다이하드	-10.5924
▁최민수	-10.5924
▁아바타	-10.5925
▁전지현	-10.5925
▁이정재	-10.5925
▁아이언맨	-10.5925
▁사람과	-10.5926
▁세대	-10.5926
▁가까이	-10.5927
▁흘렸	-10.5927
▁색채	-10.5927
을뿐	-10.5928
▁찬양	-10.5928
▁새삼	-10.5928
구먼	-10.5929
▁시간아까워	-10.5931
하더니	-10.5932
▁여태	-10.5932
▁분짜리	-10.5934
▁과정이	-10.5935
▁뭐랄까	-10.594
▁호불호가	-10.594
▁나니	-10.5942
▁가족과	-10.5943
▁히어로물	-10.5943
▁동화같은	-10.5943
▁채우	-10.5945
보던	-10.5945
줘요	-10.5947
▁오직	-10.5949
▁레오	-10.5952
본영화중	-10.5953
▁이런식으로	-10.5953
할려고	-10.5955
▁보는동안	-10.5955
▁학년때	-10.5956
▁심장이	-10.5959
▁결국엔	-10.5959
▁커버	-10.5961
▁애니매이션	-10.5961
분들께	-10.5961
▁않습니다	-10.5963
▁당연한	-10.5964
▁만들었으면	-10.5967
▁원조	-10.5968
모르고	-10.5969
▁미치	-10.597
▁있겠지만	-10.597
▁생각은	-10.5971
▁석	-10.5975
▁돈아깝다	-10.5978
▁오락	-10.5981
▁봐줄만	-10.5982
▁가야	-10.5983
▁이것은	-10.5985
▁정체성	-10.5985
▁러닝타임이	-10.5985
▁남들	-10.5987
▁전율이	-10.5987
▁이딴거	-10.5993
▁알지	-10.5997
▁얘기를	-10.5997
▁우는	-10.5998
▁최고최고	-10.6006
▁알바가	-10.6006
▁예술이	-10.6007
▁본방	-10.6008
버렸네	-10.6008
▁놀랍	-10.601
▁낮네요	-10.601
▁상처를	-10.6013
▁소리가	-10.6015
▁명배우	-10.6018
▁좋더라	-10.6019
스럽지	-10.602
어라	-10.602
▁드라마에	-10.603
▁아름답	-10.603
▁아이를	-10.6032
▁영상미도	-10.6032
줘야지	-10.6034
▁스토리나	-10.6037
▁연주	-10.604
▁허접하고	-10.6042
같아서	-10.6044
려다가	-10.6046
▁고어	-10.6046
▁식상하다	-10.6049
자식	-10.6051
드립니다	-10.6058
▁모습에	-10.6062
▁받아야	-10.6066
▁꿈과	-10.607
▁남아있는	-10.6071
▁한다고	-10.6072
▁작품이라	-10.6073
▁뿌	-10.6073
캐스팅	-10.6075
춤	-10.6075
▁안가는	-10.6078
▁참고로	-10.6083
▁물어	-10.6086
▁바라는	-10.6086
▁이전	-10.609
▁대결	-10.6092
관람	-10.6096
▁이런것도	-10.6097
▁만들어야	-10.6101
랴	-10.6105
마저도	-10.6109
거같아	-10.6114
▁허구	-10.6121
▁첩보	-10.6122
안되고	-10.6124
▁기회	-10.6125
낭	-10.6126
▁말아먹	-10.6129
꼈	-10.613
놀이	-10.613
냄	-10.6132
믄	-10.6133
얄	-10.6133
▁군더더기	-10.6133
▁이것저것	-10.6133
쩍	-10.6133
츄	-10.6133
▁팝콘	-10.6133
▁최민식	-10.6133
▁외로움	-10.6133
▁픽션	-10.6133
▁완죤	-10.6133
▁드니로	-10.6133
▁왕가위	-10.6133
▁불가	-10.6135
▁생존	-10.6136
▁보낸다	-10.6137
▁구조	-10.6137
▁독립	-10.6139
▁치료	-10.6139
효과	-10.614
▁멜로영화	-10.6141
▁쏘우	-10.6142
▁여태까지	-10.6142
▁웃다가	-10.6145
▁남자는	-10.6153
▁멋져요	-10.6153
▁미학	-10.6155
▁어설프게	-10.6156
▁참여	-10.6156
▁주고싶다	-10.616
▁택시	-10.616
▁기대된다	-10.6162
내내	-10.6162
▁저급	-10.6163
즐겁고	-10.6166
▁귀여워서	-10.6167
▁모양	-10.6171
▁네이버평점	-10.6172
네유	-10.6173
▁재수없	-10.6179
▁지경	-10.618
▁않아요	-10.6181
▁설정은	-10.6184
▁강렬	-10.6188
올려	-10.619
▁우리들	-10.6199
▁헉	-10.62
빠진	-10.62
▁녹아	-10.6201
것같음	-10.6202
▁긴장감은	-10.6203
▁로마	-10.6206
▁진행되는	-10.6208
잡고	-10.6209
▁소재만	-10.6211
었을까	-10.6211
▁뺏	-10.6211
▁애정	-10.6212
▁못본	-10.6216
바른	-10.6218
▁걸까	-10.6219
▁도둑	-10.6224
▁호흡	-10.6227
▁나오네요	-10.6231
▁후반부로	-10.6237
▁영화인것	-10.6237
▁되었습니다	-10.6238
▁영상미와	-10.6238
▁약한	-10.6241
▁상영관	-10.6242
▁견	-10.6247
▁소름끼치	-10.6249
▁회사	-10.6251
▁다름	-10.6253
▁전설이	-10.6254
사실	-10.6254
슬프	-10.6258
▁대역	-10.626
▁감성을	-10.6266
▁나한테	-10.6271
▁중독	-10.6271
▁만들어주	-10.6274
▁낭만	-10.6276
▁믿는	-10.6277
과정	-10.6278
▁공포는	-10.6279
▁그들	-10.6281
▁이어지는	-10.6281
붕	-10.6284
어디	-10.6286
▁마지막은	-10.6286
젠	-10.6287
콩	-10.6287
학교	-10.6289
것같아	-10.6289
졸작	-10.629
▁알려주	-10.6291
학생	-10.6291
겠는데	-10.6292
즐	-10.6293
지라도	-10.6296
트로	-10.6299
애가	-10.6305
주네	-10.6307
▁깜	-10.6307
▁욕을	-10.6309
▁엔딩은	-10.6314
▁봐야한다	-10.6317
이후로	-10.6317
▁명작임	-10.6319
옆	-10.6324
하기만	-10.6325
셔서	-10.6328
▁스토리로	-10.6329
▁이딴게	-10.633
것들이	-10.6331
▁정말정말	-10.6332
▁지금보면	-10.6333
▁튀	-10.6335
같애	-10.6339
든가	-10.6341
될까	-10.6342
그랬	-10.6342
하고싶은	-10.6343
균	-10.6344
듦	-10.6344
랍니다	-10.6344
펜	-10.6345
램	-10.6345
▁구혜선	-10.6346
▁봤나	-10.6346
▁송승헌	-10.6346
▁엉망진창	-10.6346
▁정주행	-10.6346
▁오페라	-10.6346
▁아버지가	-10.6346
▁총체적	-10.6346
▁심리묘사	-10.6346
▁흥미롭게	-10.6346
▁추억을	-10.6347
▁김태희	-10.6347
▁쫓	-10.6348
▁패션	-10.6349
다르	-10.635
▁신세계	-10.6351
▁한줄	-10.6352
▁유행	-10.6353
▁과장된	-10.6353
▁경악	-10.6353
▁국산	-10.6354
▁이하도	-10.6355
▁아깝습니다	-10.6358
▁심각하게	-10.6358
▁지루했음	-10.6359
드리고	-10.636
▁감동적이었다	-10.636
▁캐리	-10.6361
▁일찍	-10.6362
▁즐겨	-10.6362
받아서	-10.6363
▁기법	-10.6363
▁흥미진진한	-10.6363
▁재밋어	-10.6365
▁우승	-10.6365
▁만들었냐	-10.6367
▁긴장감과	-10.6369
▁공연	-10.6369
▁인간적으로	-10.6372
▁쉽	-10.6374
▁말았다	-10.6375
▁흉내내	-10.6379
시오	-10.638
▁이은주	-10.638
▁분을	-10.638
▁빈약한	-10.6383
▁인연	-10.6385
▁불쌍해서	-10.6389
조아	-10.6391
▁아련한	-10.6391
▁되면	-10.6392
▁시점	-10.6392
▁포함	-10.6394
▁쌓	-10.6396
▁마누라	-10.6396
▁적은	-10.64
대고	-10.64
▁자세	-10.6404
▁줘	-10.6406
▁안되네	-10.6407
▁오글거림	-10.6408
▁동감	-10.6411
수준이	-10.6411
▁워	-10.6413
▁진실을	-10.6414
없었	-10.6415
▁사실이	-10.6415
배우가	-10.6415
▁사람만	-10.6416
▁전개에	-10.6418
▁외면	-10.642
영환	-10.642
빠져	-10.6421
▁벌어	-10.6422
점은	-10.6425
▁놓치	-10.6427
▁와서	-10.6429
▁전라도	-10.6432
▁걸로	-10.6434
됬다	-10.6435
할거	-10.6436
▁한글	-10.6436
▁취향이	-10.6439
들끼리	-10.6439
▁영화감독	-10.6442
▁걸작이다	-10.6443
▁할말을	-10.6446
▁봤었	-10.6446
▁방식	-10.6448
▁한개	-10.6454
▁엘리	-10.6455
▁마니	-10.6457
같네요	-10.6459
겠다는	-10.6466
위주	-10.6468
▁싫은	-10.6477
▁말해	-10.6482
▁반감	-10.6483
▁애들도	-10.6488
가장	-10.6488
▁다시봤는데	-10.6489
▁원작은	-10.649
▁몰입하게	-10.649
▁못했던	-10.649
▁안봄	-10.6497
▁영화제목	-10.6498
▁날리	-10.65
▁글자	-10.6502
재밌고	-10.6507
▁최고인듯	-10.6509
▁대가	-10.651
▁시작하	-10.6513
드네요	-10.6514
▁들지	-10.6514
떼	-10.6515
▁면이	-10.6521
▁편인데	-10.6522
▁아직까지도	-10.6522
▁우울한	-10.6524
관객	-10.6525
빨리	-10.6526
거니	-10.6527
▁주세요	-10.6527
들이나	-10.653
▁느껴졌	-10.6532
게만드는	-10.6533
▁불쾌	-10.6533
싶은데	-10.6534
▁한국어	-10.6538
보려고	-10.6539
▁필요하다	-10.6539
▁싫어하는	-10.654
▁중학교	-10.6542
조금	-10.6542
▁이렇게까지	-10.6546
볼때	-10.6546
▁싶다면	-10.6548
아닌데	-10.6549
▁즐길	-10.6554
았어요	-10.6555
근데	-10.6558
뻔한	-10.6558
▁마법	-10.6559
▁싶음	-10.656
▁쯧쯧	-10.6563
▁가볍지	-10.6563
▁도라에몽	-10.6563
▁스필버그	-10.6563
▁김명민	-10.6563
▁싸이코패스	-10.6563
▁엑스맨	-10.6563
▁초중반	-10.6563
▁소지섭	-10.6563
었구나	-10.6563
▁멘탈	-10.6563
▁점준것중	-10.6563
▁람보	-10.6564
땜시	-10.6565
작이라	-10.6567
▁황금	-10.6568
▁웃으며	-10.6568
남기는데	-10.6568
▁낮추	-10.6568
▁영원	-10.6569
▁공허	-10.657
▁반응	-10.6571
▁커피	-10.6571
▁소품	-10.6574
▁재미없었음	-10.6576
▁모순	-10.6578
▁쥬	-10.6578
▁훈훈하	-10.6582
▁뉴스	-10.6582
스카	-10.6583
▁검색해	-10.6584
▁뜬금없	-10.6586
▁청년	-10.6588
▁정석	-10.6588
▁번역	-10.6593
▁경우	-10.6596
▁정상	-10.6601
▁배울	-10.6602
▁점에서	-10.6606
▁약하다	-10.6608
▁분정도	-10.6609
▁재밋고	-10.6611
▁장소	-10.6612
▁감성이	-10.6617
▁시대가	-10.6622
이형	-10.6625
평가	-10.6629
▁토니	-10.6629
▁갖게	-10.6632
▁창피	-10.6634
▁자위	-10.6635
▁잔혹	-10.6638
할정도로	-10.6639
지않는다	-10.6639
알고	-10.664
▁훈훈하고	-10.6642
보려	-10.6646
▁초반에는	-10.6647
▁대사들	-10.6648
이기에	-10.6649
것만으로도	-10.6653
화가	-10.6656
▁부분에서	-10.6659
심이	-10.666
▁시대적	-10.666
▁남친	-10.6662
▁설명이	-10.6664
보니깐	-10.6664
잇엇	-10.6665
달라	-10.6666
▁안봐서	-10.6667
▁남기는	-10.6668
▁지겹	-10.667
▁힘들었다	-10.667
▁쪼	-10.6673
▁버전	-10.6675
▁인식	-10.6677
▁혜	-10.6679
▁만드냐	-10.6683
▁천원	-10.6683
▁회상	-10.6686
▁훈훈	-10.6686
▁이영화보고	-10.6688
▁왔는데	-10.6688
▁실상	-10.669
상영	-10.6691
스탈	-10.6697
본거	-10.6697
▁의도를	-10.6703
엇음	-10.6706
▁뛰	-10.6709
▁성적	-10.671
▁음악을	-10.6712
▁면에서	-10.6713
▁밋밋	-10.6714
나올때	-10.6721
▁장진	-10.6721
꺼라	-10.6725
▁재밋엇	-10.6726
▁표정이	-10.6732
▁곡	-10.6732
▁정신병	-10.6737
하나요	-10.6742
경찰	-10.6743
▁조아	-10.6744
아까운영화	-10.6744
엄청	-10.6746
▁봤지	-10.6747
▁많네	-10.6749
▁자체로	-10.6752
▁보이고	-10.6753
▁살인자	-10.6758
▁찍을	-10.6761
▁머리속	-10.6762
봣다	-10.6765
▁밝혀	-10.6766
▁바라보는	-10.6766
▁나올까	-10.6766
줄알았는데	-10.6769
▁대사와	-10.6772
세여	-10.6776
재밋음	-10.6778
소녀	-10.678
▁셀	-10.6781
탱	-10.6783
▁우리나라에서	-10.6784
▁웬만하면	-10.6785
▁공중파	-10.6785
▁깨달음	-10.6785
▁신세경	-10.6785
▁드래곤볼	-10.6785
▁컬트	-10.6785
▁저평가	-10.6786
▁안성기	-10.6787
▁돈낭비	-10.6788
▁시간과	-10.6789
▁정점	-10.6791
▁제목은	-10.6792
▁흥미롭지	-10.6792
▁꺼져	-10.6794
▁선생	-10.6796
▁많은것을	-10.68
▁예뻐서	-10.68
▁다음편	-10.68
▁기억난다	-10.68
▁인권	-10.6803
▁사람마다	-10.6804
▁아이고	-10.6804
▁고작	-10.6806
같은데	-10.6808
▁거기서	-10.6808
▁못따라	-10.6809
▁싶었는데	-10.681
치기	-10.681
▁성경	-10.6811
▁정통	-10.6813
▁감동적임	-10.6813
▁점대가	-10.6816
▁본듯한	-10.6816
▁법정	-10.6819
▁경계	-10.6821
주고싶	-10.6825
▁남의	-10.6832
▁에로물	-10.6832
듣고	-10.6833
제일	-10.6834
▁못만들	-10.6834
▁어디까지	-10.6834
▁현실에	-10.6834
스틴	-10.6834
▁클라라	-10.6838
▁캐스팅은	-10.6839
으러	-10.6845
▁비해서	-10.6846
오르는	-10.6847
▁화가나	-10.6852
▁시리즈가	-10.6856
▁풀어내	-10.6857
▁굿굿굿	-10.6858
▁잔인하고	-10.686
▁명이	-10.6861
▁향한	-10.6865
보여주	-10.6866
▁심오한	-10.6869
▁항	-10.6874
그대로	-10.6874
▁이따위로	-10.6876
▁반갑	-10.6884
믿	-10.6891
동화	-10.6894
낫다	-10.6895
입니까	-10.6898
▁때리	-10.6903
▁영화중에서	-10.6905
절대	-10.6906
▁아류	-10.6918
▁와닿지	-10.6919
▁벨	-10.692
▁귀여	-10.6924
▁울어	-10.6924
▁컷	-10.6928
럴	-10.6929
▁다리	-10.6929
내리	-10.6934
▁한거	-10.6937
▁택	-10.6937
▁메세지를	-10.6944
깝	-10.6944
▁킬링타임용도	-10.6947
내려	-10.6947
낮은	-10.6947
보였다	-10.6948
동생	-10.6948
이래	-10.6949
로서의	-10.6951
▁인도영화	-10.6955
꼽	-10.6956
없지	-10.6956
▁영화였는데	-10.6956
▁모아	-10.6958
▁찍지	-10.6961
▁감이	-10.6962
아까워	-10.6964
귀엽	-10.6964
▁유리	-10.6968
▁감동입니다	-10.6971
▁기사	-10.6972
추억	-10.6972
튀	-10.6974
▁대표	-10.6975
▁짜릿	-10.6977
셧	-10.6978
▁좋아하지	-10.6978
▁작가는	-10.6978
였네	-10.698
▁아닌것	-10.698
▁셋	-10.6982
닿	-10.6983
▁될듯	-10.6984
죽이고	-10.6985
깐	-10.699
야말로	-10.6992
는것을	-10.6994
껀	-10.6995
▁최고인	-10.7004
▁제목과	-10.7005
드립	-10.7008
삭	-10.7009
랍	-10.701
뜬	-10.7011
났음	-10.7011
▁봤는지	-10.7012
▁소피마르소	-10.7012
▁신데렐라	-10.7012
▁원주율	-10.7012
▁이탈리아	-10.7012
▁차태현	-10.7012
▁학창시절	-10.7012
▁홧팅	-10.7012
꽁	-10.7012
삘	-10.7012
쇠	-10.7012
졋	-10.7012
▁간간히	-10.7012
▁김민종	-10.7012
▁다크나이트	-10.7012
▁섞어	-10.7012
▁힙합	-10.7012
▁황정민	-10.7012
▁장동건	-10.7012
▁임청하	-10.7012
▁엽문	-10.7012
▁손색이	-10.7013
상태	-10.7013
▁이연희	-10.7013
▁강아지	-10.7013
▁전도연	-10.7013
▁영화자체	-10.7014
▁가져다	-10.7014
▁고인의	-10.7014
▁각각	-10.7015
조차도	-10.7015
▁러브스토리	-10.7015
▁감옥	-10.7015
▁틀리	-10.7016
▁중후반	-10.7016
▁인물들의	-10.7017
주었다	-10.7018
▁미친듯이	-10.7018
▁애니를	-10.7018
▁싸우	-10.7019
만점	-10.7019
▁열광	-10.7019
▁여튼	-10.702
▁재방송	-10.702
▁의견	-10.7021
▁젊	-10.7023
▁이기적인	-10.7024
레스	-10.7024
▁중반부터	-10.7026
▁환상적인	-10.7027
▁잘했다	-10.7028
▁숲	-10.7028
▁기다렸	-10.7029
▁파워	-10.7034
▁있었습니다	-10.7035
많고	-10.7036
▁끝남	-10.7043
▁대학생	-10.7044
▁처음이네	-10.7045
▁초반부터	-10.7047
▁기억남	-10.705
오래	-10.7055
▁영향을	-10.7056
▁한숨만	-10.7056
▁하기	-10.7062
▁여주인공의	-10.7065
▁돈만	-10.7069
▁좋아했던	-10.7069
있었던	-10.707
▁말라	-10.707
큼	-10.7073
▁였다	-10.7074
싶은	-10.7075
▁잘하네요	-10.7077
원작	-10.7082
▁그시절	-10.7083
▁만든건지	-10.7084
▁개소리	-10.7084
▁베일	-10.7084
▁데뷔작	-10.7085
▁재밋네요	-10.7086
▁씁쓸	-10.7086
분들이	-10.7086
▁보는사람	-10.7087
보기엔	-10.7091
습니까	-10.7092
▁형식	-10.7093
▁궁금해	-10.7093
▁불쾌한	-10.7095
▁인생에서	-10.7095
▁공포감	-10.7098
▁있기	-10.7099
▁바뀌	-10.71
▁데려다	-10.7102
▁돈과	-10.7103
▁뻥	-10.7105
▁욕만	-10.7106
▁군인	-10.7108
▁향기	-10.711
하겠지만	-10.7112
▁기영화	-10.7114
▁멋진영화	-10.7117
▁역량	-10.7123
않음	-10.7126
▁짱나	-10.7128
▁쥐어	-10.713
▁죽는다	-10.7131
▁믿어	-10.7135
▁먹먹하	-10.7137
▁부자	-10.7141
▁했어요	-10.7141
버린다	-10.7145
▁마무리가	-10.7145
▁통쾌한	-10.7146
▁시간동안	-10.7147
▁완벽하	-10.7151
▁명작이라고	-10.7153
▁없어도	-10.7154
▁호감	-10.7162
▁깔끔	-10.7163
▁좋구	-10.7166
▁불가능	-10.7166
있다면	-10.7167
▁생생	-10.7174
▁영화같다	-10.7174
믿고	-10.7177
앞에서	-10.7178
▁이란	-10.7183
▁나올수	-10.7183
이기도	-10.719
▁않으	-10.719
▁세상의	-10.7193
▁운동	-10.7195
▁유치하기	-10.7199
▁아리	-10.7199
▁하나는	-10.7201
▁같네	-10.7202
▁안되나	-10.7203
▁노래는	-10.7203
▁흉내	-10.7205
레기	-10.7211
▁틈	-10.7212
▁던져	-10.7212
흠	-10.7216
평론가	-10.7218
갈수록	-10.7218
▁깨닫	-10.7225
▁분의	-10.7227
▁연기로	-10.7236
▁활	-10.7242
보시길	-10.7245
밍	-10.7245
렛	-10.7245
▁고맙습니다	-10.7245
▁미장센	-10.7245
▁트랜스포머	-10.7245
▁흐지부지	-10.7245
▁더더욱	-10.7245
▁박평식	-10.7245
▁성유리	-10.7245
▁솔까	-10.7245
▁다세포소녀	-10.7245
▁납치	-10.7245
▁강력추천	-10.7246
▁김구라	-10.7246
▁이어지	-10.7246
▁관람객	-10.7247
▁농담	-10.7247
▁기억을	-10.7248
▁몰락	-10.7248
▁교회	-10.7249
▁알게된	-10.7249
▁애국심	-10.7249
▁졸려	-10.725
▁허탈	-10.7251
▁태양	-10.7253
오글	-10.7255
▁뒤집	-10.7256
▁이후에	-10.7257
▁인가	-10.7258
▁볼만해요	-10.7259
▁이해되	-10.7259
▁미술	-10.726
▁연기만	-10.726
▁등장하는	-10.7262
▁별하나	-10.7265
저나	-10.7265
▁어떠한	-10.7266
▁분명히	-10.7266
▁슬프네요	-10.7267
▁한국에	-10.7267
▁새록새록	-10.7268
▁야하지도	-10.7269
▁복수극	-10.7271
▁조악	-10.7271
▁더욱더	-10.7273
▁드라마다	-10.7273
프라	-10.7273
▁신경쓰	-10.7274
좋겠다	-10.7276
이런영화	-10.7277
▁없애	-10.7278
▁아카데미	-10.7281
▁선사	-10.7282
장님	-10.7287
하기는	-10.7288
크리	-10.729
맘에	-10.7293
▁현실에서	-10.7295
▁비하	-10.7298
기억이	-10.7299
▁믿을게	-10.7299
▁어울리	-10.7303
▁듣기	-10.7306
▁크다	-10.731
다보니	-10.7316
▁편과	-10.7324
없었다	-10.7326
▁태어나	-10.7327
저리	-10.7327
▁앉	-10.7328
▁상상력이	-10.733
하는건지	-10.7332
▁생각했던	-10.7334
들한테	-10.7335
▁주먹	-10.7336
▁메리	-10.7337
여야	-10.734
▁없으니	-10.7344
떨어지는	-10.7345
되게	-10.7348
▁떨어졌	-10.7349
하시고	-10.7351
▁통해서	-10.736
을수가	-10.7365
▁끄는	-10.7367
생각을	-10.7367
▁작품중	-10.7369
시키지	-10.7369
▁복잡	-10.7371
▁어이없고	-10.7373
▁외국영화	-10.7376
▁타인	-10.738
▁못하네	-10.7382
겼다	-10.7382
▁제외	-10.7394
▁영화내내	-10.7397
▁잡는	-10.7399
▁되어야	-10.7399
▁꼭봐야	-10.74
▁끔찍	-10.74
▁끝내주	-10.7402
▁믿지	-10.7403
성우	-10.7408
이라는게	-10.7413
졌음	-10.7417
▁쓰지	-10.7419
▁보고싶네요	-10.7421
▁최하	-10.7422
하려면	-10.7423
뭐야	-10.7423
▁실사	-10.7423
명성에	-10.7425
▁지금이나	-10.7427
살았	-10.7431
▁본적이	-10.7432
사장	-10.7435
릇	-10.7438
스러울	-10.7443
▁지들	-10.7444
▁왔다	-10.7444
▁명성	-10.7448
▁님들	-10.7449
▁라스트	-10.745
뽕	-10.7451
▁만세	-10.7452
▁텐데	-10.7454
▁축	-10.7455
헌	-10.7455
범죄	-10.7458
▁다른건	-10.7458
판타지	-10.7458
▁결과는	-10.7462
▁없을까	-10.7464
▁웃겼	-10.7469
▁말은	-10.7473
▁굴	-10.7477
것도아니고	-10.7477
밋	-10.7478
▁소리만	-10.7481
▁보게되었	-10.7481
읍	-10.7482
떨어진	-10.7482
뚜	-10.7483
▁어설퍼	-10.7483
▁에드워드	-10.7483
▁찢어	-10.7483
▁첫번째	-10.7483
▁정확히	-10.7483
▁멈추	-10.7483
▁오우삼	-10.7483
▁함부로	-10.7483
▁사무라이	-10.7483
▁어지간	-10.7483
▁흑흑	-10.7483
▁스킵	-10.7483
▁증명	-10.7484
▁색다르	-10.7484
▁갖춘	-10.7484
▁깜놀	-10.7484
▁날려	-10.7484
표정	-10.7485
▁죽기전에	-10.7486
▁지브리	-10.7487
▁이민기	-10.7487
지루하다	-10.7489
▁피곤	-10.749
달아	-10.7492
▁노튼	-10.7493
▁모독	-10.7493
▁모자란	-10.7494
▁백배	-10.7495
▁유령	-10.7496
▁부각	-10.7497
▁재미나게	-10.7503
▁적당하다	-10.7504
▁웃기지	-10.7504
▁의미없는	-10.7505
▁울림	-10.7505
거같네요	-10.7506
▁슬퍼요	-10.7507
▁제왕	-10.7507
▁저리	-10.7507
▁구역	-10.7508
스케	-10.7511
▁잼없음	-10.7511
다는걸	-10.7511
▁임신	-10.7512
보러	-10.7512
▁좋겠	-10.7515
▁머리에	-10.7515
▁이따구로	-10.7516
▁자격	-10.7517
일때	-10.7518
▁조기종영	-10.752
▁시끄럽	-10.752
▁재밌기만	-10.752
주제	-10.752
▁굉장한	-10.7523
▁슬펐다	-10.7524
진행	-10.7526
▁돈으로	-10.7528
이란게	-10.7529
▁해피	-10.7529
마디	-10.7532
▁붕	-10.7533
▁많음	-10.7535
▁사라진	-10.7535
▁오글거려서	-10.7536
존나	-10.7539
▁구원	-10.7543
▁선정	-10.7543
▁그지같은	-10.7543
▁넘기	-10.7544
▁윌	-10.7545
▁재밋는데	-10.7549
보고싶은	-10.7553
▁웃음만	-10.7554
▁빠지게	-10.7558
나마	-10.7558
▁까는	-10.7558
여주	-10.7564
달리	-10.7565
▁생각나게	-10.7565
형사	-10.7567
▁퇴보	-10.7573
▁길다	-10.7574
아내	-10.7576
▁돋보이	-10.7578
거랑	-10.7579
▁영화계	-10.7584
▁지우	-10.7585
▁인디	-10.7586
▁조정	-10.7587
▁내놓	-10.7588
▁분위기를	-10.759
▁낚였네	-10.7595
▁웃긴다	-10.7597
▁하던	-10.7598
▁댄스	-10.7602
▁보지도	-10.7604
▁밑도	-10.7604
보고나서	-10.7605
▁단역	-10.7605
▁재밌게봤는데	-10.7606
▁감동이다	-10.7607
▁보신	-10.7609
▁듬	-10.7613
▁혼자서	-10.7618
▁사회의	-10.7618
▁달리는	-10.7619
▁재주	-10.762
돌이	-10.7623
잘못	-10.7623
▁결말까지	-10.7628
▁틀어주	-10.7631
▁만났	-10.7631
▁수사	-10.7636
시네요	-10.7638
쉽	-10.7641
연기를	-10.7642
▁하나가	-10.7643
▁심심하	-10.765
▁조잡하	-10.765
바로	-10.7651
▁하고싶은	-10.7652
만든다	-10.7653
▁안남	-10.7656
▁문제는	-10.7662
▁첨에	-10.7666
▁구라	-10.7667
▁이딴영화	-10.7669
▁평소	-10.7669
들이랑	-10.7673
남기	-10.7675
▁쓰레기네	-10.7676
▁남고	-10.7676
▁드라마라고	-10.7676
▁출신	-10.7684
넘게	-10.7685
나오네	-10.7689
▁만화를	-10.7695
▁가치도	-10.7696
부분도	-10.7697
아라	-10.7705
맹	-10.7707
얼마나	-10.7708
스토	-10.7709
▁공감대	-10.7709
잊	-10.7709
쥬	-10.7709
듣	-10.771
무서워	-10.771
▁재미만	-10.7713
정보	-10.7715
▁떠오르는	-10.7717
보임	-10.7719
드려요	-10.772
폭력	-10.772
▁나온거	-10.7722
뷰	-10.7724
▁남긴	-10.7725
렴	-10.7725
흉	-10.7727
퓨	-10.7727
넷	-10.7727
▁키아누	-10.7727
▁톰크루즈	-10.7727
줫	-10.7727
▁아프리카	-10.7727
▁긴박감	-10.7727
▁오인혜	-10.7727
▁강지환	-10.7727
▁니콜라스	-10.7727
▁의외의	-10.7727
▁흑역사	-10.7727
▁색깔	-10.7728
▁눈요기	-10.7728
▁혹평	-10.7729
▁성룡이	-10.7729
밖엔	-10.773
▁학살	-10.7731
▁초능력	-10.7731
했었다	-10.7732
공부	-10.7732
▁고마운	-10.7732
한국	-10.7735
▁낚여서	-10.7736
▁그럼에도	-10.7736
기술	-10.7737
▁확실	-10.7738
직원	-10.7739
▁짧아	-10.7739
▁안타깝네요	-10.774
▁아쉬웠지만	-10.7741
▁우왕	-10.7744
▁끝난다	-10.7745
▁경제	-10.7746
▁남기고	-10.7746
있을까	-10.7746
하나하나	-10.7748
▁소소하	-10.7748
▁기대했던	-10.7751
▁어케	-10.7751
되는영화	-10.7751
▁황당하	-10.7754
될듯	-10.7755
겨울	-10.7755
▁드물	-10.7755
▁것과	-10.7759
제발	-10.7759
감은	-10.7764
할수없	-10.7768
▁초등학교때	-10.7769
▁죽일	-10.777
타령	-10.7772
▁변신	-10.7775
▁베리	-10.7776
▁빌리	-10.7777
▁잼나요	-10.7777
▁할배	-10.778
▁다행이	-10.7784
인지도	-10.7788
▁답답해서	-10.7789
▁아름다웠다	-10.779
▁괜	-10.7797
시기	-10.7799
▁장난감	-10.78
▁추천한다	-10.7802
▁일본판	-10.7804
판에	-10.7804
▁쏴	-10.7806
▁별거	-10.7811
▁발연기에	-10.7817
것에	-10.782
▁명작이네요	-10.7821
▁본질	-10.7826
▁게임을	-10.7829
▁짱짱맨	-10.7831
▁하던데	-10.7839
▁도움이	-10.7841
▁보물	-10.7841
더럽고	-10.7843
▁줘도	-10.7844
▁비교하면	-10.7846
▁나오는거	-10.7849
▁실화라는	-10.7851
▁가상	-10.7859
념	-10.7864
한건지	-10.7865
▁않네	-10.7866
▁남는건	-10.7869
다큐	-10.7869
▁특이한	-10.787
▁그들을	-10.7878
▁배가	-10.7879
▁나면	-10.788
므로	-10.7883
▁보일	-10.7884
▁안타깝	-10.7884
▁만날	-10.7885
아까운	-10.7887
▁시시하	-10.789
▁안나오고	-10.7894
▁주연의	-10.7896
▁터지는	-10.7897
▁아름다웠	-10.7897
▁만화가	-10.7898
라곤	-10.79
▁분은	-10.791
▁먹어	-10.7914
▁위에	-10.7919
▁고수	-10.7921
앞	-10.7922
빼고는	-10.7925
▁또봐도	-10.7926
▁작품에	-10.7929
▁담아	-10.7931
비추	-10.7932
모르겠다	-10.7935
▁장르의	-10.7936
▁뿌리	-10.7937
▁잘보고	-10.7943
주고싶다	-10.7946
▁못해서	-10.7949
하죠	-10.7951
▁벗어나	-10.7955
▁스타일이	-10.7957
▁장면만	-10.796
땡	-10.7961
시나리오	-10.7964
칼	-10.7964
밧	-10.7968
▁강제	-10.797
▁반도	-10.7976
▁영화라는게	-10.7977
▁평점조절	-10.7977
▁매끄럽지	-10.7977
▁서프라이즈	-10.7977
▁송혜교	-10.7977
▁인상깊게	-10.7977
썬	-10.7977
▁송지효	-10.7977
▁엉터리	-10.7977
겄	-10.7977
▁조승우	-10.7977
▁다운로드	-10.7977
▁인종차별	-10.7977
▁레이첼	-10.7977
▁감수성	-10.7977
▁윌리스	-10.7977
▁일어날	-10.7978
습니당	-10.7978
▁힘내세요	-10.7978
▁사기꾼	-10.7978
▁가슴아픈	-10.7978
▁크리스찬	-10.7979
▁보여줌	-10.7979
▁경의를	-10.798
▁돈은	-10.798
▁서극	-10.7981
십니다	-10.7981
▁원작소설	-10.7981
▁죄송	-10.7982
모양	-10.7982
더스	-10.7983
▁극찬	-10.7984
▁다음에	-10.7984
▁실패작	-10.7985
▁존경합니다	-10.7986
▁멋있어	-10.7987
▁젊음	-10.7988
▁질문	-10.7989
▁드문	-10.7989
▁영광	-10.7989
▁늙었	-10.799
▁잔잔하지만	-10.7993
▁참신하	-10.7993
▁집단	-10.7994
이였음	-10.7996
▁카피	-10.7996
▁아쉬웠	-10.7997
▁지가	-10.7997
▁하지마라	-10.7998
▁건강	-10.8
▁한번씩	-10.8001
▁기록	-10.8003
▁섹	-10.8003
▁무색	-10.8004
힘든	-10.8005
▁겉멋만	-10.8007
▁남발	-10.8008
▁넓	-10.8008
지않게	-10.8009
▁다크	-10.8011
▁미국판	-10.8011
▁된다는	-10.8014
▁즉	-10.8015
▁하긴	-10.8016
돈으로	-10.8019
▁피식	-10.8024
만든영화	-10.8025
▁사라져	-10.8025
▁현실적으로	-10.8026
씩이나	-10.8026
▁별반개도	-10.8026
▁이뻐	-10.8026
▁힘들게	-10.8027
말고는	-10.8028
▁차마	-10.803
뿐인	-10.8035
▁보고싶어	-10.8038
▁글쎄요	-10.8041
▁클라스	-10.8044
할수없는	-10.8047
▁말아먹은	-10.8049
▁같지만	-10.8049
▁무서울	-10.8051
▁싶으면	-10.8051
▁쓰레기임	-10.8058
영화보다	-10.8059
▁그런영화	-10.806
선생님	-10.8063
할텐데	-10.8063
▁마르	-10.8063
▁흘러가	-10.8069
맞고	-10.8069
▁저주	-10.8072
지르는	-10.8076
▁강하게	-10.8077
볼까	-10.8081
▁얘들	-10.8083
▁훌륭하	-10.8084
▁허무함	-10.8086
▁여배우가	-10.8088
▁작품들	-10.8095
지르고	-10.8096
▁애가	-10.8097
▁새끼들	-10.8102
엿다	-10.8102
끝나고	-10.8102
맞아	-10.8102
▁편부터	-10.8103
▁너무재밌어요	-10.8103
돌려	-10.8104
▁높은지	-10.8105
▁콜	-10.8105
▁강시	-10.8107
▁예술가	-10.8118
▁캐스팅도	-10.8119
▁터지	-10.8121
▁때가	-10.8123
▁이상으로	-10.8126
▁배려	-10.8127
뒤에	-10.8127
▁잡고	-10.8128
▁조폭영화	-10.813
▁지루하기만	-10.8131
▁존스	-10.8136
탁월한	-10.8136
▁마크	-10.8138
▁어색함	-10.8142
늙	-10.8149
▁오오	-10.815
▁진정성	-10.815
▁개같은	-10.815
▁우리나라의	-10.8161
었을텐데	-10.8162
▁폰	-10.8164
달라고	-10.8167
▁행복해	-10.8168
▁효	-10.8169
▁산다	-10.817
▁오글거리	-10.818
▁마음속에	-10.8183
병맛	-10.8186
▁아니네	-10.8187
장에서	-10.8191
몰라	-10.8192
어야지	-10.8195
하는것도	-10.8196
▁으아	-10.8198
▁밀어	-10.8213
▁묵	-10.8213
위에	-10.8215
▁아쉬워	-10.8217
부끄럽	-10.8219
점에서	-10.822
▁왓	-10.8221
▁남았	-10.8223
부르	-10.8224
댓글	-10.8228
팠	-10.8233
핫	-10.8233
넬	-10.8233
▁끝판왕	-10.8233
밨	-10.8233
썻	-10.8233
앜	-10.8233
윽	-10.8233
▁어둡고	-10.8233
▁여기저기	-10.8233
▁정당화	-10.8233
▁임수정	-10.8234
▁거슬리	-10.8234
▁닥터	-10.8234
▁신민아	-10.8234
▁존재하는	-10.8234
▁찬사를	-10.8234
▁증말	-10.8234
▁뉴욕	-10.8235
▁성찰	-10.8236
▁중학생	-10.8236
▁신념	-10.8237
▁출발	-10.8239
▁장혁	-10.824
▁따뜻함	-10.8241
설명	-10.8242
▁에릭	-10.8243
▁시간아까움	-10.8244
▁총알	-10.8244
▁하는건	-10.8244
▁존잼	-10.8245
▁이따구	-10.8245
티가	-10.8245
▁불법	-10.8246
▁제정신	-10.8246
뎅	-10.8247
▁장나라	-10.8247
▁울었습니다	-10.8248
▁대표적인	-10.8249
▁몇번이나	-10.8249
▁안좋은	-10.8252
▁원표	-10.8252
▁알려준	-10.8254
▁머리를	-10.8254
▁어렸을적	-10.8254
▁스토리라인	-10.8255
인것같다	-10.8255
▁나오다니	-10.8258
▁재현	-10.8259
▁몰랐는데	-10.826
▁예산	-10.8261
넘어	-10.8263
▁남자라면	-10.8264
겨운	-10.8268
▁중반부	-10.8268
▁필요없음	-10.8268
▁비현실적이	-10.8269
▁안녕	-10.8269
▁상당한	-10.827
▁일본영화는	-10.8271
▁하니	-10.8276
▁어린이들	-10.8276
▁드러	-10.8277
▁좋아하네요	-10.8277
같은거	-10.8277
쟁	-10.8278
▁감상하	-10.8278
▁없었는데	-10.8279
▁앞서	-10.8281
작렬	-10.8282
오늘	-10.8283
▁슬프지만	-10.8286
때까지	-10.8288
건만	-10.8288
러스	-10.829
지루하고	-10.8291
▁더럽	-10.8293
▁또보고	-10.8294
▁멀리	-10.8294
▁조차	-10.8298
▁도중에	-10.8299
호러	-10.8302
▁재미있어서	-10.8303
▁먹먹하다	-10.8303
▁무한	-10.8304
▁시원한	-10.8304
돌리	-10.8305
▁찾을	-10.8306
하하하	-10.8309
상실	-10.8316
▁에러	-10.8318
▁보시	-10.8321
▁싹	-10.8323
▁아니네요	-10.8324
▁평가를	-10.8324
▁움직이	-10.8327
▁무리수	-10.8328
▁꺼내	-10.8329
▁범인이	-10.8334
▁더럽다	-10.8338
▁새롭	-10.8343
▁오로라	-10.8344
한건가	-10.8345
준거	-10.8348
▁롤	-10.8349
귀신	-10.8351
▁철학적인	-10.8351
아닌가	-10.8351
▁한번쯤은	-10.8353
년이	-10.8353
▁주원	-10.8353
▁볼만한데	-10.8356
▁만듬	-10.8359
라는데	-10.8361
▁하던가	-10.8367
▁끊기	-10.8368
럽다	-10.837
▁세트	-10.8376
종류	-10.8379
▁불쾌하	-10.838
나봐요	-10.8383
뭔가	-10.8384
발랄	-10.8385
▁모르나	-10.8389
▁졸작이다	-10.839
▁흐르	-10.8394
▁익숙	-10.8403
▁끊어	-10.8404
▁아니라서	-10.8405
줘도	-10.8408
스코	-10.8409
▁우리나라에	-10.841
▁재밌었고	-10.841
럽게	-10.8411
▁쩌네	-10.8411
▁다른거	-10.8411
▁배경과	-10.8412
겠다고	-10.8414
억울	-10.8415
볼려고	-10.8419
▁아이들은	-10.8421
▁찰	-10.8424
▁이런드라마	-10.8424
▁아담	-10.8431
특별	-10.8431
▁표현해	-10.8432
▁뽑아	-10.8432
지마세요	-10.8433
시죠	-10.8435
▁환상적이	-10.8441
보라	-10.8449
▁개나	-10.845
▁날라	-10.8452
▁돌아오	-10.8453
▁짱임	-10.8454
▁등록	-10.8456
것같습니다	-10.8457
▁못하겠	-10.8461
▁재밌게본	-10.8461
▁매력있는	-10.8463
날때	-10.8469
척하는	-10.847
빠르	-10.847
▁웃음과	-10.8471
▁설정에	-10.8477
▁극단적	-10.8477
취향	-10.8488
▁그럴싸	-10.8489
걷	-10.849
하더라도	-10.8492
싼	-10.8492
▁펼쳐	-10.8493
졌던	-10.8495
퀴	-10.8496
깡	-10.8496
빤	-10.8497
▁드림웍스	-10.8497
▁용두사미	-10.8497
▁팀버튼	-10.8497
▁환타지	-10.8497
▁주상욱	-10.8497
▁정신나간	-10.8497
▁아이러니	-10.8497
▁모성애	-10.8497
▁다니엘	-10.8497
▁끊임없	-10.8497
▁고질라	-10.8497
멀	-10.8497
▁타이틀	-10.8497
▁자본주의	-10.8498
▁창있네	-10.8498
코믹	-10.8498
마무리	-10.8499
▁짐승	-10.85
▁절제된	-10.85
▁말이필요	-10.8501
▁문득	-10.8501
▁비싼	-10.8501
▁지나친	-10.8501
▁바꾼	-10.8501
▁마틴	-10.8501
▁접근	-10.8501
▁절반	-10.8502
였으나	-10.8502
▁억지설정	-10.8503
페이스	-10.8504
▁명작이라	-10.8505
웠던	-10.8506
▁내인생최고의	-10.851
▁요약	-10.8515
▁상실	-10.8515
▁중간부터	-10.8516
▁대실망	-10.8516
국민	-10.8516
▁불행	-10.8517
▁앙	-10.8517
▁일탈	-10.8518
▁캐릭터와	-10.8519
▁좋아한다	-10.852
▁볼만했는데	-10.8527
▁떠들	-10.8527
주의자	-10.8528
재미있음	-10.8528
▁포켓몬	-10.8529
▁발레	-10.8532
만들엇	-10.8533
▁없구나	-10.8534
가아니라	-10.8534
▁재밌당	-10.8538
▁불과	-10.8543
▁알겠지만	-10.8544
활동	-10.8544
미치도록	-10.8546
▁좋아하고	-10.8549
▁소재에	-10.855
▁부럽다	-10.855
▁최고였습니다	-10.8551
▁즐거웠	-10.8554
겁니까	-10.8554
▁공포도	-10.8555
▁버릴	-10.8555
▁찍으	-10.8556
되네	-10.8557
▁오글거리고	-10.8558
▁어색하	-10.856
▁건질	-10.856
▁지배	-10.856
▁예쁘게	-10.8561
▁일생	-10.8564
▁징	-10.8566
▁처음이네요	-10.8567
기만하고	-10.8568
▁봐줄	-10.8568
▁나참	-10.857
▁스릴이	-10.8571
없는데	-10.8571
합니까	-10.8571
갔으면	-10.8574
▁있나요	-10.8578
▁유혹	-10.8584
▁저희	-10.8584
▁몰입되	-10.8584
▁진부하	-10.8586
▁하기에	-10.8586
릴때	-10.8586
해야한다	-10.8588
▁나고	-10.8592
▁명성을	-10.8592
▁선택한	-10.8593
볼수	-10.8594
▁울음	-10.8596
▁지루함이	-10.8597
▁끝은	-10.8598
▁흐름이	-10.86
▁신기한	-10.8603
▁김성	-10.8603
선수	-10.8605
▁안보는	-10.8608
▁드러나	-10.861
▁꿈꾸는	-10.8612
▁성룡영화	-10.8618
▁그런건	-10.8619
▁밝	-10.862
▁메인	-10.862
만들지	-10.862
▁이혼	-10.8624
▁되나	-10.8625
▁둔	-10.8627
▁되어서	-10.8628
▁존재감	-10.863
없을	-10.863
▁광팬	-10.8635
▁다시보고싶은	-10.8636
▁블루	-10.8637
왔던	-10.864
내용은	-10.8641
▁만들었네	-10.8641
▁뽀	-10.8641
▁저러	-10.8642
감상	-10.8645
장면에서	-10.8646
대단히	-10.865
▁제시	-10.8657
▁기독교인	-10.8659
▁이해하지	-10.8662
▁자유를	-10.8662
으세요	-10.8663
▁안좋아	-10.8663
▁아오이	-10.8665
하느라	-10.8666
▁애인	-10.8668
▁표정연기	-10.8669
유발	-10.8672
▁싶지만	-10.8679
▁대사는	-10.8679
▁아쉽고	-10.8682
쪽으로	-10.8683
님은	-10.8684
▁덤	-10.8687
본영화중에	-10.8687
▁재미있네	-10.8688
▁조조	-10.8693
미친	-10.8694
▁예고편만	-10.8695
▁결말에	-10.8698
인척	-10.8704
않았다	-10.8704
겠는가	-10.8705
▁놓은	-10.8714
▁예고편이	-10.8719
▁분위기에	-10.8723
▁별로인	-10.8723
▁욕하는	-10.8727
▁헌	-10.873
므	-10.8732
▁거다	-10.8734
였다니	-10.8737
▁남자를	-10.874
▁따라한	-10.8745
▁배꼽	-10.8745
▁칭	-10.8746
▁부담	-10.8747
처리	-10.8749
여배우	-10.875
▁예술성	-10.8751
▁편집이	-10.8752
랏	-10.8754
▁생각한	-10.876
▁오늘도	-10.8761
▁국어책	-10.8767
▁맘이	-10.8767
드래곤	-10.8767
▁똑바로	-10.8767
▁모티브	-10.8767
▁양동근	-10.8767
▁장근석	-10.8767
둬	-10.8767
룸	-10.8767
욬	-10.8767
잎	-10.8767
핏	-10.8767
▁홍금보	-10.8767
▁두려움	-10.8767
▁태어난	-10.8767
▁한쿡영화	-10.8767
▁플레이	-10.8767
▁뮤직비디오	-10.8767
▁불후의	-10.8767
▁엠마	-10.8767
▁일요일	-10.8767
▁사로잡	-10.8767
▁이범수	-10.8767
▁잃어	-10.8768
퇴	-10.8769
▁가끔씩	-10.877
▁조용히	-10.8771
▁유지태	-10.8771
뉴	-10.8771
셀	-10.8772
▁출현	-10.8773
▁구역질	-10.8774
▁담겨	-10.8774
▁빨간	-10.8774
▁가해자	-10.8775
덕분에	-10.8775
▁성숙	-10.8777
옷	-10.8777
▁환자	-10.8777
▁잊혀	-10.8777
▁별루다	-10.8778
결혼	-10.8778
아까웠	-10.8782
▁나쁘진	-10.8782
▁확실한	-10.8782
▁별다른	-10.8783
따윈	-10.8784
▁어이없어서	-10.8785
▁걸리	-10.8787
▁년동안	-10.8788
▁못생겼	-10.879
▁있겠지	-10.8791
▁잠자	-10.8792
▁이나영	-10.8793
▁하드	-10.8793
▁받아들이	-10.8797
▁돋보인다	-10.8797
▁훌륭함	-10.8797
▁않으면	-10.8798
▁애국	-10.8799
▁울었던	-10.8801
▁뽕	-10.8803
잡는	-10.8803
▁동호	-10.8803
찍는	-10.8804
▁아동용	-10.8805
▁초기	-10.8805
▁관객에게	-10.8805
▁전락	-10.8806
▁깝	-10.8808
▁후기	-10.8808
▁가자	-10.8809
▁전투씬	-10.8811
▁영상미는	-10.8811
극장에서	-10.8813
▁시나리오도	-10.8813
▁소유	-10.8813
과도한	-10.8814
뿐만	-10.8815
▁김재	-10.8816
▁잠들	-10.8816
▁똥을	-10.8817
▁감동도없고	-10.8817
▁회부터	-10.8818
스러웠다	-10.8818
▁사랑스럽	-10.8819
당하는	-10.882
▁주제도	-10.882
나무	-10.8821
▁않아도	-10.8821
역사	-10.8823
▁대사를	-10.8826
▁수준이하	-10.8828
▁한대	-10.8828
▁인간적인	-10.8829
시청	-10.8829
▁낚이	-10.8831
사극	-10.8832
▁오그라들	-10.8833
▁복잡한	-10.8834
▁주위	-10.8835
▁매력은	-10.8836
어진다	-10.8836
▁안봐	-10.8836
▁아까워요	-10.8839
▁끌려	-10.8841
내서	-10.8845
▁먹먹한	-10.8845
▁팍팍	-10.8846
▁찾아볼	-10.8848
▁기대되는	-10.8851
여자가	-10.8854
▁불편함	-10.8856
▁윤아	-10.8858
▁전편의	-10.8859
▁존재한다	-10.8859
▁물건	-10.8862
높아	-10.8864
▁아닌지	-10.8868
▁냄새	-10.8869
▁조지	-10.887
▁미이라	-10.8872
▁솔직한	-10.8872
▁안된	-10.8872
웨	-10.8872
▁노력이	-10.8874
▁그지같	-10.8877
▁잃지	-10.8877
▁엉성함	-10.8879
졌으면	-10.8879
왓	-10.888
▁있어도	-10.8881
▁미국에서	-10.8887
▁진부함	-10.889
▁끝날때	-10.8891
▁높네	-10.8897
▁매력적이다	-10.89
▁두배우	-10.8902
▁나은듯	-10.8906
꺼면	-10.8907
▁해주세요	-10.8907
▁허접하다	-10.8908
▁상상을	-10.8908
나옵니다	-10.891
끝내	-10.8911
▁짜증나네	-10.8914
따구	-10.8916
▁최대의	-10.8923
낸다	-10.8927
▁영화계의	-10.893
아이들	-10.8936
▁하는것	-10.8937
우드	-10.8938
▁모야	-10.8943
▁머가	-10.8944
▁되기	-10.8945
하시네요	-10.8945
▁이상함	-10.8948
▁어처구니없	-10.8949
▁그래픽이	-10.8951
▁개잼	-10.8951
▁재밌게봤다	-10.8952
했더니	-10.8953
▁아아	-10.8955
▁재밌는영화	-10.8957
기준	-10.8958
▁뭉	-10.896
▁첨이네	-10.8962
▁초딩이	-10.8963
▁나왔음	-10.8966
네용	-10.8968
▁작위적이	-10.8969
이아니라	-10.8976
▁이유로	-10.8979
그렇게	-10.8983
▁충실	-10.8985
▁위트	-10.8985
부디	-10.8997
때메	-10.9
볼수있	-10.9
▁반전영화	-10.9003
▁이정도로	-10.9003
▁기억될	-10.901
았습니다	-10.9011
▁점만점	-10.9011
장면도	-10.9012
기법	-10.9018
▁극한	-10.9021
▁몸이	-10.9023
모습이	-10.9024
▁오글거려	-10.9025
▁점주고	-10.9032
▁보고싶어요	-10.9034
나오면	-10.9034
▁안했는데	-10.9038
▁생각하지	-10.9038
▁지루함의	-10.904
뢰	-10.9041
▁그지없	-10.9042
▁고딩	-10.9044
뱅	-10.9044
쇄	-10.9044
팽	-10.9045
▁고스란히	-10.9045
▁서스펜스	-10.9045
▁웹툰	-10.9045
▁인터뷰	-10.9045
▁임권택	-10.9045
▁찝찝한	-10.9045
▁카메론	-10.9045
▁컨저링	-10.9045
▁파라노말	-10.9045
▁파워레인저	-10.9045
곽	-10.9045
뎁	-10.9045
쌩	-10.9045
푼	-10.9045
▁뚝뚝	-10.9045
▁뜨거운	-10.9045
▁강호동	-10.9045
▁불면증	-10.9045
▁스피드	-10.9045
떄문에	-10.9045
▁특징	-10.9045
▁비정상	-10.9045
▁록키	-10.9045
▁웅장	-10.9045
▁퍼즐	-10.9045
▁잃어버린	-10.9046
▁짧게	-10.9046
▁온몸	-10.9046
▁스텝업	-10.9046
▁개판이	-10.9046
▁비롯	-10.9048
찰	-10.9048
디스	-10.9049
▁언론	-10.9049
▁타락	-10.9052
▁역쉬	-10.9052
▁문학	-10.9053
▁잔인하기만	-10.9054
▁지들끼리	-10.9054
질때	-10.9054
일수도	-10.9054
▁머지	-10.9054
▁좋았어	-10.9055
▁무게	-10.9055
▁우익	-10.9058
묵	-10.9059
▁잘생기고	-10.906
▁마다	-10.906
애니메이션	-10.9061
▁넘어선	-10.9061
특유의	-10.9061
▁점도아깝다	-10.9062
▁해도해도	-10.9063
▁공감가는	-10.9064
▁없었으면	-10.9064
▁뻔히	-10.9065
▁이번엔	-10.9065
무서운	-10.9065
할정도	-10.9066
▁소수	-10.9066
▁풋풋	-10.9069
▁않았음	-10.9071
▁없군	-10.9075
▁터져	-10.9075
▁더빙판	-10.9077
내용을	-10.9077
▁나누	-10.9077
▁중학교때	-10.908
뭔	-10.9081
▁사실적으로	-10.9082
▁별로였음	-10.9082
▁사랑으로	-10.9083
▁진작	-10.9084
▁어린아이	-10.9085
▁존내	-10.9086
▁개독	-10.9089
▁도통	-10.9091
▁연장	-10.9093
▁부르는	-10.9094
▁어린이용	-10.9099
▁심히	-10.9099
▁엄마의	-10.9099
▁뻔해서	-10.9101
쩐다	-10.9101
▁조명	-10.9102
해야하는	-10.9103
▁되었는데	-10.9104
▁보다보다	-10.9104
것들은	-10.9106
잇고	-10.9106
▁졸음	-10.9107
러운	-10.9111
조각	-10.9112
짓거리	-10.9115
▁있으	-10.9115
▁담아내	-10.9116
하지않고	-10.9117
▁엄마랑	-10.9117
▁다시보게	-10.9119
▁선동영화	-10.9119
▁적이	-10.9122
없어요	-10.9124
▁개봉을	-10.9124
▁캐릭터의	-10.9127
▁웃기네	-10.9129
▁기차	-10.9129
던영화	-10.9133
유치하	-10.9133
같네	-10.9135
▁향해	-10.9135
하고픈	-10.9138
▁돌려줘	-10.9141
▁지루하네	-10.9141
아니면	-10.9144
▁후반에	-10.9145
▁희망이	-10.915
아니라	-10.9153
▁보셈	-10.9156
▁구멍	-10.916
▁있어보이	-10.916
봣음	-10.9163
▁아침에	-10.9163
▁이쁘게	-10.9166
라기	-10.9166
른다	-10.9168
▁몸을	-10.9169
▁새로	-10.9177
▁보고있는	-10.9177
안좋	-10.9178
▁와닿는	-10.918
사진	-10.9182
▁어설프	-10.9185
▁허무하게	-10.9186
숨	-10.9187
▁틈이	-10.9187
▁표현했다	-10.9188
▁코드가	-10.9189
달까	-10.919
것일까	-10.9191
▁외치	-10.9192
집에서	-10.9195
▁한장면	-10.9199
라기보다	-10.9202
끼고	-10.9202
▁사라졌	-10.9204
모르는	-10.9208
▁깍	-10.9209
▁졸았	-10.9211
▁저거	-10.9212
▁다큐를	-10.9212
▁했을	-10.9217
▁점주기도	-10.9221
▁죽인다	-10.9222
▁실패한	-10.9223
간지	-10.9225
▁전부다	-10.9226
구석	-10.9233
일세	-10.9239
앗다	-10.9241
▁걸어	-10.9241
▁나왔을	-10.9242
▁당하는	-10.9243
▁먹먹해	-10.9245
▁저게	-10.9246
▁많지	-10.9252
▁그들은	-10.9256
▁읽은	-10.9256
▁상관	-10.9257
▁부를	-10.9258
▁섹시한	-10.9259
▁없었고	-10.9259
▁보러가	-10.9262
▁정도다	-10.9262
▁남주가	-10.9265
뛰	-10.9267
▁다니는	-10.9274
▁노래를	-10.9275
▁시간대	-10.9277
▁이건진짜	-10.928
줬으면	-10.9284
보지말	-10.9285
▁심각한	-10.9287
▁있는듯	-10.9287
▁될것	-10.9292
▁갔는데	-10.9293
봣습니다	-10.9295
▁반개	-10.9304
일본	-10.9309
▁부럽	-10.931
▁세상은	-10.9315
는뎅	-10.9315
▁경기	-10.9317
뜬금	-10.9318
▁것들을	-10.9321
형제	-10.9321
▁고로	-10.9323
했냐	-10.9324
▁비중	-10.9325
▁차별	-10.9325
이었고	-10.9326
부턴	-10.9327
▁속은	-10.9329
컴	-10.9329
팩	-10.933
썸	-10.933
▁런닝맨	-10.933
▁식스센스	-10.933
▁안타까워	-10.933
▁클리셰	-10.933
넼	-10.933
왈	-10.933
▁별한개도	-10.933
▁엉덩이	-10.933
▁김강우	-10.933
▁어우러진	-10.933
▁박신양	-10.933
▁말았어야	-10.933
▁엉엉	-10.933
▁흥미롭고	-10.9331
▁놀래키	-10.9332
▁은퇴	-10.9332
▁증거	-10.9333
▁모르겟다	-10.9334
▁배속으로	-10.9334
▁콜린	-10.9334
▁친절	-10.9335
▁몇개	-10.9335
▁배경도	-10.9336
▁추락	-10.9337
▁자세히	-10.9337
인들의	-10.9337
▁활용	-10.9337
마인드	-10.9338
▁악플	-10.9338
▁상식	-10.9339
▁지루했어요	-10.934
▁산만한	-10.9341
웠음	-10.9341
▁어쩌라고	-10.9342
칭	-10.9342
▁여왕	-10.9344
▁전작에	-10.9346
▁유아인	-10.9346
▁전세계	-10.9346
겠냐	-10.9348
▁목숨	-10.935
▁지금껏	-10.935
꿀	-10.935
챙겨	-10.9351
왔습니다	-10.9352
▁노예	-10.9352
깍	-10.9352
▁좋아한다면	-10.9355
폴	-10.9355
▁아니냐	-10.9357
▁않았으면	-10.9357
로맨스	-10.9358
▁고마	-10.9359
▁리메이크작	-10.9359
▁때문이다	-10.936
▁실소	-10.936
왜이래	-10.9361
▁알게해준	-10.9362
바닥	-10.9367
▁마녀	-10.9368
▁허술하고	-10.9368
차별	-10.9369
마냥	-10.9369
▁헛웃음만	-10.937
▁주제에	-10.9375
소름	-10.9376
만드네	-10.9377
▁영상으로	-10.9377
▁드라마네요	-10.938
인거같다	-10.938
편집	-10.9382
▁레드	-10.9385
재밋어요	-10.9385
▁글구	-10.9386
▁뭐든	-10.939
▁센	-10.9391
▁달달하	-10.9393
▁튀어	-10.9394
▁보나	-10.9395
▁쓰레기들	-10.9403
▁전기	-10.9408
▁만들려고	-10.9409
보고있어요	-10.941
▁지적	-10.9411
▁괜찮을	-10.9415
▁씨네	-10.9416
▁모여	-10.9417
하나로	-10.9421
▁수위	-10.9421
▁비극적	-10.9425
▁빛이	-10.9426
▁후회함	-10.9426
▁중반까지	-10.9426
▁초딩들	-10.9427
▁예뻐	-10.9431
▁질질끌	-10.9432
▁무언가를	-10.9433
▁누구도	-10.9433
지경	-10.9436
▁재미있었고	-10.9438
▁무서웠다	-10.9444
▁위험한	-10.9448
▁정화	-10.9448
▁열받아	-10.9449
▁심심한	-10.945
▁쓰렉	-10.945
▁불만	-10.9451
기간	-10.9451
▁열자	-10.9451
웃긴	-10.9452
▁영화자체는	-10.9452
▁난국	-10.9455
▁의식	-10.9455
▁두분	-10.9455
▁하려는	-10.9455
▁자본	-10.9458
▁던지는	-10.946
수가없다	-10.946
▁성우들	-10.9464
▁개봉하는	-10.9467
▁빨아	-10.9468
하곤	-10.947
▁삼가	-10.9472
▁남았다	-10.9476
▁달아	-10.9476
▁만든것	-10.9478
▁자극적	-10.9479
▁밀려	-10.948
▁상영관이	-10.9487
▁안되서	-10.9488
▁예술적	-10.9488
야되는데	-10.9489
▁지지	-10.949
▁조금씩	-10.9492
▁그럴듯	-10.9493
영환줄	-10.9494
부러	-10.95
▁비슷하	-10.95
하듯	-10.9506
▁나온다는	-10.9506
▁기대했	-10.951
▁제작사	-10.9511
▁않았나	-10.9512
렸음	-10.9512
▁찾고	-10.9513
▁보이지만	-10.9515
▁정치적	-10.9518
▁주려	-10.9525
보신분	-10.9526
▁작품성이	-10.9528
▁망쳐	-10.9528
▁뭔가요	-10.9531
▁점정도가	-10.9535
해줘	-10.9536
▁보진	-10.9538
년들	-10.954
남편	-10.9542
싶을때	-10.955
질러	-10.9554
지않나	-10.9561
▁공포영화가	-10.9563
▁상업	-10.9564
▁괜찮네	-10.9566
▁눈만	-10.9567
▁대사들이	-10.9568
짱짱짱	-10.957
▁선수	-10.9573
▁구성은	-10.9573
▁죽을뻔	-10.9574
▁이러니	-10.9578
▁움직이는	-10.9579
느니	-10.958
좋아서	-10.9581
▁헛웃음	-10.9584
▁감흥이	-10.9589
▁나온다고	-10.9589
생각나	-10.9591
▁결론이	-10.9597
▁놈이	-10.9598
▁봤었다	-10.9598
▁마음속	-10.96
▁노력한	-10.9601
싶어서	-10.9604
▁스케일이	-10.9604
소년	-10.9606
▁단편영화	-10.9607
▁분위기도	-10.9615
있냐	-10.9619
▁연기까지	-10.962
▁엽기	-10.962
혐	-10.9623
퀄	-10.9624
▁펭귄	-10.9624
▁내러티브	-10.9624
▁매트릭스	-10.9624
▁묻혀	-10.9624
▁미야자키	-10.9624
▁에일리언	-10.9624
▁오리지널	-10.9624
▁웬만한	-10.9624
▁인터스텔라	-10.9624
▁크리스토퍼	-10.9624
▁혹성탈출	-10.9624
▁김하늘	-10.9624
▁베트남	-10.9624
▁양조위	-10.9624
▁오타쿠	-10.9624
▁강혜정	-10.9624
▁멘붕	-10.9624
▁탕웨이	-10.9624
▁하이킥	-10.9624
▁섭외	-10.9624
▁큐브	-10.9624
▁러셀	-10.9625
▁케이트	-10.9625
▁잠수함	-10.9625
▁이순신	-10.9625
▁흔히	-10.9625
▁어울려	-10.9625
씨리즈	-10.9625
▁잘만들어진	-10.9625
▁연상	-10.9626
▁생략	-10.9626
▁간첩	-10.9626
▁일깨워주는	-10.9626
▁고찰	-10.9626
▁경쾌	-10.9626
▁이승기	-10.9626
▁기분좋게	-10.9626
▁당최	-10.9626
감성	-10.9627
▁서정적	-10.9628
▁빡치	-10.9629
▁끼워	-10.963
▁알았더니	-10.963
▁빠져드는	-10.963
▁닮아	-10.9631
▁기대됩니다	-10.9631
▁느린	-10.9632
▁놀라울	-10.9633
▁응원합니다	-10.9633
▁복수를	-10.9634
▁작년	-10.9634
▁재료	-10.9634
▁낫지	-10.9636
▁그외	-10.9637
▁개인의	-10.9638
▁내겐	-10.9638
▁물씬	-10.9639
▁슬펐	-10.964
▁울나라	-10.964
▁인물의	-10.9641
져야	-10.9641
▁딱딱	-10.9641
▁심심해서	-10.9641
▁않았을까	-10.9641
▁무슨말이	-10.9642
▁종영	-10.9642
▁알수없는	-10.9646
렸던	-10.9646
▁예매	-10.9646
▁대상	-10.9646
하라는	-10.9647
▁깔끔하고	-10.965
거든요	-10.9651
▁말이필요없는	-10.9652
▁졸면서	-10.9652
▁웃게	-10.9652
▁내보내	-10.9653
▁엉성하다	-10.9653
재밌는	-10.9653
탐	-10.9654
▁헐크	-10.9656
▁됐는데	-10.9658
▁멋있어요	-10.966
▁말해주는	-10.966
해가는	-10.9661
▁서우	-10.9663
같았음	-10.9664
▁주목	-10.9664
▁좋아해요	-10.9664
▁드러내	-10.9665
▁소피	-10.9665
▁최고였어요	-10.9666
영웅	-10.9667
어떤	-10.9668
▁고래	-10.9671
영화였다	-10.9671
▁몽환적인	-10.9671
▁지금까지도	-10.9672
수작	-10.9672
▁생각나네요	-10.9672
▁예상치	-10.9675
나왔으면	-10.9676
▁사나이	-10.9677
▁총질	-10.9678
▁꼬맹이	-10.9678
▁망쳤다	-10.9679
▁나왔는데	-10.9679
▁사망	-10.9679
언제	-10.968
▁씁쓸한	-10.9681
▁구리다	-10.9682
▁달콤한	-10.9682
▁무서워서	-10.9682
이유가	-10.9683
마리	-10.9685
▁앞부분	-10.9688
▁이건좀	-10.9688
▁감독님의	-10.9689
▁그만좀	-10.9689
지못한	-10.969
티비	-10.9691
▁죽었다	-10.9691
▁재미있다고	-10.9694
▁안타깝고	-10.9695
전달	-10.9696
▁공식	-10.9696
하지마세요	-10.9698
올린	-10.9702
충격	-10.9702
테니	-10.9703
살인	-10.9703
보이는데	-10.9707
▁웃겼음	-10.9707
▁영화관에	-10.971
잘하고	-10.971
▁상영시간	-10.9711
▁만나는	-10.9712
▁아쉽긴	-10.9718
▁비현실적	-10.9718
▁눈과	-10.9719
▁지식	-10.9721
▁탁	-10.9721
▁시선으로	-10.9722
▁위기	-10.9722
엿음	-10.9722
재미없는	-10.9723
묘사	-10.9725
▁장미	-10.9727
▁영화평	-10.9728
▁마마	-10.9729
▁수애	-10.9731
▁남자와	-10.9732
▁스텝	-10.9737
▁그땐	-10.9737
▁재미있었던	-10.9737
▁너는	-10.9738
▁검은	-10.9738
▁화려하고	-10.974
▁구려	-10.9744
쳐먹	-10.9745
▁억지스럽다	-10.9745
▁위안	-10.975
▁가치를	-10.9752
▁것만으로도	-10.9753
▁기회가	-10.9754
▁향	-10.9756
▁먹을	-10.9759
▁넣은	-10.9761
▁옛다	-10.9761
▁거부감이	-10.9764
프리	-10.9765
▁훌륭하고	-10.9767
▁합쳐	-10.9771
▁해적	-10.9779
▁말하면	-10.9781
▁막장으로	-10.9781
노출	-10.9783
이란걸	-10.9783
누구	-10.9784
▁놀이	-10.9785
▁잼씀	-10.9789
▁원인	-10.9789
▁너무좋아	-10.9789
있을때	-10.979
▁파일	-10.9791
▁비현실적인	-10.9791
혀서	-10.9793
▁있으니	-10.9794
배우님	-10.9794
▁충격을	-10.9795
▁꿈꾸	-10.9799
▁오르	-10.9799
▁재밌지도	-10.98
한텐	-10.9805
▁짜증났	-10.9806
▁달고	-10.9807
▁동정	-10.981
▁제목부터	-10.9811
하겠지	-10.9816
▁신선하다	-10.9818
▁예수님	-10.9818
▁감동적으로	-10.9822
▁뭔데	-10.9822
▁마음의	-10.9824
▁사랑이란	-10.9825
▁방법이	-10.9828
▁장애	-10.9832
▁뻔해	-10.9835
▁어이가없	-10.9835
▁마구	-10.9836
▁왕자	-10.9839
▁실화라니	-10.9846
머릿속	-10.9857
페이지	-10.9864
겠군	-10.9868
▁소름돋는	-10.987
▁빗	-10.987
▁성우가	-10.9874
졌어요	-10.9874
▁나빠	-10.9876
빠짐	-10.9878
▁인물이	-10.988
▁부른	-10.9882
계를	-10.9884
말던가	-10.9887
▁만들어준	-10.9888
▁죽을때	-10.9889
적임	-10.989
▁겉멋	-10.9891
략	-10.9894
▁도망가	-10.9895
▁들아	-10.9895
켓	-10.9903
덧	-10.9908
▁감정이입이	-10.9911
▁않는데	-10.9918
▁아닌거	-10.9919
등등	-10.9921
▁비중이	-10.9921
께서	-10.9923
인간들	-10.9924
감명깊	-10.9925
▁아쉬울	-10.9925
핀	-10.9927
펠	-10.9927
긍	-10.9927
뺨	-10.9927
▁계획	-10.9927
▁두근두근	-10.9927
▁보냅니다	-10.9927
▁엑소시스트	-10.9927
▁역사왜곡	-10.9927
긔	-10.9927
뒀	-10.9927
췄	-10.9927
▁어울린다	-10.9927
▁홍진호	-10.9927
뱉	-10.9927
▁이동욱	-10.9927
▁관람불가	-10.9928
▁저절로	-10.9928
▁정재영	-10.9928
▁흡사	-10.9928
▁묘하게	-10.9928
▁묘미	-10.9928
▁황홀	-10.9929
▁촬영기법	-10.9929
▁스콧	-10.9929
▁재발견	-10.9929
▁그들만의	-10.993
▁닮은	-10.993
▁용가리	-10.993
▁과잉	-10.9931
▁잃고	-10.9931
▁대표작	-10.9932
▁적절히	-10.9932
▁차이가	-10.9933
▁절실	-10.9933
▁보고있어요	-10.9933
▁언급	-10.9934
▁공존	-10.9934
만들고	-10.9934
걸까요	-10.9935
▁벗어	-10.9935
평점을	-10.9935
▁미안하지만	-10.9936
▁언제쯤	-10.9936
▁남주인공	-10.9936
▁고향	-10.9936
▁정도껏	-10.9936
▁검사	-10.9937
▁동료	-10.9938
동아리	-10.9939
▁손색없	-10.9939
▁깔끔하게	-10.9939
▁무얼	-10.9939
▁울게	-10.9939
▁대비	-10.9939
▁어른들이	-10.994
▁씨발	-10.9941
▁만들어주세요	-10.9943
▁먼지	-10.9943
▁적극	-10.9946
▁창조	-10.9946
▁차원이	-10.9947
싶네요	-10.9948
▁비추천	-10.995
▁고발	-10.9951
▁모르겠는데	-10.9952
▁마초	-10.9953
▁이해하고	-10.9954
해준다	-10.9954
▁볼만했음	-10.9958
▁무어	-10.996
▁병원	-10.9961
▁현실성이	-10.9961
▁뻔하지만	-10.9962
▁보여주지	-10.9963
▁슬퍼서	-10.9963
▁민망하	-10.9964
▁나이트	-10.9965
▁새롭게	-10.9965
▁외화	-10.9966
▁쏙	-10.9966
본듯	-10.9966
▁재미없었	-10.9968
▁내스타일	-10.9968
▁장편	-10.9968
셋	-10.9969
▁오락성	-10.9969
뭘	-10.9971
아직도	-10.9972
벤	-10.9973
▁추천해	-10.9973
곳에서	-10.9974
▁찰리	-10.9974
▁필수	-10.9975
줘라	-10.9976
▁수준급	-10.9982
좋았어요	-10.9982
▁쉣	-10.9983
▁질리	-10.9983
▁홀	-10.9985
▁사회에	-10.9986
▁낚이지	-10.9986
▁볼만하네요	-10.9989
▁이념	-10.9989
천재	-10.999
▁위대함	-10.9991
▁좀비물	-10.9991
▁주체	-10.9991
▁꿈에	-10.9991
▁아쉽네	-10.9992
헌터	-10.9992
▁킬링타임으로	-10.9998
▁끓	-11
▁최저	-11.0001
▁집어	-11.0002
▁되돌아	-11.0004
공주	-11.0005
관련	-11.0006
갖	-11.0008
▁몫	-11.0009
▁스릴러를	-11.0014
폭탄	-11.0014
▁드라마보다	-11.0015
▁영화보는내내	-11.0021
▁씁쓸하	-11.0022
▁못된다	-11.0022
이었지만	-11.0024
변화	-11.0024
부모	-11.0025
▁분만	-11.0027
▁잇는	-11.0027
▁똑같다	-11.0027
▁첫장면	-11.0032
▁사이에서	-11.004
▁년후	-11.0041
▁어색하다	-11.0044
▁다른사람	-11.0046
광수	-11.0051
▁모른	-11.0053
▁난해하다	-11.0055
베리	-11.006
▁받아서	-11.0061
▁있는것	-11.0063
▁나가는	-11.0065
▁약해	-11.0078
▁티가	-11.0081
가능한	-11.0081
같으니	-11.0085
▁극장판은	-11.0086
▁출연하는	-11.0089
▁어느것	-11.009
요소를	-11.009
세대	-11.0095
이유는	-11.0096
▁덕에	-11.0098
▁인간들이	-11.0102
▁봐야겠다	-11.0103
▁지어	-11.0105
볼만	-11.0109
시켜주	-11.0111
▁허접함	-11.0113
하라고	-11.0114
부부	-11.0115
▁안되는데	-11.0115
▁너네	-11.0122
▁곱	-11.0122
▁소름돋았	-11.0129
▁최고라는	-11.0131
는것은	-11.0132
▁년간	-11.0135
직한	-11.0135
겐	-11.014
역으로	-11.014
▁밑에분	-11.0144
▁화려	-11.0146
하기까지	-11.0148
파티	-11.015
▁코믹물	-11.0152
▁보소	-11.0153
▁슬픔이	-11.0155
▁없는듯	-11.0155
▁달달한	-11.0158
▁않았고	-11.0159
▁시간때우기	-11.016
▁들어오	-11.0161
▁빈약	-11.0161
▁남긴다	-11.0161
▁기분만	-11.0164
▁능력이	-11.0171
▁한수	-11.0172
▁고르	-11.0173
▁좋아하시는	-11.0174
▁압도	-11.0177
흥미를	-11.0179
▁모냐	-11.0182
▁안에서	-11.0184
▁비교가	-11.0187
▁방황	-11.0198
엇어요	-11.0199
▁징그러	-11.0202
▁익	-11.0203
▁떨어진	-11.0203
▁것인지	-11.0206
▁웨	-11.0206
▁청춘의	-11.0207
빼	-11.0209
▁악평	-11.0211
▁모습과	-11.0215
▁그립	-11.0216
▁후한	-11.022
▁보는듯	-11.0221
▁짝이없	-11.0221
당하고	-11.0221
▁공짜	-11.0222
▁걸린	-11.0222
▁주인	-11.0223
▁배우만	-11.0226
▁이건머	-11.0227
선생	-11.0234
▁서사	-11.0234
댓	-11.0237
콤	-11.0238
쎄	-11.0239
률	-11.0239
늬	-11.0239
펴	-11.0239
앨	-11.0239
멈	-11.024
댐	-11.024
샷	-11.024
쏠	-11.024
▁리암니슨	-11.024
▁뭡니까	-11.024
▁슬래셔	-11.024
▁심사위원	-11.024
▁쌩뚱맞	-11.024
▁채플린	-11.024
▁황비홍	-11.024
▁후덜덜	-11.024
뉘	-11.024
댕	-11.024
벙	-11.024
쌈	-11.024
흙	-11.024
▁이스트우드	-11.024
▁한예슬	-11.024
▁신현준	-11.024
▁장쯔이	-11.024
▁충무로	-11.024
모습을	-11.024
▁옹박	-11.024
▁오그라든다	-11.024
▁박해일	-11.024
▁사다코	-11.024
▁침묵	-11.024
▁나타내	-11.024
▁환불	-11.024
씁니다	-11.0241
▁레이싱	-11.0241
▁아시아	-11.0241
▁패턴	-11.0242
▁이준기	-11.0242
▁주지훈	-11.0242
▁실컷	-11.0242
즐거워	-11.0243
▁재평가	-11.0243
▁묻어나는	-11.0243
▁둘째	-11.0243
▁수백	-11.0243
▁맞춘	-11.0244
▁감동적이었습니다	-11.0244
영씨	-11.0245
▁나중엔	-11.0246
▁못생긴	-11.0247
많다	-11.0247
▁아닌가요	-11.0247
▁케이지	-11.0248
▁아까웠던	-11.0249
▁올레티비	-11.025
▁줄리아	-11.025
▁속아서	-11.0252
▁별점을	-11.0252
▁신나게	-11.0252
▁아니겠지	-11.0254
▁어린애들	-11.0255
▁허술하다	-11.0255
▁만점을	-11.0256
▁느낌이랄까	-11.0256
▁점대라니	-11.0256
앞에	-11.0257
▁중요하다	-11.0258
▁알고보니	-11.0259
▁객관적으로	-11.0259
▁저기	-11.0259
▁중간중간에	-11.0259
▁흐뭇	-11.0262
▁곳에서	-11.0262
▁많았던	-11.0262
▁그러니까	-11.0263
붕괴	-11.0265
▁지존	-11.0266
▁허무하다	-11.0267
거예요	-11.0267
▁연기자들의	-11.027
▁불편하다	-11.027
▁기발하	-11.0271
▁일베	-11.0271
봤다가	-11.0273
▁작위적인	-11.0273
▁정신을	-11.0273
▁평점알바	-11.0277
▁말아라	-11.0278
▁재미없습니다	-11.0279
▁잘함	-11.028
▁공포스럽	-11.0281
나왔다	-11.0283
▁낯	-11.0283
▁안든다	-11.0283
▁꼽을	-11.0287
낭비	-11.0288
▁생각해서	-11.0288
특히	-11.0288
▁구경	-11.0288
▁재미가없다	-11.0291
깎	-11.0292
▁재미있지	-11.0293
깜	-11.0293
▁만들겠다	-11.0293
중하나	-11.0293
▁저급한	-11.0294
▁다문화	-11.0295
▁화려함	-11.0295
이쁘고	-11.0296
▁마케팅	-11.0297
이쁘다	-11.0298
▁생각하며	-11.0299
예술	-11.0299
그자체	-11.03
▁출연자	-11.03
▁낮음	-11.0302
볼때마다	-11.0302
삼류	-11.0302
▁실망스럽다	-11.0303
먼저	-11.0306
못할	-11.0309
▁믿을수	-11.0311
▁전개되는	-11.0311
안돼	-11.0312
▁모든것을	-11.0312
▁만드네요	-11.0313
알았	-11.0314
▁잃었다	-11.0314
▁저것도	-11.0316
햇던	-11.032
멋진	-11.0323
▁한때	-11.0323
▁존중	-11.0324
▁잊을수가	-11.0324
▁감당	-11.0326
▁좋아지는	-11.0326
아아아	-11.0326
▁잔혹한	-11.0328
을위해	-11.0331
▁진주	-11.0333
▁거울	-11.0335
▁진화	-11.0336
▁충실한	-11.034
▁있었다니	-11.0342
▁우리집	-11.0342
▁실망했다	-11.0343
▁끝날때까지	-11.0344
▁아니죠	-11.0344
드릴	-11.0348
▁보는줄	-11.0349
볼수있는	-11.0352
▁평소에	-11.0359
▁많네요	-11.0359
▁총을	-11.0359
▁열정이	-11.036
씨를	-11.0361
▁있겠	-11.0362
스릴	-11.0365
▁전국	-11.0368
▁시청자를	-11.0369
▁못잡	-11.037
실력	-11.0375
찍었	-11.0376
▁내용으로	-11.0376
자막	-11.0377
▁어찌나	-11.0381
릴수	-11.0385
▁나와라	-11.039
▁들여	-11.0399
▁맞지않	-11.04
▁이영화에서	-11.0403
▁썼다	-11.0403
▁개발	-11.0408
▁혀	-11.041
해주길래	-11.0413
넘치는	-11.0414
▁상황에	-11.0421
▁영화자체가	-11.0422
해놓고	-11.0424
어스	-11.0437
이었다면	-11.0443
▁안봤다	-11.0445
▁시작한	-11.0445
버렸음	-11.0446
▁있겠다	-11.0449
▁과거의	-11.0451
▁리뷰를	-11.0453
▁아이와	-11.0453
돈주고	-11.0454
복수	-11.0455
▁얘기가	-11.0455
▁만들려	-11.0456
▁쓰러	-11.0462
▁집안	-11.0464
▁작품인데	-11.0466
▁여자들의	-11.0468
▁잘하네	-11.047
▁나이에	-11.0471
시킨다	-11.0471
▁찌질한	-11.0473
▁아프고	-11.0475
하하	-11.0476
한것도	-11.0483
▁쉐	-11.0484
▁한건지	-11.0485
▁봐왔	-11.0486
▁명배우들	-11.0486
▁시나리오에	-11.0487
▁외계인이	-11.049
감독은	-11.049
자들은	-11.0492
보겠다	-11.0492
▁평론	-11.0492
▁보여주려	-11.0493
▁파격적	-11.0504
▁굉장	-11.0504
▁나오게	-11.0506
▁서기	-11.0509
▁만드나	-11.0511
▁처음임	-11.0517
▁대단해	-11.0519
▁서로를	-11.0526
▁잔잔하	-11.0527
▁적절	-11.0529
꺼다	-11.0531
좀비	-11.0534
▁뗄	-11.0535
▁자라	-11.0535
▁없다는게	-11.054
▁누님	-11.054
▁너희	-11.0545
▁읽어보	-11.0545
씨와	-11.0546
묶	-11.0552
났던	-11.0553
둑	-11.0554
찍은	-11.0556
잣	-11.0556
▁덮	-11.0559
▁지나서	-11.0561
▁제작한	-11.0562
▁빅뱅	-11.0562
썰	-11.0562
▁다세포	-11.0562
겸	-11.0562
팡	-11.0563
▁맙시다	-11.0563
▁브래드피트	-11.0563
▁쏠쏠	-11.0563
▁어설픔	-11.0563
▁왠만해선	-11.0563
▁웨슬리	-11.0563
▁콘서트	-11.0563
▁휴머니즘	-11.0563
꾹	-11.0563
댈	-11.0563
샀	-11.0563
쌀	-11.0563
엌	-11.0563
헝	-11.0563
▁클린트	-11.0563
▁어수선하	-11.0563
▁불필요한	-11.0563
▁별볼일	-11.0563
▁나발이고	-11.0563
▁샤론스톤	-11.0563
▁유오성	-11.0563
▁전문성우	-11.0563
▁이성재	-11.0563
▁슈렉	-11.0563
▁부끄러운	-11.0563
바이러스	-11.0563
▁몬스터	-11.0563
▁담아낸	-11.0564
▁와이프	-11.0564
▁서부극	-11.0564
▁에로틱	-11.0564
▁높은거	-11.0565
▁어려울	-11.0565
▁오싹	-11.0565
▁민망한	-11.0565
▁촌스러운	-11.0565
▁결합	-11.0565
▁뛰쳐	-11.0565
▁프레디	-11.0565
▁얼른	-11.0566
펙트	-11.0566
▁잭슨	-11.0566
▁하얀	-11.0567
채널에서	-11.0567
▁종합	-11.0567
▁현실이다	-11.0567
▁억지스러움	-11.0568
▁이름값	-11.0568
▁지루하지않고	-11.0569
▁현빈	-11.0569
▁질질짜	-11.057
▁집어넣	-11.057
묵직한	-11.0571
▁가치관	-11.0571
▁지겨운	-11.0571
▁서민	-11.0571
▁와이어	-11.0572
▁말할것도	-11.0572
▁따뜻하게	-11.0572
▁봤었던	-11.0573
▁스릴있고	-11.0576
▁치열	-11.0576
▁어떨까	-11.0576
▁유아용	-11.0576
▁위하여	-11.0576
▁멋있었다	-11.0576
▁성장영화	-11.0578
▁이게뭐야	-11.0578
▁암살	-11.0578
같습니다	-11.0579
▁창작	-11.0581
▁재회	-11.0581
▁매회	-11.0581
보지말고	-11.0581
▁매년	-11.0584
▁리즈	-11.0586
▁미션	-11.0586
▁고급	-11.0588
▁보석	-11.0589
▁팬이라면	-11.059
해낸	-11.0592
▁젊은이들	-11.0592
헤헤	-11.0592
▁욕나오는	-11.0593
▁졸려서	-11.0594
▁울었네요	-11.0595
▁무게감	-11.0597
정권	-11.0597
마디로	-11.0597
▁느꼈던	-11.0598
라이트	-11.06
▁제작된	-11.0601
▁김태	-11.0602
▁소문	-11.0602
▁도덕	-11.0603
▁미쳤다	-11.0606
▁시간아깝	-11.0606
▁싶은건지	-11.0606
▁조심	-11.0615
싶어	-11.0616
▁분노가	-11.0617
▁그정도	-11.0618
화면	-11.0619
▁아니었음	-11.062
▁그리운	-11.0622
제국	-11.0623
빗	-11.0624
▁당신들	-11.0624
썩	-11.0624
쫌	-11.0626
긴장감	-11.0627
▁함정	-11.0627
▁같기도	-11.0628
초딩	-11.0628
▁미리	-11.0632
슬퍼	-11.0632
더럽게	-11.0633
등록	-11.0633
없지만	-11.0633
▁선전	-11.0635
지난	-11.0635
햇지만	-11.0638
데다가	-11.0639
▁교감	-11.0641
빼면	-11.0641
▁지대로	-11.0641
▁치우	-11.0643
▁우리네	-11.0645
▁생각했다	-11.0646
저런	-11.0647
걸작	-11.0649
유머	-11.065
▁왜이런	-11.0652
▁바랬	-11.0652
죽는줄	-11.0657
▁계기가	-11.0657
▁파이팅	-11.0658
▁돋보였	-11.0661
▁서부영화	-11.0662
▁제작진들	-11.0663
▁보여줬다	-11.0665
▁집중력	-11.0668
▁느끼지	-11.0669
▁대단함	-11.0671
▁계기	-11.0673
해줬으면	-11.0675
▁만나서	-11.0677
빠르고	-11.0679
▁미군	-11.0683
▁번이나	-11.0685
▁맺	-11.0686
▁미소를	-11.0687
좋아할만한	-11.0689
보고싶어요	-11.0695
▁조용한	-11.0695
박사	-11.0698
바탕	-11.07
▁나쁜놈	-11.0701
▁장인	-11.0705
▁한계가	-11.0706
▁지내	-11.0707
씬에서	-11.0709
보셔	-11.0712
▁사형	-11.0713
▁날로	-11.0715
▁말아	-11.0716
잇다	-11.0717
코드	-11.0717
▁니들은	-11.0719
구조	-11.072
▁남편이	-11.0724
기때문에	-11.0725
▁낳은	-11.0733
▁썩은	-11.0733
▁바뀌는	-11.0733
▁죽이네	-11.0734
받는다	-11.0736
▁중세	-11.0736
▁처리	-11.0736
▁어이없네	-11.0737
▁여정	-11.0737
▁좋아하게	-11.0737
것이지	-11.074
▁평점좀	-11.074
▁남매	-11.0742
▁간직	-11.0742
시티	-11.0743
않는다	-11.0744
▁힘내	-11.0745
▁보자고	-11.0745
▁지구를	-11.0747
▁다같이	-11.0753
연기자	-11.0757
▁너무좋아요	-11.076
기대하고	-11.076
▁말할수	-11.0762
액션영화	-11.0762
마음에	-11.0764
거여	-11.0765
좋앗	-11.0765
▁본인이	-11.0766
▁음악만	-11.0767
▁분위기와	-11.0772
▁인간들은	-11.0775
되었던	-11.0776
아깝네	-11.0777
▁갈아	-11.0778
▁바라보	-11.0778
▁나에게는	-11.0787
▁식의	-11.0795
▁본성	-11.0795
해졌다	-11.0799
▁행위	-11.0801
▁태도	-11.0804
끌고	-11.081
▁없기	-11.081
▁일드	-11.0812
팬이지만	-11.0812
▁해야하나	-11.082
지루한	-11.082
▁하는건지	-11.0822
▁지성	-11.0822
▁가려	-11.0823
죽어	-11.0826
할뻔	-11.0827
▁그것은	-11.0828
▁하려고	-11.0828
들었다	-11.0829
▁지루할수	-11.0834
정돈	-11.0836
▁그분	-11.0837
▁섬세하	-11.0839
▁지리	-11.0846
조연	-11.085
▁봣다	-11.085
좋은데	-11.0851
▁광주	-11.0854
로인해	-11.0859
겠나	-11.0863
졌습니다	-11.0864
▁기어	-11.0867
▁상황에서	-11.0872
▁표현하는	-11.0873
말이필요없	-11.0874
대상	-11.0875
▁해놓고	-11.0877
있어야	-11.088
▁지루하지만	-11.0881
회사	-11.0884
▁작품성은	-11.0886
▁흠잡을	-11.0887
억	-11.089
▁음악영화	-11.0893
▁김혜	-11.0893
만족	-11.0893
뻑	-11.0894
▁차지	-11.0895
쉴	-11.0895
팍	-11.0896
훗	-11.0896
팝	-11.0896
▁로보캅	-11.0896
▁소름끼친다	-11.0896
▁최곱니다	-11.0896
냅	-11.0896
콕	-11.0896
▁문근영	-11.0896
▁에이리언	-11.0896
▁줄리엣	-11.0896
꽂	-11.0896
횽	-11.0896
▁무의미한	-11.0896
▁뭔내용인지	-11.0896
▁치밀한	-11.0896
▁흘렀	-11.0896
▁무슨내용인지	-11.0896
▁페이크다큐	-11.0896
▁콤비	-11.0896
스캔들	-11.0896
▁당할	-11.0896
▁가면갈수록	-11.0897
▁리즈시절	-11.0897
▁빵터짐	-11.0897
▁루이스	-11.0897
▁조선족	-11.0897
▁갑갑	-11.0898
▁자칫	-11.0899
▁꺼버렸다	-11.0899
▁갖추	-11.09
▁적나라하	-11.09
▁효민	-11.09
▁육체	-11.09
▁신파극	-11.0901
▁미치겠다	-11.0901
▁화가난다	-11.0901
▁리암	-11.0901
▁대략	-11.0903
▁처참	-11.0904
▁고백	-11.0904
▁할말이없다	-11.0906
▁추잡	-11.0907
▁어느새	-11.0907
▁졸업	-11.0908
▁바람피	-11.0908
▁호평	-11.0909
▁몰입하면서	-11.091
▁느꼈습니다	-11.091
▁황제	-11.091
▁거대	-11.0911
▁특히나	-11.0911
버젼	-11.0911
▁떠오르	-11.0912
▁다섯	-11.0912
▁진보	-11.0914
▁잘생긴	-11.0914
▁기대감	-11.0914
▁다를게	-11.0917
▁원빈	-11.0917
▁끝나기	-11.0917
▁아름다웠던	-11.0917
▁사랑스런	-11.0919
▁시원하게	-11.0919
▁깨알같은	-11.0919
▁잼없어	-11.0921
▁히트	-11.0922
▁제외하고	-11.0925
클럽	-11.0925
▁살기	-11.0927
▁진행이	-11.0927
▁생각나네	-11.0928
▁제법	-11.0928
▁숀	-11.0929
▁재밌게봤음	-11.0929
▁거대한	-11.0932
▁등급	-11.0933
파트	-11.0943
▁고려	-11.0945
좋아해서	-11.0947
▁유치하지만	-11.0949
▁있었나	-11.0949
▁잔인하게	-11.0951
▁공감되는	-11.0953
▁여년	-11.0953
▁풀었	-11.0953
하군요	-11.0954
▁무료로	-11.0959
▁우려	-11.0959
▁비난	-11.0961
▁무식	-11.0961
▁나았다	-11.0962
▁뭐하냐	-11.0963
키우	-11.0963
▁끝났다	-11.0964
▁힘든데	-11.0964
▁우디	-11.0965
▁어려웠	-11.0965
▁불편하고	-11.0965
▁말하지	-11.0966
▁코스프레	-11.0967
▁냉정	-11.0967
▁설레임	-11.0967
낙	-11.097
뽑	-11.097
잘봤습니다	-11.0972
▁웃겨요	-11.0972
갑자기	-11.0972
촬영	-11.0972
▁어떻게든	-11.0972
▁못보고	-11.0973
니당	-11.0973
▁에바	-11.0974
느와르	-11.0974
▁퉤	-11.0976
▁농구	-11.0977
▁지워	-11.0978
해줌	-11.0978
▁막히	-11.0979
어주는	-11.098
되길	-11.0981
▁음모	-11.0983
됐음	-11.0983
▁비유	-11.0985
▁뼈	-11.0985
되면서	-11.0988
▁미국영화	-11.0991
▁지인	-11.0991
갔는데	-11.0991
▁잼있었다	-11.0991
▁내눈	-11.0992
방법	-11.0993
몇번이고	-11.0994
▁노래만	-11.0995
영환데	-11.0995
잔아	-11.0997
▁극장서	-11.1
▁사연	-11.1001
▁지원	-11.1003
▁재미있던데	-11.1003
좋았음	-11.1004
없었지만	-11.1004
보이고	-11.1006
재미잇	-11.1009
▁부여	-11.1009
▁사실적이	-11.1009
▁자제	-11.1011
▁일본식	-11.1011
로선	-11.1014
▁칸	-11.1018
▁영구	-11.1019
동네	-11.1022
▁졸았다	-11.1023
▁아니란	-11.1026
▁심심할때	-11.1031
▁자극하는	-11.1033
▁팔아먹	-11.1034
▁넘겨	-11.1041
▁몇년이	-11.1041
▁밴드	-11.1042
하더군요	-11.1043
▁탄탄하	-11.1043
▁안본사람	-11.1044
못한다	-11.1049
밖	-11.1051
해놓은	-11.1052
▁안보이	-11.1053
▁싶네	-11.1054
▁기분좋은	-11.1056
▁남자들이	-11.1056
▁안난다	-11.1059
▁미인	-11.1072
▁나오나	-11.1074
▁공포영화를	-11.1077
포스	-11.1077
▁했어야	-11.1077
해버린	-11.1079
신듯	-11.1081
▁욕구	-11.1085
▁실망한	-11.1087
▁맛에	-11.1091
심리	-11.1092
▁이루어	-11.1094
보길	-11.1104
▁주제로	-11.1105
▁이걸보고	-11.1111
▁기억하는	-11.1111
▁사람으로	-11.1114
▁실망스럽	-11.1115
▁팔아	-11.1115
▁갱	-11.1117
▁심오	-11.1118
▁온다	-11.112
▁영혼을	-11.1127
보여주는	-11.1128
같지만	-11.1129
▁고통을	-11.1129
지루해	-11.1133
▁유쾌함	-11.1135
▁도움	-11.1135
▁안하는데	-11.1138
▁맞추기	-11.1143
▁여주인공은	-11.1143
▁길고	-11.1144
▁심어	-11.1147
쓴다	-11.115
약한	-11.1155
▁찌질이	-11.1157
▁연기파	-11.1158
버려서	-11.1162
이었어	-11.1162
▁놈들이	-11.117
▁이랬	-11.1178
▁스타일의	-11.1179
넘들	-11.1181
▁치밀하	-11.1182
게끔	-11.1188
▁맞게	-11.1192
▁좋으	-11.1194
▁기대치	-11.1197
▁내취향	-11.12
▁각본과	-11.1201
버스	-11.1204
▁볼게없	-11.1206
▁일일	-11.1208
하우스	-11.1208
▁약간은	-11.1211
▁주려고	-11.1215
겟네	-11.1216
▁보여서	-11.1219
▁마음은	-11.1222
▁말한다	-11.1225
▁해피엔딩이	-11.1226
기보단	-11.1226
▁없더라	-11.1227
걸린	-11.1234
▁이런영화에	-11.1235
▁떠난	-11.1239
살려	-11.1239
▁어쩌라는	-11.124
끗	-11.124
웟	-11.124
쯔	-11.1241
훼	-11.1241
▁까메오	-11.1241
▁멜깁슨	-11.1241
▁봤으니	-11.1241
▁스탤론	-11.1241
▁유치뽕짝	-11.1241
▁인상깊은	-11.1241
▁찝찝함	-11.1241
▁프레데터	-11.1241
▁핸드폰	-11.1241
닦	-11.1241
듀	-11.1241
웰	-11.1241
촉	-11.1241
탔	-11.1241
▁떠올리게	-11.1241
▁윤계상	-11.1241
▁덴젤	-11.1241
▁잘생김	-11.1241
▁추악한	-11.1241
▁스티브	-11.1241
▁알맹이	-11.1241
▁고현정	-11.1241
▁지진희	-11.1241
▁토마스	-11.1241
▁훈련	-11.1241
▁한정된	-11.1241
▁금요일	-11.1241
▁빨리감기	-11.1241
▁로드무비	-11.1241
▁에너지	-11.1241
▁한지민	-11.1242
▁체험	-11.1242
얘	-11.1242
▁이민정	-11.1242
▁어둠	-11.1243
▁무섭지도않고	-11.1243
▁안쓰러	-11.1243
▁쌍욕	-11.1243
▁상투적	-11.1244
▁식으로	-11.1244
▁가득찬	-11.1244
▁흥해라	-11.1245
▁악몽	-11.1245
▁고소영	-11.1245
▁습작	-11.1245
▁슬프지	-11.1245
▁끝내준다	-11.1246
▁낯선	-11.1246
▁첨본다	-11.1246
▁놓친	-11.1247
▁선율	-11.1247
써요	-11.1247
▁적응	-11.1248
▁뇌리에	-11.1248
▁출연료	-11.1248
▁타이	-11.1248
▁저평가된	-11.1249
▁발휘	-11.1249
▁나라를	-11.125
▁완소	-11.1251
▁꼭보시길	-11.1252
▁주변에	-11.1252
▁명곡	-11.1253
▁행복했습니다	-11.1254
▁생생하게	-11.1254
위에서	-11.1258
할수밖에	-11.1258
▁어깨	-11.1259
▁미칠	-11.1259
잇어요	-11.1259
▁생각해볼	-11.1259
▁회복	-11.1259
할게요	-11.1259
▁개떡	-11.126
▁예뻐요	-11.1261
▁파악	-11.1263
▁표본	-11.1264
▁내평점	-11.1267
▁초등	-11.1267
▁의미는	-11.1268
▁실망스러운	-11.1268
▁급전개	-11.1269
던데요	-11.127
▁없었습니다	-11.1271
▁암울한	-11.1272
▁신나는	-11.1275
▁인종	-11.1275
▁아휴	-11.1277
▁동급	-11.1277
너무너무	-11.1278
▁이전에	-11.1278
▁발생	-11.1278
▁울었음	-11.1279
▁잔인하	-11.1281
▁사막	-11.1281
▁흰	-11.1285
▁기준으로	-11.1291
▁결과물	-11.1293
옆에서	-11.1297
▁찾았다	-11.1297
햇음	-11.1299
▁극적인	-11.1301
▁못미치는	-11.1303
▁오류	-11.1304
▁재밌긴	-11.1307
▁한국형	-11.1308
줍니다	-11.1308
최고의영화	-11.1308
▁백미	-11.1309
▁당한	-11.1309
▁출연진들	-11.131
▁전환	-11.1313
▁아역배우	-11.1315
▁일점도	-11.1318
▁새롭고	-11.132
▁비명	-11.1322
▁저녁	-11.1323
▁도박	-11.1323
▁잠든	-11.1324
▁잊어	-11.1324
쉐	-11.1325
낳	-11.1325
삐	-11.1327
▁각인	-11.1327
고싶지	-11.1328
▁복잡하	-11.1328
아줌마	-11.1328
솔직히	-11.1329
▁적어	-11.1329
교육	-11.133
필름	-11.133
도대체	-11.1331
▁하하하하	-11.1331
▁이게왜	-11.1331
베르	-11.1331
▁허준	-11.1332
흐름	-11.1332
부분에서	-11.1333
▁교수	-11.1334
▁목숨을	-11.1339
▁넘쳐	-11.1339
존재	-11.1339
▁대형	-11.134
▁먹먹함	-11.1341
보다니	-11.1342
▁후회할	-11.1342
▁수작입니다	-11.1343
▁빠져들어	-11.1344
▁볼거리도	-11.1346
▁구하기	-11.1349
놨다	-11.1349
▁강추입니다	-11.135
▁망상	-11.135
▁죽기	-11.1351
▁끼들	-11.1351
▁좋아했	-11.1352
▁평정	-11.1353
▁안쓰는데	-11.1353
해짐	-11.1357
해지네요	-11.1357
▁참신하고	-11.1357
▁냄새가	-11.1358
▁엉망이고	-11.1358
▁드라마에요	-11.1359
▁싸이	-11.136
중독	-11.1361
없으면	-11.1363
재밋게봣	-11.1365
보는거	-11.1368
▁보고난	-11.1372
▁탁월	-11.1374
▁진구	-11.1374
▁안들어	-11.1377
▁쓰레기라고	-11.1385
의미로	-11.1386
등장	-11.1386
▁살인을	-11.1387
것같아서	-11.1393
그치만	-11.1395
때문인지	-11.1396
▁닭	-11.14
▁주연배우들	-11.14
것인지	-11.1404
▁말도안되	-11.1405
쳤던	-11.141
▁알바생	-11.1411
▁턱	-11.1412
아아아아	-11.1414
▁현장	-11.142
▁이감독	-11.1421
▁과장되	-11.1426
라는거	-11.143
▁인기가	-11.143
▁코믹한	-11.1432
▁잼있어	-11.1435
▁만들기도	-11.1437
▁알수가	-11.1438
공간	-11.1442
나봐	-11.1443
▁몰입을	-11.1445
▁화해	-11.1447
▁버스	-11.1454
학원	-11.1458
죽고	-11.1459
뭔지	-11.1459
친구들	-11.1461
▁주말에	-11.1464
아닌듯	-11.1464
▁관람가	-11.1465
못했다	-11.1466
▁난잡	-11.1467
▁외에는	-11.1473
▁만나고	-11.1476
▁일어나는	-11.1479
▁당신을	-11.1482
▁보겠	-11.1482
▁영활	-11.1486
▁마주	-11.1487
▁메세지도	-11.1487
▁이완	-11.149
▁미화하는	-11.1491
▁조직	-11.1495
▁슬프게	-11.1495
▁극과	-11.1497
▁피어	-11.1504
▁서부	-11.1504
▁아까웠	-11.1505
▁찡한	-11.1505
▁골라	-11.1506
▁고고	-11.1513
싶을정도	-11.1515
▁잘봤다	-11.1516
▁볼줄	-11.1517
▁당당	-11.1525
▁실망스러웠	-11.1525
새키	-11.1526
▁남지	-11.1526
▁무난	-11.1528
▁원작보다	-11.1528
▁티나	-11.1529
▁후회하지	-11.1531
찍고	-11.1532
▁안죽	-11.1536
▁웃기기도	-11.1539
▁걸렸	-11.1546
▁잃었	-11.1549
출신	-11.155
▁되는거	-11.1558
▁감안	-11.1559
▁아들과	-11.156
▁계시	-11.156
▁장치	-11.1568
▁가리	-11.1569
▁성공한	-11.1572
▁볼거리가	-11.1572
섯	-11.1575
▁그랬다	-11.1576
▁즐겨보	-11.1576
▁연관	-11.1581
▁격투	-11.1581
▁써야	-11.1585
▁웃어야	-11.1585
▁피터	-11.1587
▁나간	-11.1587
▁봤다니	-11.1588
륜	-11.1593
롯	-11.1593
노동자	-11.1594
뜯	-11.1595
펑	-11.1597
▁페이크	-11.1598
똘	-11.1598
욜	-11.1598
훌	-11.1598
▁니콜키드먼	-11.1598
▁듣보잡	-11.1598
▁안봤으면	-11.1598
▁안봤지만	-11.1598
▁어메이징	-11.1598
▁엑스트라	-11.1598
▁옴니버스	-11.1598
▁원맨쇼	-11.1598
▁인셉션	-11.1598
▁폴워커	-11.1598
도그렇고	-11.1598
뺀	-11.1598
솟	-11.1598
씌	-11.1598
젓	-11.1598
쫙	-11.1598
▁브래드	-11.1598
▁하루종일	-11.1598
▁후유증	-11.1598
렐	-11.1598
프로젝트	-11.1598
▁공효진	-11.1598
▁조재현	-11.1598
▁김남길	-11.1598
▁무책임	-11.1598
▁보기드문	-11.1598
▁지하철	-11.1598
▁모니터	-11.1598
▁유역비	-11.1598
▁크루즈	-11.1598
▁눈뜨고	-11.1598
▁이종석	-11.1598
▁정유미	-11.1598
▁신들린	-11.1598
봅시다	-11.1598
▁엑소	-11.1598
▁옹호	-11.1598
▁차가운	-11.1598
▁슈스케	-11.1598
▁김수로	-11.1599
▁단체로	-11.1599
▁똥폼	-11.1599
▁매튜	-11.1599
서서히	-11.1599
▁일어난	-11.1599
▁조인성	-11.1599
뿐더러	-11.1599
▁그러니	-11.16
▁유치원생	-11.16
▁푸른	-11.16
▁말도안돼	-11.16
▁시청율	-11.16
▁졸업작품	-11.16
▁꺼버림	-11.16
▁느껴짐	-11.1601
랬는데	-11.1601
▁졸립	-11.1602
▁여진구	-11.1602
▁일대기	-11.1603
▁외로운	-11.1603
▁영화관가서	-11.1603
▁가족끼리	-11.1603
▁껏다	-11.1603
▁돋보임	-11.1604
라길래	-11.1605
▁능가	-11.1606
▁엔딩곡	-11.1606
▁괴작	-11.1609
▁교차	-11.1609
▁반지의	-11.1611
▁뛰어나다	-11.1611
좋아하는데	-11.1611
▁신앙	-11.1612
▁행복해지는	-11.1613
▁능가하는	-11.1614
▁않았습니다	-11.1614
▁에혀	-11.1616
▁대단합니다	-11.1617
▁정답	-11.1617
유키	-11.1618
▁화난다	-11.1618
▁올레	-11.1619
▁알면서도	-11.1619
▁슴가	-11.1619
▁이뻐요	-11.1622
▁크고	-11.1622
▁눈물난다	-11.1624
▁이뤄	-11.1625
▁않았는데	-11.1627
▁금방	-11.1628
을위한	-11.163
▁어려워	-11.163
할때마다	-11.1631
보며	-11.1631
▁짱이에요	-11.1631
▁가는줄	-11.1633
▁대변	-11.1633
▁로그인하게	-11.1634
▁나왔습니다	-11.1637
▁구매	-11.1637
싶음	-11.1639
▁만들어졌다	-11.1639
▁훌륭했다	-11.164
시킴	-11.1641
▁전편에	-11.1641
▁연관성	-11.1642
인줄알았는데	-11.1642
▁괜찮던데	-11.1642
▁개실망	-11.1643
▁작정	-11.1643
거리고	-11.1643
▁좆	-11.1645
▁멋있음	-11.1645
▁감동적이였	-11.1646
▁끝나지	-11.1646
▁조용	-11.1648
▁분명하다	-11.1648
▁꼭봐라	-11.1653
▁편으로	-11.1653
▁꺄	-11.1653
저질	-11.1654
▁그러고	-11.1656
▁세계를	-11.1657
기라도	-11.1663
▁보스	-11.1664
▁개봉하지	-11.1664
▁보았지만	-11.1665
▁먹었	-11.1667
▁안가고	-11.1667
▁흔적이	-11.1668
지말아야	-11.1669
▁벗기	-11.1674
▁전통	-11.1675
▁얻을	-11.1675
▁짧지	-11.1677
▁따듯하	-11.1677
▁끝내주는	-11.1678
▁허무하고	-11.1678
▁확신	-11.1679
▁특별하	-11.168
▁살아있다	-11.1681
▁관점에서	-11.1681
▁베니	-11.1682
▁감동감동	-11.1683
▁한순간도	-11.1683
▁투자자	-11.1684
영환지	-11.1684
▁당하고	-11.1685
▁만들었네요	-11.1686
다녀	-11.1687
▁대가리	-11.1687
▁그러면	-11.1688
▁호러물	-11.1688
줬음	-11.1688
▁실화라고	-11.1691
▁유사	-11.1692
▁아마도	-11.1692
▁볼까	-11.1694
쌍	-11.1696
퀸	-11.1699
시청률	-11.1699
걍	-11.17
헐	-11.17
▁웃기기	-11.1701
▁통일	-11.1701
하루	-11.1702
▁귀찮	-11.1702
▁후반으로	-11.1702
▁봐야함	-11.1704
▁꼬라지	-11.1705
▁별반	-11.1708
▁아쉬웠다	-11.1709
▁한표	-11.171
▁다듬	-11.1711
▁그시대	-11.1711
▁하차	-11.1712
예능	-11.1712
▁드러난	-11.1716
프다	-11.1716
▁영상물	-11.1721
▁눈빛이	-11.1722
▁깍아	-11.1724
▁시시한	-11.1726
▁무서운거	-11.1726
생각해	-11.1728
▁생각하는데	-11.173
단체	-11.1731
겟지	-11.1732
▁다음주	-11.1734
▁브레	-11.1735
▁추천해주고	-11.1735
▁이해못하	-11.1745
▁봤을땐	-11.1748
피디	-11.175
▁이해안가	-11.175
▁난무	-11.1755
▁몇일	-11.1761
들어서	-11.1761
▁배경은	-11.1761
▁밥먹	-11.177
여운	-11.1771
▁모델	-11.1771
▁못하지만	-11.1776
▁보지않	-11.1777
▁취급	-11.1778
토리	-11.1779
▁한달	-11.1779
아니야	-11.1782
롭게	-11.1782
▁감정들	-11.1784
▁감독판	-11.1785
▁졸린	-11.1788
▁거부감	-11.1795
▁된다고	-11.1799
▁낚였	-11.1799
▁짱입니다	-11.1799
▁알앗	-11.1802
▁따라서	-11.1802
찍어	-11.1803
중국	-11.1803
▁처음입니다	-11.1804
뛰어	-11.1808
▁데드	-11.1812
▁끝나네	-11.1812
▁즐기는	-11.1812
▁빠순이들	-11.1813
▁장난해	-11.1814
갔던	-11.1817
▁망한영화	-11.1818
하는사람	-11.182
▁맞은	-11.1822
▁자신들	-11.1827
▁띠	-11.1827
▁망치는	-11.1828
▁웃어	-11.1832
시켰	-11.1834
▁모자	-11.1834
파괴	-11.1839
▁못볼	-11.1843
▁수준이다	-11.1848
▁사전	-11.1849
▁납득	-11.1853
▁짠한	-11.1855
▁보실	-11.1857
리그	-11.1866
죽겠다	-11.1866
하는건데	-11.1867
▁촌스럽지	-11.1876
▁정성	-11.188
너무좋아	-11.1883
았어	-11.1883
▁시간아까운	-11.1887
▁터졌	-11.1888
▁월드	-11.1888
들어가	-11.189
▁재치	-11.1891
▁킬링타임도	-11.1893
하든	-11.1897
▁호러영화	-11.1899
▁잡았	-11.1904
▁몽환적	-11.191
▁명작인데	-11.1911
즐겁	-11.1911
▁여자와	-11.1915
▁싸우고	-11.1915
▁킬	-11.1917
▁일이다	-11.1917
▁어정쩡	-11.1922
▁썩어	-11.1923
킴	-11.1924
▁산만하	-11.1925
▁남자들의	-11.1927
▁일깨워	-11.1931
▁보임	-11.1934
▁성우를	-11.1941
▁코믹연기	-11.1949
연애	-11.1951
▁중에서도	-11.1951
재미있는	-11.1952
▁장르에	-11.1958
돼서	-11.1961
▁본후	-11.1961
▁많았다	-11.1962
첩	-11.1966
쯧	-11.1968
밉	-11.1968
궈	-11.1968
▁거슬린다	-11.1968
▁보면볼수록	-11.1968
▁브루스윌리스	-11.1968
▁엄태웅	-11.1968
뇨	-11.1968
륭	-11.1968
욧	-11.1968
지맙시다	-11.1968
▁생뚱맞	-11.1968
▁스펙타클	-11.1968
▁어벤져스	-11.1968
▁정신건강에	-11.1968
▁쫄깃	-11.1968
괘	-11.1968
펄	-11.1968
▁노무현	-11.1968
▁서인국	-11.1968
▁스타일리쉬	-11.1968
▁로렌스	-11.1968
▁채민서	-11.1968
▁뒤통수	-11.1968
▁이선균	-11.1968
▁지상파	-11.1968
▁애절한	-11.1968
▁제레미	-11.1968
▁토이스토리	-11.1968
▁디자인	-11.1968
▁피라냐	-11.1968
▁신은경	-11.1969
▁최선을	-11.1969
▁떠오른다	-11.1969
▁믿겨지지	-11.1969
▁앉아있	-11.1969
▁싱겁	-11.1969
▁특수	-11.1969
▁김선아	-11.1969
▁거침없	-11.1969
▁나타난	-11.1969
▁즐겁다	-11.197
▁가만히	-11.197
▁나눠	-11.197
▁멋집니다	-11.197
▁몸에	-11.1971
▁자연스럽고	-11.1971
▁중딩때	-11.1973
▁측면	-11.1973
▁몇안되는	-11.1974
▁독백	-11.1974
나보네	-11.1974
▁아이리스	-11.1975
▁나쁘지않	-11.1975
▁프레	-11.1975
▁미치는	-11.1976
▁성괴	-11.1976
▁신비로	-11.1976
▁사랑스러워	-11.1978
▁타짜	-11.198
하다못해	-11.198
▁의존	-11.1982
▁승화	-11.1983
▁실종	-11.1983
▁질질끄는	-11.1983
▁키워	-11.1984
▁전형	-11.1985
▁알바들이	-11.1986
▁점드림	-11.1987
▁화끈하게	-11.1987
▁일본애니	-11.1987
▁재치있	-11.1988
▁솔직하게	-11.199
▁양산	-11.199
▁변명	-11.1992
▁넘친다	-11.1995
▁연민	-11.1995
▁아니에요	-11.1997
▁조커	-11.1999
그려	-11.2
▁완벽히	-11.2001
▁어려서	-11.2002
▁귀에	-11.2002
▁멋지네요	-11.2003
될수	-11.2008
▁야한장면	-11.2008
별점	-11.2009
▁철없는	-11.2012
▁못봐주겠다	-11.2013
흐흐	-11.2015
▁경쟁	-11.2016
▁때리고	-11.2019
▁몰라서	-11.2019
▁돌아가는	-11.202
버리네	-11.2024
▁너희들	-11.2025
▁평타	-11.203
▁드립	-11.2031
연기너무잘	-11.2034
▁자매	-11.2038
인건지	-11.2039
고싶었	-11.204
▁꽃보다	-11.2042
▁안봤는데	-11.2044
▁가졌	-11.2048
▁좋아합니다	-11.2051
▁투표	-11.2051
▁시간가는	-11.2051
▁밝은	-11.2052
▁토르	-11.2054
▁엉망인	-11.2062
▁피트	-11.2064
▁안나와서	-11.2065
▁참신함	-11.2065
처먹	-11.2066
▁공리	-11.2067
놈들아	-11.2067
▁죽어서	-11.2069
▁모두들	-11.2072
▁된장	-11.2074
그렇지	-11.2079
냄새	-11.2079
젖	-11.2079
기위한	-11.208
농	-11.2082
뭉	-11.2082
코메디	-11.2082
핵	-11.2083
▁개미	-11.2083
▁기대합니다	-11.2084
▁망함	-11.2084
곰	-11.2084
▁납득이	-11.2085
최악의영화	-11.2089
▁끔찍한	-11.2089
극장판	-11.209
포스터	-11.2092
왜이리	-11.2093
되야	-11.2095
시장	-11.2099
▁이름만	-11.2101
▁영감	-11.2102
홍보	-11.2103
▁욕하면서	-11.2105
▁강요	-11.2107
▁끼어	-11.2108
됐지만	-11.2112
▁역활	-11.2113
렸는데	-11.2114
볼만한	-11.2115
▁아역들	-11.2116
짱짱	-11.2117
▁진지함	-11.2117
▁액션씬이	-11.2117
안나온다	-11.2117
시켰다	-11.2118
▁하지말	-11.2119
무라	-11.212
▁관리	-11.2121
▁인상적이다	-11.2122
▁어쩌고	-11.2123
하지않은	-11.2125
▁알아서	-11.2125
▁안되네요	-11.2126
행동	-11.2126
▁과한	-11.2126
▁전작들	-11.2127
▁모두에게	-11.2129
수있을까	-11.2134
거라곤	-11.2135
▁내용전개가	-11.2136
▁기대안	-11.2138
▁세련되	-11.2138
▁죄를	-11.2144
▁구리	-11.2146
재밌는데	-11.2152
시리즈중	-11.2154
▁최악입니다	-11.2154
▁선생님이	-11.2157
▁보장	-11.216
후반	-11.2161
아깝지않	-11.2165
▁유우	-11.2165
▁어처구니가	-11.2167
▁한국말	-11.2169
▁기부	-11.2169
▁안티	-11.2176
▁못하게	-11.2181
기억에남	-11.2182
▁뭐죠	-11.2182
▁엄마와	-11.2186
▁피로	-11.2186
발연기	-11.219
돼지	-11.2192
알수있	-11.2195
▁앞뒤가	-11.2195
▁가르	-11.2197
▁드라마였다	-11.22
그래두	-11.22
줄알고	-11.2202
▁깨알	-11.2205
▁네이버에서	-11.2221
▁미치지	-11.2225
▁울리	-11.2225
다고해서	-11.2231
답지	-11.2232
▁두사람	-11.2232
▁쓴다	-11.2232
▁로드	-11.2235
▁어색하지	-11.2235
▁무언가가	-11.2235
요즘	-11.2237
▁거리가	-11.2238
▁있는것도	-11.2243
미소	-11.225
▁사정	-11.2252
할수록	-11.2255
▁동기	-11.2255
찾기	-11.2257
결제	-11.226
▁정서에	-11.226
밑에	-11.226
좋게	-11.2261
▁미니	-11.2262
이라곤	-11.2263
하구요	-11.2264
▁주연으로	-11.227
▁포기한	-11.2272
비슷	-11.2272
▁끝장	-11.2276
▁조성	-11.2276
▁먹칠	-11.2279
▁숨이	-11.228
보게됨	-11.228
▁얼굴만	-11.2281
▁진지하	-11.2285
▁딸리	-11.2287
음에도	-11.2287
▁저예산영화	-11.2287
▁작품이라고	-11.229
소재로	-11.2291
▁필요하	-11.2295
대결	-11.2298
▁되길	-11.2298
▁요소는	-11.2299
재미없고	-11.2302
러브	-11.2303
▁직장	-11.2305
듣는	-11.2308
▁피디	-11.2311
▁이러면	-11.2312
▁마이너스는	-11.2312
▁맞았	-11.2313
▁긴장을	-11.2313
▁안나오나	-11.2314
눈물이	-11.2315
▁울뻔	-11.2321
▁천재다	-11.2321
▁시장	-11.2321
▁안타까웠	-11.2323
▁통한	-11.2323
것같고	-11.2327
▁객관적	-11.2329
▁짙	-11.2331
이해가	-11.2332
▁추격	-11.2338
▁질투	-11.2338
셨다	-11.2338
▁고대	-11.2339
하셔서	-11.234
낮다	-11.2342
▁때우기	-11.2343
▁오래전	-11.2346
겻	-11.2347
게아니라	-11.2351
뜩	-11.2352
렘	-11.2352
뭇	-11.2352
캡	-11.2353
▁고맙다	-11.2353
▁맥라이언	-11.2353
▁수고하셨습니다	-11.2353
▁아날로그	-11.2353
▁아담샌들러	-11.2353
▁어땠을까	-11.2353
▁어중간한	-11.2353
▁오토바이	-11.2353
▁초콜릿	-11.2353
▁카타르시스	-11.2353
▁톰행크스	-11.2353
갸	-11.2353
쨩	-11.2353
쪄	-11.2353
켠	-11.2353
▁담담하게	-11.2353
▁뚜렷	-11.2353
▁서세원	-11.2353
▁윌스미스	-11.2353
▁유승준	-11.2353
▁히치콕	-11.2353
▁일으키	-11.2353
▁재해석	-11.2353
▁빡쳐서	-11.2353
▁장만옥	-11.2353
▁어리석	-11.2353
▁기괴한	-11.2353
▁다녀온	-11.2353
▁사춘기	-11.2353
▁마피아	-11.2353
▁무작정	-11.2353
▁유익한	-11.2353
▁압박	-11.2353
▁좌파	-11.2353
▁스탭	-11.2353
▁무슨생각으로	-11.2353
▁어디선가	-11.2353
▁낮춰	-11.2353
▁크리스틴	-11.2353
▁도입부	-11.2354
▁설렘	-11.2354
▁괜춘	-11.2354
▁베리굿	-11.2354
▁근육	-11.2354
▁사랑과전쟁	-11.2354
▁활약	-11.2354
▁친일파	-11.2355
▁아버지를	-11.2355
라기엔	-11.2355
▁어딜	-11.2355
▁몇년전에	-11.2355
▁빠져든다	-11.2355
으면서도	-11.2355
▁탐욕	-11.2356
▁알겠으나	-11.2356
▁볼거없	-11.2356
▁올만에	-11.2356
▁댓글알바	-11.2357
▁상쾌	-11.2357
▁의심스럽다	-11.2358
▁신뢰	-11.2358
생겻	-11.2359
▁치명적	-11.2359
▁먹먹해지는	-11.2359
▁엽기적인	-11.236
▁반성해라	-11.2361
▁보시는	-11.2361
▁따듯한	-11.2362
▁짐작	-11.2362
▁돈아까움	-11.2362
▁리플	-11.2363
▁암걸리	-11.2365
▁된거	-11.2366
키스	-11.2366
▁망했는지	-11.2366
▁연계	-11.2367
▁벌어지는	-11.2367
▁고마워요	-11.2368
▁있었을까	-11.2368
▁주옥같은	-11.2368
▁몰래	-11.2369
▁발견한	-11.2369
▁뭐하러	-11.237
▁아쉽습니다	-11.2371
▁초등학생때	-11.2371
▁따뜻하다	-11.2372
▁풀어가는	-11.2373
▁중딩	-11.2373
쩌네	-11.2373
▁깨달았다	-11.2374
▁동참	-11.2375
▁원주고	-11.2375
▁그리스	-11.2375
▁일방적	-11.2376
▁핵심	-11.2377
▁관대하다	-11.2377
▁명예	-11.2378
▁재미없었던	-11.2378
▁늘어지는	-11.2379
▁선배	-11.2379
▁여년전	-11.2379
▁더럽게없다	-11.2379
▁하필	-11.238
▁강인	-11.238
▁기술력	-11.2382
▁팬이라서	-11.2382
▁지났는데	-11.2382
▁극단적인	-11.2383
▁받지	-11.2383
▁비오는	-11.2384
만들기	-11.2385
▁자료	-11.2386
▁개봉했을때	-11.2387
▁이웃	-11.2388
거아닌가	-11.2388
▁동경	-11.239
▁물론이고	-11.239
▁유쾌하다	-11.2392
▁좋아라	-11.2393
▁이룬	-11.2394
▁조아요	-11.2394
났어요	-11.2396
▁지루합니다	-11.2396
▁평점올리	-11.2397
▁원망	-11.2398
▁어정쩡한	-11.2401
▁역겹고	-11.2401
▁재연	-11.2402
죽이기	-11.2403
▁분석	-11.2404
동물	-11.2405
▁스크린으로	-11.2408
▁근거	-11.2409
▁소리지르	-11.2412
▁걸레	-11.2413
▁따른	-11.2413
▁높냐	-11.2417
▁전형적	-11.2418
▁토끼	-11.2419
▁웃기긴	-11.2421
▁광해	-11.2424
▁최대한	-11.2425
갖고	-11.2428
▁중독성	-11.2428
주시길	-11.2432
▁내용도없고	-11.2433
써서	-11.2434
▁최고였음	-11.2434
▁암시	-11.2439
▁밝고	-11.244
▁누르	-11.2444
▁방식이	-11.2445
웃기고	-11.2447
▁시바	-11.245
▁후회안	-11.2451
▁나오니	-11.2452
▁억울하	-11.2452
▁지루하네요	-11.2452
허무	-11.2452
▁찍어라	-11.2452
었죠	-11.2453
▁빛나	-11.2454
▁조금더	-11.246
▁다가오는	-11.2461
▁안되요	-11.2464
▁생각지도	-11.2465
▁뱀	-11.2466
▁만들었던	-11.2469
히어로	-11.247
▁심했다	-11.2471
▁보호	-11.2474
잘해	-11.2474
꽝	-11.2482
매니아	-11.2482
▁아쉽게	-11.2482
쿨	-11.2482
퀄리티	-11.2484
오랜만	-11.2484
▁수호	-11.2484
▁악당이	-11.2485
▁다루는	-11.2485
영활	-11.2488
▁욕하고	-11.249
▁기대보다	-11.249
▁사랑할	-11.2491
▁보이네요	-11.2493
그럼	-11.2496
망신	-11.2496
아이돌	-11.2499
▁배운	-11.25
거같고	-11.2501
▁한편으로	-11.2501
▁이슈	-11.2506
▁한국드라마	-11.2511
▁화장	-11.2511
▁별하나도	-11.2512
여운이	-11.2514
보고있는데	-11.2514
나쁜	-11.2515
▁비비	-11.2517
▁천하	-11.2518
했기에	-11.2519
엉성	-11.2521
해야겠다	-11.2521
싸우	-11.2522
▁큰일	-11.2528
▁아버지와	-11.2528
▁볼껄	-11.2529
▁칼로	-11.2531
▁기다리고	-11.2535
▁달콤	-11.2539
▁유작	-11.2544
▁괜찮았고	-11.2546
▁만들었어	-11.2546
▁찍었다	-11.2547
▁리얼한	-11.2547
▁나온건	-11.2549
▁운명을	-11.2549
그림	-11.255
▁안맞고	-11.255
▁당황스럽	-11.2552
크로	-11.2553
▁돈아까운	-11.2554
마지막에	-11.2554
풋풋하고	-11.2554
▁잡은	-11.2556
▁대박입니다	-11.2558
보기에	-11.2559
▁못하나	-11.2565
▁미워	-11.2566
▁욕할	-11.2567
▁가위	-11.2572
▁최고작	-11.2574
▁말하기	-11.2575
누님	-11.2575
▁부실한	-11.2575
재밌네요	-11.2576
▁맞고	-11.2577
슬프다	-11.2579
작가님	-11.2579
자꾸	-11.2589
한국영화	-11.2591
끝났으면	-11.2592
▁이러지	-11.2592
▁괴수	-11.2595
▁반전까지	-11.2595
것두	-11.2601
생각해보면	-11.2602
▁기계	-11.2606
▁현실적	-11.2607
▁이름으로	-11.2609
그렇다치고	-11.2612
말곤	-11.2615
▁강남	-11.2623
괜찮은	-11.2627
▁실망감	-11.2627
▁저질영화	-11.2632
바르	-11.2634
▁실망시키지	-11.2636
▁할일	-11.264
▁퀸	-11.2641
했으니	-11.2648
▁심해	-11.2657
▁뻔함	-11.266
▁써라	-11.2668
버그	-11.267
▁한순간	-11.267
▁사랑하게	-11.2678
▁오른	-11.2683
▁계속해서	-11.2684
▁되냐	-11.2684
▁그곳	-11.269
괴물	-11.2692
▁이미지가	-11.2693
▁개념없	-11.2697
▁왜이러	-11.2703
미래	-11.2703
▁건진	-11.271
해야하나	-11.2714
▁건물	-11.2716
우니	-11.2721
지루하지않	-11.2722
▁여명	-11.2725
▁모아놓	-11.2727
으려나	-11.2731
해졌	-11.2733
▁어릴적에	-11.2733
먹으면서	-11.2736
▁끝으로	-11.2736
▁녹화	-11.2737
즌	-11.274
▁미스터	-11.2741
▁연예	-11.2741
밌	-11.2746
깁니다	-11.2751
▁비디오용	-11.2752
엣	-11.2753
▁봉태규	-11.2753
▁브라이언	-11.2753
▁빈디젤	-11.2753
▁선입견	-11.2753
▁시스템	-11.2753
▁쌍팔년도	-11.2753
▁어쨋든	-11.2753
▁엉뚱한	-11.2753
▁인피니트	-11.2753
▁재밌게봤습니다	-11.2753
▁천녀유혼	-11.2753
쌤	-11.2753
얹	-11.2753
짖	-11.2753
훅	-11.2753
밭	-11.2753
씽	-11.2753
판타스틱	-11.2753
퍽	-11.2753
▁소방관	-11.2753
▁여실히	-11.2753
▁최진실	-11.2753
▁김래원	-11.2753
▁차인표	-11.2753
▁미션임파서블	-11.2753
▁좌절	-11.2753
▁가깝다	-11.2753
▁손꼽히는	-11.2753
▁아팠다	-11.2753
▁배두나	-11.2753
▁테론	-11.2754
▁버무려	-11.2754
▁인상깊었다	-11.2754
▁잘나가다	-11.2754
▁쾌감	-11.2754
▁뒤로갈수록	-11.2754
▁충격적	-11.2754
랍시고	-11.2754
▁어려움	-11.2754
▁씹노잼	-11.2754
▁구지성	-11.2755
▁원초적	-11.2755
▁피터팬	-11.2756
과함께	-11.2756
▁절제	-11.2758
▁낫네	-11.2758
▁감동적이었어요	-11.2759
▁돋는다	-11.2759
▁다르겠지만	-11.2759
▁욕나옴	-11.2759
▁고딩때	-11.276
▁연령	-11.276
▁목표	-11.2762
▁민주주의	-11.2762
▁영화한편	-11.2763
▁린치	-11.2766
▁그후	-11.2766
▁스카이	-11.2766
▁행운	-11.2767
▁열번	-11.2767
▁명량	-11.2767
▁작업	-11.2768
▁모르겠어요	-11.2768
▁그럴듯한	-11.2771
▁인내	-11.2772
▁여자친구랑	-11.2773
자리에	-11.2773
▁전문가평점	-11.2775
▁낚임	-11.2775
▁바라며	-11.2775
▁남김	-11.2776
▁영구와	-11.2777
였는지	-11.2778
▁작작	-11.2778
▁왕따	-11.2779
▁한국식	-11.2779
▁소외	-11.278
▁대구	-11.278
▁오래남	-11.2785
▁없구만	-11.2787
▁몰랐던	-11.2788
▁있었어요	-11.2789
쩔어	-11.2789
▁밋밋하고	-11.279
▁틀림없다	-11.2792
▁오랜만이다	-11.2792
▁신기하다	-11.2792
▁싫음	-11.2795
▁책임감	-11.2797
▁고어물	-11.2799
▁노리	-11.2799
▁웃었	-11.28
▁나같은	-11.2801
▁포장한	-11.2801
▁촌스럽고	-11.2801
▁해학	-11.2804
▁공개	-11.2804
▁정글	-11.2806
▁루시	-11.2807
▁대하여	-11.2808
▁생겨	-11.2808
지마요	-11.281
운동	-11.281
▁절라	-11.2811
▁대단하네요	-11.2812
▁샹	-11.2815
▁다가온다	-11.2817
르르	-11.2818
마져	-11.2819
▁개명작	-11.2822
▁소름돋는다	-11.2823
▁재밌겠다	-11.2823
▁비슷하게	-11.2824
▁미키	-11.2824
▁섬세하고	-11.2825
단계	-11.2825
▁평점높	-11.2826
▁숨막히는	-11.2827
▁설레는	-11.2829
▁와닿는다	-11.2829
▁재미난	-11.2829
▁망쳐놨	-11.283
▁좋아했는데	-11.283
▁만들었는데	-11.2833
▁돌아온	-11.2834
▁비급	-11.2837
▁잊혀지지않는	-11.2838
▁상큼	-11.2838
약함	-11.2839
▁좋아하면	-11.2841
▁말리	-11.2844
하겠네	-11.2847
보지마삼	-11.2848
하더만	-11.2848
▁생각밖에	-11.2849
▁귀요미	-11.285
▁대작이다	-11.2855
이라는거	-11.2855
▁높네요	-11.2858
있으면서	-11.2858
▁없잖아	-11.286
▁연구	-11.2862
▁생생한	-11.2863
▁식상하고	-11.2865
▁이때까지	-11.2869
▁전반	-11.287
▁왜이럼	-11.2873
▁하나경	-11.2874
▁걸려	-11.2877
▁알수있는	-11.2877
▁황당함	-11.288
▁외롭	-11.2881
▁흥미진진하고	-11.2882
연결	-11.2883
▁쓴거	-11.2884
▁속상	-11.2889
▁싫어서	-11.2891
▁나오면서	-11.2893
▁동물들	-11.2894
갱	-11.2898
첫	-11.29
저렇게	-11.29
▁야하다	-11.2903
끊	-11.2905
▁최고의드라마	-11.2907
▁한회	-11.291
▁질주	-11.2911
실패	-11.2912
▁개망	-11.2913
▁저때	-11.2913
▁멋있게	-11.2913
▁된다면	-11.2915
되기	-11.2916
리얼하게	-11.2917
▁형성	-11.2917
당함	-11.292
▁무난한	-11.292
로봇	-11.2921
▁보는듯한	-11.2922
행위	-11.2934
▁넣었	-11.2934
▁원제	-11.2935
▁쩔었	-11.2938
안나옴	-11.294
▁형편없다	-11.294
▁동심을	-11.294
▁관객수	-11.294
애기	-11.2943
▁읽었	-11.2943
▁보여주기	-11.2944
보지마라	-11.2948
▁남음	-11.2949
테러	-11.2951
▁차원	-11.2952
▁않으면서	-11.2956
▁뭐이런	-11.2958
▁지루해요	-11.2959
▁수작임	-11.2969
▁돌리도	-11.297
마른	-11.2971
▁이런쓰레기	-11.2972
▁바보로	-11.2976
▁한국인들	-11.2982
▁구할	-11.2983
▁중요한건	-11.2984
이라는걸	-11.2985
▁저에게	-11.2985
▁넘치고	-11.2989
모드	-11.2989
▁좋아함	-11.2991
▁바보들	-11.2993
여성	-11.2996
보는것	-11.2996
번씩	-11.2996
▁예상가능	-11.2998
▁연결이	-11.2999
▁하늘을	-11.3
같았다	-11.3001
▁맞을	-11.3001
순수	-11.3004
▁에스	-11.3008
▁투자한	-11.3008
▁위로가	-11.3009
대신	-11.3012
되어야	-11.3013
지루했	-11.3013
몇번	-11.3013
▁재밌었어	-11.3014
▁빈약하	-11.3015
▁늘려	-11.3015
▁생각했	-11.3016
▁자랑스럽	-11.3017
대작	-11.302
중심	-11.3024
▁계신	-11.3024
▁근대	-11.3035
▁한국영화중	-11.304
주길	-11.3046
조금이라도	-11.3047
▁물리	-11.3051
받아야	-11.3055
▁그러지	-11.3059
먹어라	-11.3065
든데	-11.3069
보여준	-11.307
▁않았을	-11.3076
▁나왔어	-11.3077
일까요	-11.3078
어른	-11.3082
▁그러면서	-11.3082
할수있다	-11.3086
▁재밋었	-11.3093
만들면	-11.3096
보낸	-11.3098
▁애매하	-11.3099
▁영향	-11.3099
모자	-11.3102
▁한쪽	-11.3104
올림	-11.3105
곁	-11.3105
▁주는거	-11.311
▁붙여	-11.3111
보라고	-11.3112
으라고	-11.3113
했었던	-11.3116
▁생각안	-11.3118
주는것도	-11.312
▁애기들	-11.313
▁절묘	-11.3135
▁알았어	-11.3138
방송에서	-11.3147
▁글로	-11.3148
▁주관적	-11.3152
해야만	-11.3152
▁개봉작	-11.3153
▁장기	-11.3162
밴	-11.3162
또다시	-11.3163
▁과대평가	-11.3164
챙	-11.3166
엎	-11.3166
템	-11.3168
맷	-11.3168
헨	-11.3169
찜	-11.3169
▁으리으리	-11.3169
▁로멘틱	-11.3169
▁맙소사	-11.3169
▁중구난방	-11.3169
▁쿠엔틴	-11.3169
▁트와일라잇	-11.3169
댔	-11.3169
릉	-11.3169
윙	-11.3169
햐	-11.3169
▁로버츠	-11.3169
▁마동석	-11.3169
▁맥어보이	-11.3169
▁박신혜	-11.3169
엥	-11.3169
▁데미무어	-11.3169
▁뒷통수	-11.3169
▁썰렁	-11.3169
▁자존심	-11.3169
▁훼손	-11.3169
▁김승우	-11.3169
▁초호화	-11.3169
▁압축	-11.317
▁아일랜드	-11.317
▁불멸의	-11.317
▁변호사	-11.317
▁배슬기	-11.317
▁삼국지	-11.317
질않나	-11.317
▁뽀로로	-11.317
▁느꼇	-11.317
▁배드신	-11.317
▁다케시	-11.317
▁타이밍	-11.317
▁한니발	-11.317
▁하야오	-11.317
▁일관성	-11.317
▁최지우	-11.317
▁정사씬	-11.317
▁쓰나미	-11.317
▁쪽바리	-11.317
▁이수근	-11.317
▁춤추는	-11.317
▁부드럽	-11.317
▁나쁘다	-11.317
▁며칠	-11.317
▁점준거중	-11.317
▁훈남	-11.317
▁퍼펙트	-11.317
▁하루하루	-11.317
▁산만함	-11.317
▁블루레이	-11.3171
▁빠르게	-11.3171
▁통찰	-11.3171
▁잉여	-11.3171
▁아키라	-11.3171
▁스탠	-11.3171
▁감사드립니다	-11.3171
▁목사님	-11.3171
▁농락	-11.3172
▁오래오래	-11.3172
▁법칙	-11.3172
▁말이필요없음	-11.3172
읍니다	-11.3172
▁베낀	-11.3172
▁여운이남는	-11.3173
▁내생의	-11.3173
▁사소한	-11.3173
▁모르겠으나	-11.3173
▁여동생	-11.3174
▁속도감	-11.3174
▁인칭	-11.3174
▁파멸	-11.3174
▁놀라움	-11.3175
▁역부족	-11.3175
▁주제곡	-11.3175
▁발톱	-11.3175
▁우울증	-11.3176
▁무표정	-11.3176
▁점이면	-11.3176
▁담겨있는	-11.3177
▁애절하	-11.3178
버렷	-11.3178
▁왜이러냐	-11.3178
▁필요할까	-11.3179
▁돋보였던	-11.318
▁가운데	-11.318
▁궁금증	-11.318
어지네요	-11.318
▁희극	-11.3181
▁최강희	-11.3181
▁종종	-11.3181
▁위대	-11.3181
▁만들어내는	-11.3183
▁괜찮았어요	-11.3184
▁차분하	-11.3185
▁시간여행	-11.3186
▁웃기려고	-11.3186
▁재미없던데	-11.3187
▁버티	-11.3188
▁안무섭다	-11.3188
▁실체	-11.3188
▁쿠바	-11.3189
▁친구들이랑	-11.3189
▁짜내	-11.319
▁팬티	-11.3192
▁무튼	-11.3192
▁싶어지는	-11.3193
했더라면	-11.3194
▁오줌	-11.3196
▁몰려	-11.3197
▁팬이라	-11.3198
껀데	-11.3201
▁예상되는	-11.3205
▁퀴어영화	-11.3206
▁늘리	-11.3207
▁둘러	-11.3208
▁나오길	-11.3208
▁어떨지	-11.3208
▁그러다	-11.3208
▁스테	-11.3209
▁감성적인	-11.3213
▁불쌍함	-11.3215
▁사람으로서	-11.3215
▁점드립니다	-11.3216
▁취미	-11.3217
되었지만	-11.3217
▁개연성없는	-11.3218
▁이용해	-11.3221
▁누구냐	-11.3222
▁있죠	-11.3223
했을텐데	-11.3223
▁뿐이고	-11.3225
▁인공	-11.3225
엇던	-11.3226
▁이상형	-11.3228
▁돌아보	-11.3231
생명체	-11.3233
▁괜찮지만	-11.3233
▁곁에	-11.3234
▁최악이었다	-11.3236
▁볼만하던데	-11.3238
▁당대	-11.3239
시기를	-11.324
었더라면	-11.3241
▁잔인하지도	-11.3242
▁기대하면서	-11.3242
▁부재	-11.3244
영화에요	-11.3244
▁곳곳에	-11.325
재미있어	-11.3256
▁무명	-11.3258
▁자식들	-11.3258
▁없을듯	-11.3258
▁거시기	-11.3259
▁도와주	-11.3262
▁식상함	-11.3267
▁머릿속에	-11.3269
▁선교	-11.3269
▁잼있는데	-11.327
▁무서운영화	-11.327
볼수없	-11.3274
▁어렵게	-11.3275
▁좋은영화입니다	-11.3275
했는가	-11.3279
▁어이없게	-11.328
▁요즘엔	-11.3285
▁못했지만	-11.3286
▁재미업	-11.329
▁멜로물	-11.3294
보았다	-11.3296
▁지금보니	-11.3297
▁재밌게봄	-11.3298
민망	-11.3298
▁디테일한	-11.3299
지마시고	-11.3299
▁기억속에	-11.3301
▁챙겨보는	-11.3303
▁못봤다	-11.3304
▁보기전에	-11.3305
▁분들에게	-11.331
틀리	-11.3311
▁독특함	-11.3312
말대로	-11.3314
▁강하다	-11.3314
지마시길	-11.3315
▁불가능한	-11.332
▁중간까지	-11.3321
▁과제	-11.3324
주냐	-11.3324
▁남자친구	-11.3326
곱	-11.333
짤	-11.3331
띠	-11.3331
▁안나와	-11.3331
▁저예산으로	-11.3332
짠	-11.3333
왠	-11.3334
그래픽	-11.3334
펑펑	-11.3336
▁신선했다	-11.3336
옛날	-11.3336
명이서	-11.3337
▁고생한	-11.3339
▁헬기	-11.3339
▁용기를	-11.3339
▁시사회로	-11.334
▁소비	-11.3343
▁흔하	-11.3344
보세여	-11.3344
별루	-11.3353
▁결혼하고	-11.3354
▁망했다	-11.3355
▁바뀌고	-11.3356
▁이쁘네	-11.3359
▁말이죠	-11.3362
▁믿기	-11.3363
▁얻은	-11.3363
▁실화라	-11.3365
▁난생	-11.3367
▁년이나	-11.3368
▁식상하	-11.337
▁생각해요	-11.337
▁바비	-11.3374
▁신기할	-11.3376
▁일점	-11.338
일지도	-11.3383
쁘게	-11.3386
싶으면	-11.3387
▁변한	-11.3387
▁준수	-11.3388
▁찾을수	-11.3389
전문	-11.3391
▁처음보는	-11.3392
▁기원	-11.3393
▁어의없	-11.3394
싶습니다	-11.34
▁역량이	-11.3404
▁한번보고	-11.3409
▁매기	-11.3409
입장	-11.3416
▁악당들	-11.3422
▁무적	-11.3423
▁점이라니	-11.3429
▁망하는	-11.3436
생기고	-11.3437
떠나	-11.3441
▁유명배우	-11.3442
바리	-11.3442
▁못되는	-11.3444
▁어이없어	-11.3445
▁분보고	-11.3446
▁잠들었	-11.3448
▁잘만든영화	-11.3459
죽음	-11.3461
미국	-11.3463
하네여	-11.3467
▁그림자	-11.348
▁긍정적	-11.348
▁덕후	-11.3488
▁잔잔하다	-11.3488
볼꺼	-11.349
▁다가오	-11.3498
▁여자배우	-11.3509
좋겟다	-11.3511
질리지않	-11.3516
▁끝부분	-11.3517
▁그걸로	-11.3517
외에는	-11.3519
하게만드는	-11.352
▁중국인	-11.3521
▁보여줬	-11.3526
▁우롱	-11.3528
▁낚였어	-11.353
▁보기전	-11.3532
▁누워	-11.3542
잼없	-11.3542
▁귀한	-11.3549
라는건지	-11.3553
▁패기	-11.3559
▁아까운데	-11.3563
▁못봐주겠	-11.3563
▁보상	-11.3567
▁웃길	-11.3567
버렸어	-11.3569
▁이기적이	-11.3575
▁되려	-11.3576
나오는거	-11.3578
맞아서	-11.3579
▁상업적	-11.358
생긴	-11.3583
없냐	-11.3587
▁내용없는	-11.3587
재미있고	-11.3597
▁고기	-11.3599
▁노래들	-11.36
럿	-11.3602
▁불꽃	-11.3602
딕	-11.3603
퉁	-11.3604
낄	-11.3604
▁뮤직	-11.3604
▁고마워	-11.3604
톡	-11.3604
▁봤는대	-11.3604
▁샤를리즈	-11.3604
▁스칼렛	-11.3604
▁스토리텔링	-11.3604
▁신동엽	-11.3604
▁어줍잖	-11.3604
▁엠비씨	-11.3604
▁여고괴담	-11.3604
▁움직임	-11.3604
▁죄책감	-11.3604
▁콜린퍼스	-11.3604
▁타이타닉	-11.3604
▁히틀러	-11.3604
늠	-11.3604
뤘	-11.3604
붓	-11.3604
쑤	-11.3604
켈	-11.3604
▁블레이드	-11.3604
▁샤말란	-11.3604
▁쓸쓸한	-11.3604
▁징그럽	-11.3604
셰	-11.3604
쵸	-11.3604
▁손오공	-11.3604
▁어울릴	-11.3604
▁개나소나	-11.3604
▁약빨고	-11.3604
▁캐서린	-11.3604
▁좌빨	-11.3604
▁짜여진	-11.3604
▁고릴라	-11.3604
▁균형	-11.3604
▁노다메	-11.3604
▁버금가	-11.3604
▁당췌	-11.3604
▁역겨워	-11.3604
▁통틀어	-11.3605
▁기승전결	-11.3605
▁부조리	-11.3605
▁소장가치	-11.3605
▁흥미롭다	-11.3605
▁국뽕	-11.3606
▁세번째	-11.3606
▁기분나쁜	-11.3607
▁놓칠	-11.3607
▁무개념	-11.3607
▁놀람	-11.3608
▁놀랄	-11.3608
▁바꿀	-11.3608
▁헛소리	-11.3608
▁물고기	-11.3609
▁짧고	-11.3609
▁도가니	-11.3609
셨으면	-11.3609
▁순간순간	-11.3609
▁한결같	-11.361
▁감동적이예요	-11.361
▁새로울	-11.361
▁저버리지	-11.361
▁한몫	-11.361
▁나오던	-11.3611
▁위안부	-11.3612
▁화끈	-11.3612
▁걷는	-11.3614
▁건축	-11.3615
▁모든면에서	-11.3615
▁허각	-11.3618
▁백번	-11.3619
▁추격씬	-11.3619
▁잼있었음	-11.362
거리며	-11.362
▁유해진	-11.3621
▁개성있는	-11.3622
▁욕설	-11.3622
▁대학교	-11.3622
게이트	-11.3622
▁형태	-11.3623
▁아름다워	-11.3623
▁각성	-11.3625
▁작살	-11.3625
▁최종	-11.3625
▁못알아	-11.3625
▁죽여버리고	-11.3626
▁키스신	-11.3627
▁벌레	-11.3627
▁은행	-11.3627
▁살아갈	-11.3628
너무높다	-11.3629
▁안타깝지만	-11.3629
▁두가지	-11.3629
▁점줍니다	-11.3633
▁명작중의	-11.3635
▁말하려고	-11.3636
▁알았습니다	-11.3636
▁이유없이	-11.3637
▁모르면	-11.3645
앉	-11.3646
▁수십	-11.3646
▁안됩니다	-11.3647
▁유행어	-11.3648
▁당할순	-11.3649
▁지능	-11.365
▁싶었음	-11.3652
▁잼남	-11.3653
▁맛있는	-11.3656
보는내내	-11.3657
▁받으	-11.3658
▁전달하고자	-11.3659
▁돈아깝고	-11.3659
▁왜이러지	-11.3659
▁생각되	-11.366
▁확실하	-11.3663
▁떨어지지만	-11.3665
▁끝나면	-11.367
▁악인	-11.3672
▁요소들	-11.3672
▁홀로	-11.3675
▁오늘날	-11.3676
▁문제점	-11.3678
▁압권이다	-11.3679
▁맛깔나	-11.3679
▁지친	-11.3679
▁내취향은	-11.368
▁아기자기한	-11.3682
▁집중하게	-11.3682
▁배우들연기	-11.3683
▁알았지만	-11.3684
▁유치하긴	-11.3684
▁기대이상으로	-11.3684
▁라스트씬	-11.3686
▁제공	-11.3693
▁종말	-11.3693
▁해피엔딩으로	-11.3694
▁먹칠을	-11.3696
라는건	-11.3697
▁질질끌고	-11.3698
▁고쳐	-11.3701
▁애들용	-11.3701
▁구리고	-11.3702
▁무방	-11.3703
▁우수	-11.3703
안되게	-11.3703
▁영화사에	-11.3704
▁허비	-11.3705
▁느껴야	-11.3705
▁서양인	-11.3711
듯해요	-11.3713
▁제목보고	-11.3713
▁못참	-11.3715
났는데	-11.3716
▁알았네요	-11.3718
▁안듬	-11.3718
재밋엇	-11.3721
아닌가요	-11.3721
일텐데	-11.3723
▁본시리즈	-11.3724
▁지겹고	-11.3724
라기보단	-11.3726
하심	-11.3727
▁볼걸	-11.3728
▁즐거웠다	-11.373
▁만들었다면	-11.373
▁왜그러	-11.3732
▁토미	-11.3732
▁성질	-11.3734
▁모처럼	-11.3734
▁생각남	-11.3736
▁엔딩까지	-11.3739
워크	-11.3739
▁따라하기	-11.374
왔으면	-11.374
▁사라지고	-11.3746
▁잔인하다	-11.3746
▁그레이	-11.3748
▁실망입니다	-11.3752
▁이루어진	-11.3753
재미가없	-11.3755
▁현상	-11.3757
▁있기에	-11.3757
▁난무하는	-11.3758
▁멋졌다	-11.3766
▁국내에서	-11.3775
▁난잡하	-11.3776
▁무장	-11.3777
▁보냐	-11.3783
▁진하게	-11.3784
▁높여	-11.3785
녹	-11.3786
▁비트	-11.3786
질질끌	-11.3787
▁이딴영화가	-11.3787
▁근래에	-11.3788
예쁘고	-11.3789
▁지연	-11.3789
▁충격적이다	-11.3789
슬픈	-11.3794
▁타임용	-11.3795
▁좋은작품	-11.3798
▁별개	-11.3799
▁성장기	-11.3799
▁찾아볼수	-11.3799
발견	-11.3802
났네	-11.3806
▁유아	-11.3806
▁국민들	-11.3808
▁넣고	-11.381
기다리	-11.3815
환경	-11.3819
중요한	-11.3821
▁정상인	-11.3823
▁노잼이다	-11.3823
으므로	-11.3825
센스	-11.3827
▁평가할	-11.3834
본건데	-11.3836
▁강조	-11.3836
▁묘사한	-11.3837
하시는분들	-11.3844
잘해요	-11.3845
▁안보는데	-11.3849
▁강렬하	-11.3849
줄께	-11.3851
▁살릴	-11.3855
▁음악까지	-11.3858
감동적인	-11.3864
▁수학	-11.3868
▁자질	-11.3871
▁있어야지	-11.3872
개판	-11.3876
▁추천함	-11.3877
▁전하고자	-11.3883
▁딴짓	-11.3884
▁유치하지	-11.3885
▁만들지마	-11.3887
▁나왔다는	-11.3888
▁내공	-11.3888
▁시사	-11.3895
풀리	-11.3898
회장	-11.3899
▁면도	-11.3905
▁지루하진	-11.3906
▁돌렸	-11.3908
아침	-11.3909
▁있었지	-11.3912
브리	-11.3915
▁비평	-11.3917
울때	-11.393
▁인간미	-11.3931
▁잼난	-11.3934
▁벗어나지	-11.3941
▁원스	-11.3943
▁추적	-11.3944
▁떨어	-11.3949
셨어요	-11.3951
들었는데	-11.3951
본사람들은	-11.3953
였군	-11.3956
잤다	-11.3959
▁의아	-11.3962
▁궁금하지	-11.3968
▁만족스럽	-11.3974
무섭다	-11.3977
많지만	-11.3978
▁나오지만	-11.3979
▁출연자들	-11.3981
▁데뷔	-11.3984
▁맥주	-11.3987
하는짓이	-11.3988
▁평범하지	-11.3991
▁청춘들	-11.4007
당신	-11.4008
볼시간에	-11.4012
아쉽다	-11.4015
재미없네	-11.4017
▁징징	-11.4028
캠	-11.4031
젼	-11.4037
▁애매	-11.4048
운데	-11.4048
▁가르쳐	-11.405
났습니다	-11.4054
딜	-11.4055
▁보수	-11.4055
옵	-11.4057
뎌	-11.4059
삽	-11.4059
갠	-11.4059
▁아메리칸	-11.4059
▁반지의제왕	-11.4059
▁이스라엘	-11.4059
껍	-11.4059
뜰	-11.4059
륵	-11.4059
짬	-11.4059
▁그로테스크	-11.4059
▁드릅게	-11.4059
▁떠올랐	-11.4059
▁몸부림	-11.4059
▁봤으나	-11.4059
▁불러일으키	-11.4059
▁사이코패스	-11.4059
▁애틋한	-11.4059
▁인상깊다	-11.4059
▁쥬라기공원	-11.4059
▁터무니없	-11.4059
깽	-11.4059
낰	-11.4059
뎈	-11.4059
박스오피스	-11.4059
붐	-11.4059
쉰	-11.4059
썅	-11.4059
얌	-11.4059
힝	-11.4059
▁강예원	-11.4059
▁박유천	-11.4059
▁어쩐지	-11.4059
▁윤시윤	-11.4059
윗	-11.4059
▁유승호	-11.4059
▁의학드라마	-11.4059
▁허니잼	-11.4059
▁로멘스	-11.4059
▁이슬람	-11.4059
▁박정희	-11.4059
▁미묘한	-11.4059
▁스무살	-11.4059
▁유준상	-11.4059
▁단막극	-11.4059
▁케이온	-11.4059
▁김규리	-11.4059
▁민간인	-11.4059
▁별론데	-11.4059
▁서태지	-11.4059
▁멸망	-11.4059
▁정확한	-11.4059
▁그이하도	-11.4059
▁대기업	-11.4059
▁애잔한	-11.4059
▁롯데	-11.4059
▁여고생	-11.4059
▁안무섭고	-11.4059
▁두려워	-11.4059
▁깨끗하	-11.4059
패밀리	-11.4059
▁미개한	-11.4059
▁조여정	-11.4059
▁테스트	-11.4059
▁이정현	-11.406
▁모든것	-11.406
▁하여간	-11.406
▁어이상실	-11.406
▁테러리스트	-11.406
▁왔다갔다	-11.406
▁누굴	-11.406
▁낯설	-11.406
▁대책없	-11.4061
웅얼	-11.4061
▁이리저리	-11.4061
▁음모론	-11.4061
▁자전거	-11.4061
▁솔로	-11.4062
▁극장개봉	-11.4062
▁이럴수가	-11.4062
▁무뇌	-11.4062
▁종북	-11.4062
▁상당	-11.4063
▁두뇌	-11.4063
▁이겨내	-11.4064
▁맘에든다	-11.4064
▁초한지	-11.4064
▁볼까말까	-11.4064
▁동화책	-11.4065
▁일일드라마	-11.4065
▁호텔	-11.4065
▁버튼	-11.4065
▁종결	-11.4066
▁브금	-11.4066
▁청순	-11.4066
▁세월호	-11.4067
▁할말없다	-11.4067
▁그룹	-11.4067
▁일어났	-11.4067
▁있었을텐데	-11.4067
▁감싸	-11.4067
▁힘듬	-11.4067
▁있었으나	-11.4068
▁보여줬는데	-11.4068
나왓으면	-11.4068
▁나았을	-11.4069
▁개드림	-11.407
▁이제그만	-11.407
▁발암	-11.4071
▁주셔서	-11.4071
▁원작만화	-11.4072
▁연락	-11.4072
▁간절	-11.4072
▁반항	-11.4073
▁추석	-11.4073
또보고싶	-11.4073
▁끔찍하다	-11.4074
▁창문	-11.4074
▁생생하다	-11.4074
▁끌리는	-11.4075
▁반복되는	-11.4076
▁평점테러	-11.4076
▁사랑스러움	-11.4076
▁오유에서	-11.4076
▁이제껏	-11.4077
▁않았어요	-11.4077
▁타입	-11.4078
▁앞서간	-11.4078
보셨	-11.4078
▁어필	-11.4079
▁궁금하네요	-11.408
▁근본	-11.4081
▁모르겠습니다	-11.4081
▁계단	-11.4082
▁보석같은	-11.4082
▁공격	-11.4082
▁호강	-11.4083
▁또보고싶다	-11.4083
▁독재	-11.4083
▁심은하	-11.4083
▁양키	-11.4083
▁고집	-11.4084
▁편안하게	-11.4084
▁문명	-11.4086
▁홍보영화	-11.4087
▁조쉬	-11.409
▁알려지지	-11.4091
▁입체	-11.4091
▁어지러	-11.4092
▁잠재	-11.4093
생기	-11.4094
▁고루	-11.4095
▁잼따	-11.4098
▁관대	-11.4101
▁의미하는	-11.4103
▁평작	-11.4103
▁머피	-11.4103
꺼임	-11.4108
▁이건아니다	-11.4108
▁지루했던	-11.4113
▁건담	-11.4113
▁이러냐	-11.4114
▁딱봐도	-11.4115
느님	-11.4115
▁심하네	-11.4116
▁과하게	-11.4118
▁여전사	-11.4118
▁김정은	-11.4119
▁초점을	-11.412
지않음	-11.4125
▁갑이다	-11.4125
▁높음	-11.4125
▁무식한	-11.4128
▁들었음	-11.4128
▁생각된다	-11.4129
▁니미	-11.4129
▁촌스럽다	-11.413
▁개봉관	-11.4131
▁어색해서	-11.4131
▁귀엽네요	-11.4134
▁작위적	-11.4135
▁루즈하	-11.4137
▁눈감	-11.4139
▁출연했	-11.4139
▁되겠다	-11.4139
▁치밀하고	-11.4139
▁변하는	-11.4139
▁저격	-11.4139
▁다른분들	-11.4142
▁이쁘네요	-11.4142
▁배제	-11.4142
만든거	-11.4147
▁처음봄	-11.4148
교사	-11.415
▁쫓아	-11.4151
▁씁쓸하다	-11.4152
▁안나오네	-11.4153
▁불쾌함	-11.4153
▁홍수	-11.4155
센트	-11.4156
▁심오하	-11.4158
▁써먹	-11.4159
했어야	-11.4165
▁무모	-11.4168
▁무시하고	-11.4169
▁표현된	-11.417
▁남습니다	-11.4171
잘생겼다	-11.4171
▁김정	-11.4172
▁새롭다	-11.4173
▁신부	-11.4174
▁년생	-11.4178
▁허술함	-11.418
느껴져서	-11.4183
▁짱인듯	-11.4188
▁자다가	-11.4188
▁볼수있다	-11.4191
성공	-11.4198
▁순정	-11.42
▁말까	-11.4203
▁늘어놓	-11.4207
▁않겠다	-11.4208
필드	-11.4213
▁한방에	-11.4213
▁아픔과	-11.4214
▁지켜보	-11.422
나오더라	-11.4221
▁오유	-11.4223
▁라스	-11.4225
소장	-11.4228
▁일제	-11.4228
▁느려	-11.4233
▁차리	-11.4236
▁뒷부분	-11.4236
▁지날	-11.4241
▁쩔고	-11.4243
▁시리즈물	-11.4249
▁해보고	-11.4251
▁자신감	-11.4251
뇌	-11.4251
폼	-11.4254
▁미친놈	-11.4256
완벽	-11.426
▁애쓴	-11.426
▁숨어있는	-11.4261
슬픔	-11.4264
쭉	-11.4264
개연성	-11.4264
터지는	-11.4266
잭	-11.4266
차라리	-11.4267
안됐	-11.427
▁좋으면	-11.427
검색	-11.427
▁바뀌었	-11.4272
유쾌	-11.4273
철학	-11.4277
또봐도	-11.4278
다시봐도	-11.4278
엉망	-11.4281
재밌었는데	-11.4281
▁놓치지	-11.4281
마루	-11.4284
▁그것뿐	-11.4288
▁해리	-11.4288
▁갈릴	-11.4291
재밌었다	-11.4291
▁위트있	-11.4292
월드	-11.4293
▁유치할	-11.4299
▁재미없는데	-11.4304
검사	-11.4305
좋았는데	-11.4305
넣어	-11.4307
잔인하	-11.4308
티비로	-11.4311
했구나	-11.4324
익숙한	-11.4324
▁터질	-11.4325
어야할	-11.4329
바보	-11.4329
사실적인	-11.4329
스틱	-11.4331
죽이는	-11.4335
보여서	-11.4342
▁생각하니	-11.4353
께요	-11.4356
▁만났다	-11.4362
봐야할	-11.4368
짜증난다	-11.437
▁장사	-11.4374
끌어가는	-11.4375
▁오빠들	-11.4383
드림	-11.4388
미녀	-11.4388
▁시망	-11.4394
먹기	-11.4399
▁귀찮아	-11.4399
겠습니까	-11.4401
▁다가왔	-11.4402
였던거	-11.4404
전혀	-11.4405
▁역겹	-11.4416
듯한데	-11.4433
▁전혀없는	-11.4434
나오는데	-11.4435
뻔함	-11.4441
막장드라마	-11.4443
망작	-11.4445
▁별반개	-11.4446
막혀	-11.4449
준비	-11.445
원래	-11.4451
▁재밋네	-11.4453
▁조용하	-11.4454
▁망쳤	-11.446
착한	-11.446
같으면	-11.4461
룬	-11.4462
먹었다	-11.4474
▁그것만	-11.4475
▁오점	-11.4477
줄거리	-11.4479
편보단	-11.4482
▁시간때우기용	-11.4489
비슷한	-11.4491
보는줄	-11.4491
▁충실하	-11.4493
▁생각날	-11.4496
▁돋보인	-11.4499
▁눈물나게	-11.45
▁설치	-11.4502
▁노골적	-11.4514
▁기념	-11.4518
펀	-11.4519
▁전체적	-11.4521
▁나왔었	-11.4524
않은데	-11.4525
븐	-11.4531
▁오그라	-11.4531
▁지나면	-11.4532
따위로	-11.4534
뎀	-11.4534
▁돈아깝	-11.4534
캔	-11.4534
죤	-11.4535
띵	-11.4535
쿄	-11.4535
갤	-11.4535
샬	-11.4535
▁공각기동대	-11.4535
▁곽지민	-11.4535
▁기가막히	-11.4535
▁낄낄	-11.4535
▁롱테이크	-11.4535
▁류승룡	-11.4535
▁미성년자	-11.4535
▁봉준호	-11.4535
▁봤건만	-11.4535
▁삼천포	-11.4535
▁쌈마이	-11.4535
▁에니메이션	-11.4535
▁에반게리온	-11.4535
▁피노키오	-11.4535
겜	-11.4535
곸	-11.4535
돕	-11.4535
쌔	-11.4535
웁	-11.4535
위원회	-11.4535
짭	-11.4535
▁밍밍	-11.4535
▁스포일러	-11.4535
▁김민준	-11.4535
▁밑도끝도	-11.4535
▁장동민	-11.4535
▁모자이크	-11.4535
▁앵글	-11.4535
▁올드보이	-11.4535
▁합리화	-11.4535
▁나도모르게	-11.4535
▁브로디	-11.4535
▁솔찍	-11.4535
▁앵간	-11.4535
▁장선우	-11.4535
▁감우성	-11.4535
▁풍부한	-11.4535
▁꼽히는	-11.4535
▁부성애	-11.4535
▁송중기	-11.4535
▁평점조절위원회	-11.4535
▁밉상	-11.4535
▁하여튼	-11.4535
떨어뜨리	-11.4535
▁짝사랑	-11.4535
▁호프만	-11.4535
▁킬빌	-11.4535
▁장백지	-11.4535
▁좌좀	-11.4536
▁메이저	-11.4536
▁해운대	-11.4536
▁주제의식	-11.4536
▁끼워넣	-11.4536
▁직쏘	-11.4536
▁케이스	-11.4536
▁추구하는	-11.4536
릅니다	-11.4536
▁푹빠져	-11.4536
▁관찰	-11.4537
▁빠르기	-11.4537
▁충족	-11.4537
▁영화볼줄	-11.4537
▁완존	-11.4537
▁필립	-11.4537
▁가문의	-11.4537
▁워킹	-11.4537
거같아서	-11.4537
▁눈물샘	-11.4538
▁크로우	-11.4538
▁은은한	-11.4538
▁무관심	-11.4538
▁슬플	-11.4538
▁꼽으라	-11.4539
▁총쏘	-11.4539
▁토할뻔	-11.4539
▁쇼킹	-11.4539
▁특성	-11.4539
▁나올법한	-11.4539
▁괴롭히	-11.454
▁자기자신	-11.454
▁담겨져	-11.454
▁구석이	-11.4541
▁부담없이	-11.4541
뻔했네	-11.4542
▁실존	-11.4542
▁감정표현	-11.4542
▁휴먼	-11.4542
▁제외하면	-11.4543
▁죄악	-11.4543
▁견디	-11.4543
▁미화시킨	-11.4544
▁위대하다	-11.4544
▁오덕	-11.4544
▁똥칠	-11.4544
▁찍었을까	-11.4545
▁안되겠	-11.4546
▁녹아있는	-11.4546
▁서른	-11.4546
장면에선	-11.4547
▁르네	-11.4548
▁인위적	-11.4549
▁모를까	-11.4549
▁마스터	-11.455
▁안무서움	-11.4551
▁재벌	-11.4551
▁기대안하고봤는데	-11.4552
▁폭파	-11.4553
▁마이크	-11.4554
▁지닌	-11.4555
▁헌신	-11.4556
▁사례	-11.4556
▁찾아가는	-11.4556
▁누구에게나	-11.4557
듯합니다	-11.4558
▁연기실력	-11.4558
리즘	-11.4559
▁사골	-11.4559
▁어찌보면	-11.456
▁명언	-11.4561
▁여운남	-11.4561
▁소련	-11.4562
▁윌리엄스	-11.4563
릴려고	-11.4563
▁자신에게	-11.4564
▁마련	-11.4565
▁되버린	-11.4566
▁비슷해서	-11.4567
▁봤던건데	-11.4567
▁멀쩡한	-11.4567
▁금발	-11.4568
▁무섭기	-11.457
▁불교	-11.457
인줄알고	-11.4572
▁산타	-11.4573
▁결혼식	-11.4575
▁절묘한	-11.4576
할께요	-11.4577
▁갈리는	-11.4578
▁느껴지네요	-11.4578
▁천재적인	-11.4579
싶었다	-11.458
▁거친	-11.458
▁일깨워준	-11.4581
▁개월	-11.4582
▁장담	-11.4582
▁엄마한테	-11.4582
▁뛰어났	-11.4584
▁어렷을때	-11.4584
▁유치원	-11.4587
거같네	-11.4589
▁후속	-11.4589
▁친구한테	-11.4589
▁건달	-11.4591
▁패스	-11.4591
▁없죠	-11.4593
▁건질게	-11.4593
▁재밋던데	-11.4595
▁존재하지	-11.4597
▁나른	-11.4597
▁변질	-11.4598
▁부끄러	-11.4599
▁화내	-11.46
▁시대상	-11.46
봐야되	-11.4601
▁흥미진진하게	-11.4603
▁좋았네요	-11.4604
▁그런대로	-11.4604
▁호화	-11.4604
▁애들한테	-11.4605
▁구림	-11.4606
▁되돌아보게	-11.4606
▁눈빛연기	-11.4607
▁방황하는	-11.4607
▁요원	-11.4608
▁마지막부분	-11.4609
▁짙은	-11.461
질질끄	-11.4611
▁기절	-11.4611
▁그런걸	-11.4612
▁얼마전	-11.4613
▁긴장되	-11.4614
▁가족드라마	-11.4615
▁짜릿함	-11.4617
해본다	-11.4617
▁감동이에요	-11.4618
재밌는영화	-11.4619
▁책읽	-11.4619
▁로즈	-11.462
▁그려진	-11.4621
▁위선	-11.4626
▁되고싶	-11.4627
▁세명	-11.4628
▁되다니	-11.4629
▁덮어	-11.4629
▁성의없	-11.4629
▁올려주	-11.463
▁있다는걸	-11.463
▁최악이네	-11.4634
▁보여줘야	-11.464
▁들으면	-11.4641
▁줄줄	-11.4642
▁붙잡	-11.4649
▁유치하게	-11.4649
하지말자	-11.465
버리면	-11.4652
▁행복하다	-11.4653
▁극적	-11.4655
▁데미	-11.4655
▁놀라게	-11.4662
본다면	-11.4662
▁야한영화	-11.4667
슬슬	-11.4667
▁그려내	-11.4669
실수	-11.4672
▁잘봤음	-11.4672
▁비슷하다	-11.4673
▁그저그렇	-11.4674
▁짜증나네요	-11.4674
▁일베충	-11.4677
▁진상	-11.4677
▁위치	-11.4677
▁보시고	-11.4678
▁애매한	-11.4684
였을까	-11.4689
많아	-11.4691
됐으면	-11.4692
▁동성애자	-11.4693
▁자극적이지	-11.4693
▁예정	-11.4695
해야할지	-11.4699
▁자막으로	-11.4702
▁재밌냐	-11.4706
▁지쳐	-11.4708
▁회까지	-11.4709
없습니다	-11.4713
▁후려	-11.4715
▁연기들도	-11.4716
▁강요하는	-11.4718
▁않기	-11.472
▁여성들	-11.4725
▁침대	-11.4728
▁우울할때	-11.4734
기본적으로	-11.4735
▁궁금하게	-11.4737
난뒤	-11.4738
▁우울하	-11.4741
그녀	-11.4752
▁부족했다	-11.4753
멍	-11.4756
▁원작자	-11.4759
▁암울	-11.4759
▁보아야	-11.4761
샘	-11.4762
뽀	-11.4762
및	-11.4764
카메라	-11.4766
아닐까	-11.4766
톰	-11.4767
▁허무맹랑	-11.4767
불륜	-11.4769
몸매	-11.4771
좋겠어요	-11.4774
▁잼써	-11.4774
▁안믿	-11.4776
수있다는	-11.4782
▁고등학교때	-11.4786
▁전문가들	-11.4787
왜케	-11.4787
두번	-11.4795
설레	-11.4795
터지고	-11.4796
많네	-11.4802
뿌려	-11.4807
여자들	-11.4814
▁놀라고	-11.4816
▁지저분	-11.4818
▁연예인들	-11.4822
남녀	-11.4825
중간에	-11.4826
아픈	-11.4826
순수하게	-11.4833
▁개짜증	-11.4834
▁사랑이라는	-11.4835
리얼	-11.484
나올때마다	-11.485
그래서	-11.4851
갔음	-11.4858
▁화제	-11.4859
▁끼치	-11.4863
하나도없	-11.4864
세력	-11.4866
안나오는	-11.4867
풀어	-11.4867
싶어요	-11.487
▁내용자체	-11.488
▁푸하하	-11.4881
평점이낮	-11.4881
▁교육용	-11.4885
좋겠	-11.4886
하신분들	-11.4889
▁그런것	-11.4892
잼씀	-11.4896
▁전반부	-11.4896
먹는다	-11.4897
귀여워	-11.4897
아니지만	-11.49
▁뭉클한	-11.4902
팬으로써	-11.4917
기회를	-11.4921
쁜	-11.4925
▁글쓰	-11.4926
잼잇	-11.4927
▁청소년들	-11.4933
▁흥미있	-11.4937
▁웃을수	-11.4938
▁아까울정도	-11.494
투자	-11.4941
더구만	-11.4949
읽어	-11.4951
▁쓰리	-11.4969
▁높았	-11.4969
▁미화시키	-11.4969
줄려고	-11.4998
찍어서	-11.4999
박스	-11.5001
▁빛났	-11.5006
▁윌리엄	-11.5006
▁힘드네	-11.5006
▁갑작스	-11.5012
미래를	-11.5013
놓았다	-11.5014
떤	-11.5015
▁집중할	-11.5021
해달라	-11.5022
낌	-11.5033
씁	-11.5033
쩡	-11.5034
걱	-11.5035
훔	-11.5035
킥	-11.5035
둡	-11.5035
셜	-11.5035
힙	-11.5035
▁늦었	-11.5035
▁김창완	-11.5035
▁드라큐라	-11.5035
▁러브레터	-11.5035
▁마스터피스	-11.5035
▁막무가내	-11.5035
▁맷데이먼	-11.5035
▁서바이벌	-11.5035
▁싱크로율	-11.5035
▁쒸레기	-11.5035
▁안드로메다	-11.5035
▁클라이막스	-11.5035
▁휴잭맨	-11.5035
꾀	-11.5035
뱃	-11.5035
쑈	-11.5035
융	-11.5035
젬	-11.5035
▁김주혁	-11.5035
▁역겨움	-11.5035
▁지니어스	-11.5035
뵈	-11.5035
▁김민희	-11.5035
▁최수종	-11.5035
▁마모루	-11.5035
▁알렉스	-11.5035
▁디아즈	-11.5035
▁극대화	-11.5035
▁파치노	-11.5035
▁박한별	-11.5035
▁월드컵	-11.5035
▁뜬금포	-11.5035
▁성동일	-11.5035
▁인디아나	-11.5035
▁리부트	-11.5035
▁지못미	-11.5035
▁태권도	-11.5035
▁하이라이트	-11.5035
▁섬세함	-11.5035
▁토요명화	-11.5035
▁삽질	-11.5035
▁싼티	-11.5035
▁스크림	-11.5035
▁치밀어	-11.5035
▁비둘기	-11.5035
▁무한도전	-11.5035
▁이자벨	-11.5035
▁따스한	-11.5035
▁숀펜	-11.5035
▁핑계	-11.5035
▁쿡티비	-11.5035
▁조한선	-11.5036
▁케로로	-11.5036
▁침략	-11.5036
▁이문식	-11.5036
▁저지른	-11.5036
▁키드먼	-11.5036
▁특정	-11.5036
▁시간가는줄모르고	-11.5036
▁올라갈때	-11.5036
▁가난한	-11.5036
▁촌스러움	-11.5036
▁흐른다	-11.5036
▁박현지	-11.5036
▁수식어	-11.5037
▁흠뻑	-11.5037
▁그려냈다	-11.5037
▁골때리는	-11.5037
▁침몰	-11.5037
▁빠른전개	-11.5038
▁이정진	-11.5038
▁웃음코드	-11.5038
▁완결	-11.5038
▁명확하	-11.5038
▁호랑이	-11.5038
와함께	-11.5038
▁탱고	-11.5039
▁손꼽	-11.5039
▁환영	-11.5039
▁처음부터끝까지	-11.5039
▁구할수	-11.5039
▁뜯어	-11.504
▁굿바이	-11.5041
▁흑형	-11.5041
▁정신세계	-11.5041
왕국	-11.5041
▁어려	-11.5042
▁억지웃음	-11.5043
▁이질감	-11.5044
▁기타노	-11.5044
▁기괴하	-11.5044
시네마	-11.5044
▁얻었	-11.5045
▁정신병원	-11.5045
▁자극적이고	-11.5045
▁넘쳐나는	-11.5046
▁기대되네요	-11.5048
입니당	-11.5048
▁질린다	-11.5048
▁오래도록	-11.5049
▁흠잡을데	-11.5049
▁돈들여	-11.5049
▁온통	-11.505
▁살아간다	-11.5051
▁개망작	-11.5051
앗는데	-11.5051
▁축하	-11.5051
▁아침부터	-11.5052
▁어쩔수없이	-11.5053
주려다가	-11.5054
▁나오길래	-11.5054
▁명백	-11.5055
▁쓰레기같은영화	-11.5055
▁살짜리	-11.5055
▁쓸모	-11.5056
듣기싫	-11.5057
▁박힌	-11.5057
▁나왔는지	-11.5057
▁그립네요	-11.5058
▁아니더라도	-11.5058
▁여느	-11.5059
특선	-11.5061
▁개졸작	-11.5062
탐험	-11.5062
▁한마리	-11.5062
▁토토	-11.5062
▁반가웠	-11.5064
▁무서웠음	-11.5064
▁마술	-11.5064
▁타워	-11.5064
볼걸	-11.5065
▁담백하게	-11.5065
▁동생이랑	-11.5065
▁명절	-11.5065
캠프	-11.5066
▁보여지는	-11.5066
▁무엇일까	-11.5068
▁대립	-11.5068
▁즐길수	-11.5068
▁모범	-11.5068
▁물체	-11.507
보고싶네요	-11.507
▁기본적인	-11.5072
▁기대하고봤는데	-11.5072
▁고난	-11.5073
▁실화라서	-11.5074
▁좋아하던	-11.5074
▁헷갈리	-11.5074
▁만들어놓고	-11.5075
▁졸렸	-11.5075
▁알고싶다	-11.5075
▁전투신	-11.5078
이지나도	-11.508
▁건너	-11.508
▁괜찮아요	-11.5081
갑시다	-11.5082
▁안보길	-11.5082
▁이게무슨	-11.5084
▁재밌구만	-11.5084
▁해설	-11.5084
▁가치있	-11.5085
▁멀미	-11.5085
▁찍으면	-11.5085
▁중국판	-11.5085
▁하나씩	-11.5087
▁다시보고싶	-11.5087
▁진국	-11.5087
▁촌스럽	-11.5092
▁기대됨	-11.5095
▁공간에서	-11.5097
▁관우	-11.5097
▁최고예요	-11.51
▁막장스토리	-11.51
▁두번이나	-11.5103
▁붙어	-11.5104
달려	-11.5105
▁전투장면	-11.5106
영화였음	-11.5107
▁후배	-11.5107
▁입가에	-11.511
▁바꿔라	-11.5111
▁있을듯	-11.5111
▁월화	-11.5114
▁못보신	-11.5116
▁수십번	-11.5116
▁최신	-11.5117
▁광대	-11.5119
▁선사하는	-11.512
▁후회한다	-11.512
▁초월한	-11.5121
▁압도적	-11.5121
▁신발	-11.5123
▁끝없는	-11.5123
▁기대하며	-11.5123
실화	-11.5124
▁마니아	-11.5127
▁주저	-11.5127
▁권리	-11.5128
▁알차	-11.5133
▁파격적인	-11.5134
▁욕나오	-11.5135
▁마지막장면에서	-11.5136
▁안되냐	-11.5138
▁짠하고	-11.5138
▁표현할수	-11.5138
▁언제적	-11.5139
▁유산	-11.514
▁섹시하고	-11.5142
님께서	-11.5142
유발하는	-11.5144
▁가족들과	-11.5145
▁화부터	-11.5146
▁주문	-11.5147
▁있었네요	-11.5151
바치는	-11.5156
▁미안한	-11.5157
▁약속	-11.5158
▁대표적	-11.5158
▁시각으로	-11.5161
▁느낀점	-11.5161
재밋어	-11.5163
▁풋풋함	-11.5165
늘어지고	-11.5166
일뿐이다	-11.5167
▁신기하고	-11.5169
▁소원	-11.5169
▁별로던데	-11.5174
▁말하고자하는	-11.5179
▁여우	-11.518
▁놀랍고	-11.5182
▁재밌으면	-11.5184
줄아나	-11.5187
▁어색해	-11.5187
▁흔해빠	-11.5191
▁윤리	-11.5196
▁궁금함	-11.5196
▁이루어지	-11.52
쉽게	-11.52
▁비교할	-11.5203
▁수술	-11.5209
▁재미없으면	-11.5209
▁코믹요소	-11.521
신다면	-11.5214
해보이는	-11.5215
받을만한	-11.5216
해야할듯	-11.522
▁유선	-11.522
▁좋던데	-11.5222
하진않	-11.5235
▁내마음	-11.524
▁담으려	-11.5241
▁변하지	-11.5247
낮아서	-11.525
괜찮았	-11.5252
▁다시보고싶다	-11.5253
▁멤버	-11.5262
극으로	-11.5263
▁너무너무너무	-11.5267
▁살렸	-11.5276
▁죽어야	-11.5279
맡	-11.5283
해주면	-11.5284
▁이용한	-11.5285
흘리며	-11.5286
▁만들까	-11.529
쪼	-11.529
얻	-11.529
▁해피엔딩이라	-11.5291
티비에서	-11.5291
짝퉁	-11.5293
아름다운	-11.5293
느낀	-11.5295
햇으면	-11.5295
재밌었어요	-11.5299
흘러	-11.5303
역사상	-11.5303
▁즐기기	-11.5306
감동적이고	-11.5306
잘봤어요	-11.5309
▁없으	-11.5309
▁잼있네	-11.531
블루	-11.5312
많아서	-11.5316
▁낮은듯	-11.5317
탄생	-11.5318
▁짜증날	-11.5318
남긴다	-11.532
그닥	-11.532
▁전투기	-11.5322
▁몰입하기	-11.5327
연습	-11.5329
본적이	-11.533
▁느껴보	-11.5335
지금까지	-11.5336
앞으로	-11.5342
많은데	-11.5343
생각나서	-11.535
개념	-11.5363
▁전달하는	-11.5364
▁되어버렸	-11.5365
▁나이들어	-11.5367
▁알바생들	-11.5367
▁게이들	-11.5377
▁안타까울	-11.5378
▁총맞	-11.5381
주려고	-11.5382
▁웃기면서	-11.5386
데리고	-11.5389
▁싸워	-11.5393
풍기는	-11.5396
라는것을	-11.5397
▁뗄수	-11.5399
쟁이들	-11.54
▁댓글들	-11.5405
좋았던	-11.5412
으니깐	-11.5431
했을듯	-11.5434
었으나	-11.5434
쓰는거	-11.5434
▁생각되는	-11.5448
뿌리	-11.5451
▁숨막히	-11.5464
▁남겼	-11.5467
▁미남	-11.5469
졸라	-11.5472
할래	-11.5488
▁인사	-11.549
거린다	-11.549
찜찜	-11.5491
부른	-11.5491
▁오랫만	-11.5496
▁공감하기	-11.5506
▁틀림없	-11.5511
▁생각하면서	-11.5512
딴식으로	-11.5513
하도록	-11.5516
▁호주	-11.5516
▁멀쩡	-11.5526
▁보시라	-11.5526
▁담백하	-11.5532
따지면	-11.5532
▁심사	-11.5533
본것중	-11.5538
▁군인들	-11.5545
▁쉽지않	-11.5549
뿔	-11.555
얀	-11.5555
▁외계	-11.5557
▁현실적이지	-11.5558
시키려	-11.556
텀	-11.556
앵	-11.5561
▁구로사와	-11.5561
▁권선징악	-11.5561
▁김옥빈	-11.5561
▁김윤석	-11.5561
▁데스노트	-11.5561
▁머리카락	-11.5561
▁무미건조	-11.5561
▁시덥잖은	-11.5561
▁시퀀스	-11.5561
▁업그레이드	-11.5561
▁오리지날	-11.5561
▁옮겨	-11.5561
▁왤캐	-11.5561
▁울부짖	-11.5561
▁유튜브	-11.5561
▁재활용	-11.5561
▁쿵푸팬더	-11.5561
댜	-11.5561
돠	-11.5561
빔	-11.5561
빽	-11.5561
섰	-11.5561
얔	-11.5561
▁꾸준히	-11.5561
▁서커스	-11.5561
▁캡틴	-11.5561
샴	-11.5561
▁강우석	-11.5561
▁시어머니	-11.5561
▁담백한	-11.5561
▁정준호	-11.5561
▁케서방	-11.5561
▁클래스	-11.5561
▁김소연	-11.5561
▁가슴찡한	-11.5561
▁멈출	-11.5561
▁저렴한	-11.5561
▁파트너	-11.5561
▁김현주	-11.5561
▁팬심으로	-11.5561
▁박용우	-11.5561
▁차기작	-11.5561
▁주진모	-11.5561
▁빵터졌	-11.5561
▁울트라	-11.5562
▁벅차	-11.5562
▁잊혀지질	-11.5562
▁견뎌	-11.5562
▁저능아	-11.5562
▁김보성	-11.5562
▁웨스턴	-11.5562
▁박진영	-11.5562
▁거슬렸	-11.5562
뿐만아니라	-11.5562
▁퍼센트	-11.5562
▁저번에	-11.5562
▁발차기	-11.5562
▁밀려온다	-11.5562
▁쌍둥이	-11.5562
▁어울렸	-11.5563
▁늑대인간	-11.5563
▁화이트	-11.5563
▁여태껏	-11.5563
▁지금에서야	-11.5563
▁해리슨	-11.5563
▁이럴거면	-11.5563
▁개그코드	-11.5563
▁우주전쟁	-11.5563
▁앤딩	-11.5564
▁인디언	-11.5564
▁뜨겁	-11.5564
▁흘릴	-11.5564
▁된장녀	-11.5564
▁으휴	-11.5564
불끄고	-11.5564
▁새로움	-11.5564
보는편인데	-11.5564
▁기대했건만	-11.5564
▁무성영화	-11.5565
▁닌자	-11.5565
▁비춰	-11.5565
▁아쉬울뿐	-11.5565
▁기대안했는데	-11.5565
▁감안해도	-11.5565
▁전달하려는	-11.5565
▁시민들	-11.5565
▁바둑	-11.5566
▁흔하디	-11.5566
▁억압	-11.5566
▁발랄한	-11.5566
춘향	-11.5566
▁잘어울리는	-11.5567
▁변함없	-11.5567
▁소녀시대	-11.5567
▁탈락	-11.5568
▁슬펐어요	-11.5568
▁만점짜리	-11.5569
▁복귀	-11.5569
▁나이먹고	-11.5569
▁무고한	-11.5569
▁중간쯤	-11.557
▁수준낮은	-11.557
▁기다린	-11.557
▁녀석들	-11.557
▁주조연	-11.557
▁밀려오는	-11.5571
▁뻔하디	-11.5571
▁괴롭	-11.5571
▁목숨걸	-11.5571
▁강추강추	-11.5571
▁중학생때	-11.5571
▁안타깝습니다	-11.5572
▁빠져들었다	-11.5573
▁몇번을봐도	-11.5573
▁감상평	-11.5573
▁타잔	-11.5573
▁돌아간	-11.5573
▁인내력	-11.5574
▁죠스	-11.5574
▁범작	-11.5574
소린지	-11.5574
▁충동	-11.5574
▁슬펐던	-11.5575
▁재밌긴한데	-11.5575
▁안가네	-11.5575
▁릴리	-11.5575
▁길거리	-11.5576
▁판치는	-11.5576
▁말해준다	-11.5577
▁간단하	-11.5577
▁아까웠음	-11.5577
▁재미없었어요	-11.5577
▁사람으로써	-11.5579
▁물결	-11.5579
▁인상적이었다	-11.558
▁비교된다	-11.558
▁아름다워요	-11.5582
▁개쩐다	-11.5583
▁있도록	-11.5583
▁해주었	-11.5584
▁착하	-11.5585
▁말장난	-11.5585
▁이기심	-11.5585
▁티비판	-11.5585
▁논란	-11.5586
▁윤재	-11.5588
▁생각났다	-11.5589
▁오드리	-11.5589
▁국제	-11.559
▁조선시대	-11.559
▁첩보물	-11.559
▁압도적인	-11.559
▁이번편	-11.559
▁미숙	-11.5591
▁어마어마한	-11.5592
▁상승	-11.5593
▁돌프	-11.5594
▁매력적임	-11.5594
▁느낄수있는	-11.5596
▁뻔뻔한	-11.5596
▁안나왔으면	-11.5596
햇어요	-11.5597
▁미련	-11.5598
▁놀래	-11.5598
▁빵터지	-11.5601
▁발악	-11.5601
▁느껴져	-11.5601
▁들었어요	-11.5602
▁이미연	-11.5602
▁안가네요	-11.5602
▁종교적인	-11.5603
▁들었습니다	-11.5604
▁다있냐	-11.5604
▁아이디	-11.5604
▁천년	-11.5605
▁시작된다	-11.5605
▁깊이있는	-11.5608
▁똥망	-11.5608
▁생길	-11.5609
▁진실된	-11.5609
▁어느하나	-11.5611
으루	-11.5611
▁놀랬다	-11.5611
▁다음엔	-11.5611
▁애환	-11.5611
▁교훈적인	-11.5612
▁베끼	-11.5612
▁잘하시고	-11.5616
▁완벽했다	-11.5616
▁소녀들	-11.5619
▁해주네요	-11.5619
▁재판	-11.562
▁고개	-11.562
▁아련하고	-11.5621
▁찾아봤는데	-11.5622
▁시점에서	-11.5625
▁넣어서	-11.5628
▁없군요	-11.563
▁이번주	-11.5632
▁언더	-11.5632
▁기대했다	-11.5633
▁홀리	-11.5634
▁않길	-11.5637
어지럽	-11.5637
해주셔서	-11.5641
▁무한한	-11.5642
▁산만하다	-11.5642
▁수작이라고	-11.5642
▁별로였는데	-11.5646
▁민망해	-11.5646
▁되어버린	-11.5649
보여줘서	-11.5651
▁힘들듯	-11.5651
▁흥미진진하다	-11.5652
보게된	-11.5654
▁난잡한	-11.5654
▁처음이었다	-11.5659
▁치부	-11.566
유루	-11.5662
▁만들어버린	-11.5666
느낄수있	-11.5666
▁도배	-11.5668
▁오버연기	-11.567
▁구린	-11.5672
▁주년	-11.5676
▁감점	-11.5677
▁약자	-11.5678
하지못한	-11.5681
▁장진영	-11.5683
▁나오냐	-11.5683
됬으면	-11.5691
▁사람한테	-11.5693
▁세심	-11.5699
거늘	-11.5703
▁표현력	-11.5705
▁경이로	-11.5718
▁별로였던	-11.5719
▁설리	-11.5719
▁화신	-11.5728
중엔	-11.5734
▁느낌이었다	-11.5736
하기위해	-11.5737
▁영점	-11.5749
만들어서	-11.5751
볼수없는	-11.5763
▁웨스	-11.5763
▁못찾	-11.5765
▁잡스	-11.5765
▁당했다	-11.5766
▁자유롭	-11.5778
되어있는	-11.5784
▁엔딩장면	-11.5797
▁아기자기	-11.5798
▁맞는듯	-11.5802
▁절절	-11.5805
▁고리	-11.5818
▁바라본	-11.5819
▁자연스	-11.5821
▁찾았	-11.5822
▁행동들	-11.5839
▁쓰러지	-11.5839
채널	-11.5839
봐야하나	-11.5843
턱	-11.5844
아쉬웠	-11.5846
손가락	-11.5846
쓰래기	-11.5847
넌	-11.5847
핵노잼	-11.5848
빅	-11.5848
▁전달되	-11.5849
재밌게봤어요	-11.585
▁어린애	-11.5851
눈빛	-11.5851
그럴	-11.5855
▁빠순이	-11.5857
민족	-11.5862
▁봤었지	-11.5862
분량	-11.5869
빠들	-11.5875
▁맡기	-11.5881
조합	-11.5882
▁봐야될	-11.5882
고양이	-11.5897
돌릴	-11.5901
▁참신했	-11.5908
댄스	-11.591
▁살고있	-11.591
을꺼같	-11.5915
▁싸울	-11.5917
전설	-11.5918
▁보러갔	-11.5924
안본다	-11.5928
▁그래야	-11.5935
안치고	-11.5935
되었는지	-11.5939
관심	-11.5943
▁개봉했을	-11.5955
시간동안	-11.5956
영화였습니다	-11.5963
▁보시기	-11.5964
생기면	-11.5965
꼬마	-11.5966
보이려고	-11.5986
확실하게	-11.5996
찾다가	-11.5999
▁좋겠네	-11.6
▁답답하게	-11.6005
▁저딴	-11.6012
▁바랄	-11.6016
타카	-11.6043
▁첨보네	-11.6051
볼만하	-11.6054
▁인간성	-11.6056
▁느낀건	-11.6056
없을정도로	-11.6064
▁줬어	-11.6065
▁놀랬	-11.6067
▁담았	-11.608
▁간직하고	-11.6082
▁시계	-11.6083
▁욕나오네	-11.6086
▁허허허	-11.6094
성격	-11.6096
랙	-11.6096
펙	-11.6109
▁설득	-11.6111
쿡	-11.6112
이것밖에	-11.6115
덥	-11.6115
▁삽입	-11.6116
뻘	-11.6117
캣	-11.6117
▁교통사고	-11.6117
▁긴급조치	-11.6117
▁말코비치	-11.6117
▁베토벤	-11.6117
▁샌들러	-11.6117
▁송새벽	-11.6117
▁스나입스	-11.6117
▁아니올시다	-11.6117
▁액티비티	-11.6117
▁얄팍한	-11.6117
▁인시디어스	-11.6117
▁조지클루니	-11.6117
▁존쿠삭	-11.6117
▁후레쉬맨	-11.6117
▁히스레저	-11.6117
멕	-11.6117
쁠	-11.6117
쉘	-11.6117
아포칼립토	-11.6117
욯	-11.6117
읎	-11.6117
쟤	-11.6117
짚	-11.6117
챔피언	-11.6117
쾅	-11.6117
퀘	-11.6117
킷	-11.6117
핍	-11.6117
▁결승전	-11.6117
▁남녀노소	-11.6117
▁매혹적인	-11.6117
▁요근래	-11.6117
▁정신분열	-11.6117
▁천천히	-11.6117
떴	-11.6117
▁나비효과	-11.6117
▁오다기리	-11.6117
▁훌쩍	-11.6117
▁총격전	-11.6117
▁포커스	-11.6117
▁홍경인	-11.6117
▁내평생	-11.6117
▁유부녀	-11.6117
▁윤은혜	-11.6117
▁간신히	-11.6117
▁어우러져	-11.6117
▁톱스타	-11.6117
▁성시경	-11.6117
▁송윤아	-11.6117
▁어떡해	-11.6117
▁과언이	-11.6117
▁야쿠자	-11.6117
▁에리카	-11.6117
▁용감한	-11.6117
▁남상미	-11.6117
▁길들여	-11.6117
▁오정세	-11.6117
▁왠만해서	-11.6117
▁임성한	-11.6117
▁특색	-11.6117
▁콧물	-11.6117
▁나뿐인가	-11.6117
▁러닝	-11.6117
▁리들리	-11.6117
▁모호한	-11.6117
보게됬는데	-11.6117
▁순진한	-11.6117
▁이민호	-11.6117
▁프리퀄	-11.6117
▁하모니	-11.6117
못생김	-11.6118
▁아낌없	-11.6118
▁리얼리즘	-11.6118
▁이경영	-11.6118
▁제라드	-11.6118
▁제시카알바	-11.6118
▁그와중에	-11.6118
글라스	-11.6118
▁슬로우	-11.6118
▁가르침	-11.6118
▁흥행실패	-11.6119
▁상처받은	-11.6119
▁삼촌	-11.6119
눈부신	-11.612
▁비됴	-11.612
▁별점테러	-11.612
▁또하나의	-11.612
▁감명깊은	-11.612
▁부끄럽다	-11.612
▁민주화	-11.6121
▁증오	-11.6121
▁어릴땐	-11.6121
▁절친	-11.6122
중고딩	-11.6122
▁흘러간다	-11.6123
▁미달이	-11.6123
▁다섯개	-11.6123
▁폐지해라	-11.6123
▁제이미	-11.6123
▁봐야겠어요	-11.6124
▁닿지	-11.6125
▁추격전	-11.6126
▁담배피	-11.6126
▁기억에남는	-11.6126
▁샤워	-11.6127
▁이미숙	-11.6127
▁앨리스	-11.6127
▁표출	-11.6128
특별히	-11.6128
▁똥싸	-11.6128
▁쓰레기통에	-11.6129
▁위협	-11.6129
▁이해안되는	-11.6129
▁생각이든다	-11.613
▁보고난후	-11.6131
▁생각됩니다	-11.6131
▁몸짓	-11.6131
▁니슨	-11.6132
▁볼수있어서	-11.6132
▁올리버	-11.6133
▁한두번	-11.6133
▁생김	-11.6133
▁숨겨	-11.6133
▁대다수	-11.6133
▁빌린	-11.6133
▁실천	-11.6134
▁꼬집	-11.6134
▁아쉬웠던	-11.6134
▁불과하다	-11.6134
▁루크	-11.6135
▁격투씬	-11.6135
▁때로는	-11.6137
▁공감되지	-11.6139
주신분들	-11.6139
▁그리움	-11.6139
▁짜증났음	-11.614
▁딸아이	-11.614
▁막힌	-11.614
▁죄없는	-11.6141
▁파격	-11.6141
▁반짝	-11.6142
▁울버린	-11.6142
▁현대판	-11.6142
▁까먹	-11.6143
▁잃게	-11.6144
▁노골적으로	-11.6145
▁아니자나	-11.6146
▁맞먹는	-11.6146
▁됐어요	-11.6146
▁처절하게	-11.6146
▁부패	-11.6146
▁녹음	-11.6146
▁좋았을걸	-11.6149
▁후회된다	-11.6149
▁왜자꾸	-11.615
▁불편했다	-11.615
▁개웃김	-11.615
▁어쩌구	-11.615
▁레즈	-11.6151
▁안좋아하는데	-11.6151
주고싶지만	-11.6153
▁감안하고	-11.6154
▁누가봐도	-11.6154
▁보았어요	-11.6155
▁몰입할수	-11.6155
할꺼면	-11.6155
밖으로	-11.6156
▁다좋은데	-11.6157
▁포스트	-11.6158
였죠	-11.6158
▁누드	-11.616
▁감동이었습니다	-11.6161
▁출시	-11.6161
▁섹시하다	-11.6162
▁아무리봐도	-11.6164
마법사	-11.6167
밝혀지	-11.6168
▁별로였어요	-11.6169
▁덤으로	-11.617
▁부류	-11.6173
▁구입	-11.6174
▁은유	-11.6175
▁예쁘네요	-11.6177
▁눈살	-11.618
▁보고있습니다	-11.618
▁진행되	-11.6181
▁일어나서	-11.6187
▁거참	-11.6187
▁훈훈함	-11.6187
▁방식으로	-11.6188
▁봤어야	-11.6188
▁후회합니다	-11.6189
▁만들었니	-11.619
▁반점	-11.619
바꿨	-11.6195
▁들었던	-11.6197
▁여러분들	-11.6199
▁분류	-11.62
▁얼음	-11.6201
▁스크린에서	-11.6205
▁스릴넘치	-11.6206
▁괴기	-11.6208
▁날개	-11.621
허무하	-11.621
▁안보신분들	-11.6213
▁누구야	-11.6214
▁풀어나가	-11.6214
▁멋있네요	-11.6216
▁남길	-11.6218
▁공군	-11.6218
▁보지마요	-11.6218
▁몇분	-11.6222
▁남아요	-11.6225
▁볼만했던	-11.6228
▁추천해요	-11.623
▁하류	-11.6231
▁최악이네요	-11.6233
▁우려먹기	-11.6241
▁오래간만	-11.6245
하고자하는	-11.6245
▁아이에게	-11.6245
싸가지	-11.6253
터져	-11.6254
▁대단했다	-11.6255
할것이다	-11.626
▁씁쓸함	-11.626
▁직장인	-11.6262
▁없으면서	-11.6269
▁무력	-11.6278
▁전기영화	-11.6284
당께	-11.6285
▁전반적	-11.6285
▁제목이랑	-11.6285
▁지루하긴	-11.6299
▁경력	-11.63
▁걸릴	-11.632
▁사랑스러웠	-11.632
▁똑같아	-11.6324
보지말라	-11.6324
갈기	-11.6325
▁누구보다	-11.6326
▁비약	-11.6347
▁멀어	-11.6348
있길래	-11.6353
▁키드	-11.636
▁유사라	-11.6361
▁인정받	-11.6367
▁네티즌들	-11.6375
보러갔는데	-11.638
당당히	-11.6382
▁전작보다	-11.639
▁웃긴데	-11.6408
무서움	-11.6416
하니깐	-11.6426
닭	-11.6432
캬	-11.6435
떨어져	-11.6435
아쉬움	-11.6436
▁통쾌함	-11.6436
꽤	-11.6436
통쾌	-11.6437
예뻐	-11.6438
▁눈물흘리	-11.644
보지마셈	-11.6441
모델	-11.6442
멋짐	-11.6443
아픔	-11.6446
▁괴수영화	-11.6446
그나마	-11.6446
보지마세요	-11.6447
봣지만	-11.6448
끝난	-11.6449
죽겠네	-11.6452
▁구식	-11.6453
▁삼성	-11.6455
취급	-11.6456
입장에서	-11.6469
각본	-11.6482
재밌습니다	-11.6486
▁있을뿐	-11.6487
천원	-11.6496
▁좋아졌	-11.6498
남매	-11.65
▁아줌마들	-11.65
▁감정연기	-11.6505
알겠	-11.6512
▁미치게	-11.6522
▁명감독	-11.6527
▁창피하	-11.6535
초월하는	-11.6537
▁눈물날	-11.6542
▁자체만으로	-11.6546
친구에게	-11.6552
▁막막	-11.6555
지않을까	-11.6559
시끄러	-11.6564
▁익숙해	-11.658
▁흔적	-11.6595
약하지만	-11.6604
▁엔딩씬	-11.6604
▁들어갔	-11.6608
꿨	-11.6623
봐야됨	-11.6627
잊혀지	-11.6633
알앗	-11.664
▁스님	-11.6648
▁교훈적이	-11.6649
▁만들어졌	-11.665
▁없을것	-11.6656
▁헷갈	-11.6659
경험	-11.6665
▁어떠	-11.6667
봐야겠다	-11.6681
▁무섭긴	-11.6683
할거면	-11.6683
▁답습	-11.6695
칫	-11.67
릅	-11.6704
떳	-11.6705
▁게리올드만	-11.6705
▁경각심	-11.6705
▁그렇네요	-11.6705
▁꾸밈없	-11.6705
▁꾸역꾸역	-11.6705
▁봤더만	-11.6705
▁아름다우	-11.6705
▁안젤리나	-11.6705
▁에바그린	-11.6705
▁우디앨런	-11.6705
▁워싱턴	-11.6705
▁코엔형제	-11.6705
▁클로즈업	-11.6705
▁킹왕짱	-11.6705
▁패틴슨	-11.6705
▁퍼포먼스	-11.6705
▁페미니즘	-11.6705
걔	-11.6705
귄	-11.6705
넉	-11.6705
뇬	-11.6705
댁	-11.6705
맬	-11.6705
뺐	-11.6705
웡	-11.6705
퉷	-11.6705
햄	-11.6705
▁기막힌	-11.6705
▁나홀로집에	-11.6705
▁발버둥	-11.6705
▁보게됐는데	-11.6705
▁오컬트	-11.6705
▁우베볼	-11.6705
▁장예모	-11.6705
▁제멋대로	-11.6705
▁타임머신	-11.6705
▁톰하디	-11.6705
▁힐러리	-11.6705
숴	-11.6705
▁디비디	-11.6705
▁류덕환	-11.6705
▁쓸쓸함	-11.6705
▁아오이유우	-11.6705
▁저학년	-11.6705
▁폰부스	-11.6705
갚	-11.6705
▁대리만족	-11.6705
▁오션스	-11.6705
▁킹콩	-11.6705
▁박진희	-11.6705
▁여지껏	-11.6705
▁티라노	-11.6705
▁보너스	-11.6705
▁모니카	-11.6705
▁스토커	-11.6705
▁파이널	-11.6705
▁별두개	-11.6705
▁이해안감	-11.6705
▁휘둘	-11.6705
▁속시원	-11.6705
▁기묘한	-11.6705
▁눈높이	-11.6705
▁빡침	-11.6705
▁차대전	-11.6705
▁나탈리	-11.6705
▁베를린	-11.6705
썸띵	-11.6705
▁강소라	-11.6705
▁마돈나	-11.6705
▁간단한	-11.6705
신비롭고	-11.6705
▁바이블	-11.6705
▁협박	-11.6705
▁태어났	-11.6705
▁라이토	-11.6705
▁훔쳐	-11.6705
▁컬러	-11.6706
▁김아중	-11.6706
▁김수미	-11.6706
▁브라질	-11.6706
▁쥬라기	-11.6706
▁숫자	-11.6706
▁좁은	-11.6706
▁뮤비	-11.6706
▁쓸쓸하	-11.6706
▁곤란	-11.6706
▁안소니	-11.6706
▁안쓰럽	-11.6706
▁강원도	-11.6706
▁옷벗	-11.6706
▁패륜	-11.6706
▁연결고리	-11.6707
▁미루다	-11.6707
▁앉아서	-11.6707
▁무삭제판	-11.6707
▁개구리	-11.6707
▁다양성	-11.6707
▁몽골	-11.6708
▁괴로웠	-11.6708
▁제주도	-11.6708
합니당	-11.6709
▁축복	-11.6709
▁한반도	-11.6709
▁남녀주인공	-11.6709
▁김지수	-11.6709
▁이요원	-11.6709
▁혼합	-11.671
▁쪼금	-11.671
▁워스트	-11.671
▁할말없음	-11.671
▁찐한	-11.671
스턴트	-11.6711
▁총싸움	-11.6711
▁펼쳐지는	-11.6713
▁과대평가된	-11.6713
▁흘러나오는	-11.6713
▁어느순간	-11.6713
두근거리	-11.6714
▁애잔하	-11.6714
▁뭐하자는건지	-11.6714
▁꺼버린	-11.6715
▁이서진	-11.6715
▁잡탕	-11.6715
▁재구성	-11.6715
▁권투	-11.6716
▁잼있었어요	-11.6716
▁이모양이	-11.6716
▁똥꼬	-11.6717
▁답이없다	-11.6718
▁한시도	-11.6718
▁파고드	-11.6719
▁이해안됨	-11.6719
▁생겼다	-11.672
▁교양	-11.672
▁같았어요	-11.672
▁나쁘게	-11.672
▁따듯해	-11.6721
▁적절하게	-11.6722
▁아깝더라	-11.6723
▁패배	-11.6723
▁문소리	-11.6723
▁감각적인	-11.6723
▁싱크	-11.6723
▁시각적	-11.6724
▁나약한	-11.6725
▁소유진	-11.6725
▁망침	-11.6725
▁으악	-11.6725
▁으으	-11.6725
▁원한다면	-11.6725
밧는데	-11.6726
▁감격	-11.6727
▁잘보았습니다	-11.6728
▁여잔	-11.6728
▁감사해요	-11.6728
▁꾸며	-11.6729
▁명품드라마	-11.673
▁아련하다	-11.673
▁좋겟	-11.6731
▁괜히봤다	-11.6731
▁좋겠는데	-11.6731
▁존예	-11.6733
▁갈망	-11.6733
▁대중적	-11.6734
▁기대했었는데	-11.6734
▁크크	-11.6734
▁지킬	-11.6735
▁논리적	-11.6735
▁부끄럽지	-11.6736
▁좋겠음	-11.6737
▁나혼자	-11.6739
▁한국애니	-11.6739
▁민호	-11.6739
잠시나마	-11.674
▁진출	-11.674
▁알려진	-11.6741
▁거칠	-11.6742
▁버디	-11.6743
▁사랑얘기	-11.6743
▁통제	-11.6743
▁아름답네요	-11.6746
▁정이건	-11.6746
▁징징대	-11.6747
▁지저분한	-11.6748
▁권장	-11.6751
▁싫어하는데	-11.6751
▁학대	-11.6752
▁에잇	-11.6752
스턴	-11.6753
티켓	-11.6753
▁이세상에	-11.6754
▁뻔뻔	-11.6755
▁사귀	-11.6756
▁보삼	-11.6757
▁누구인지	-11.6762
▁못만드는	-11.6763
▁분쯤	-11.6765
▁뻔뻔하	-11.6768
▁친일	-11.6769
▁김종	-11.677
▁죽어가는	-11.6771
▁짠하다	-11.6772
▁어렵지만	-11.6772
▁이지아	-11.6773
▁끝난후	-11.6775
▁행복합니다	-11.6776
▁대체적으로	-11.6777
▁그랬냐	-11.6777
▁착하게	-11.678
▁전해지는	-11.6781
▁만행	-11.6782
▁알수있다	-11.6783
▁맞나요	-11.6785
▁감사하다	-11.6785
▁세금	-11.6787
▁오열	-11.6787
좋아하는사람	-11.679
▁주연들의	-11.679
▁조롱	-11.6793
하셧	-11.6797
▁보고싶어서	-11.6801
▁벗어난	-11.6804
▁이끌어내	-11.6805
▁바보같은	-11.6807
▁기대했지만	-11.6814
보지마	-11.6817
▁고정	-11.6821
▁이해할수없는	-11.6823
▁열린	-11.6825
▁누구든	-11.6826
▁선정적이	-11.6828
▁우롱하는	-11.6829
▁상큼한	-11.683
처음이자	-11.683
▁사랑받	-11.6834
모르겠음	-11.6834
▁극장판중	-11.6834
▁직전	-11.6836
▁수입사	-11.6839
지말아라	-11.684
▁같던데	-11.684
▁돋보	-11.6841
▁허영	-11.6843
▁생각해본다	-11.6844
▁주어진	-11.6845
▁뻔한내용	-11.6853
▁믿으	-11.6857
너무많	-11.686
할필요	-11.6869
▁창의적	-11.6887
▁낭만적이	-11.6907
▁일본인들	-11.691
누군가에겐	-11.6921
▁아련함	-11.6922
▁나오겠지	-11.6922
▁생각해봐	-11.6925
지마셈	-11.6932
▁풀어냈	-11.6933
웃었네	-11.6942
▁과학적	-11.6943
줄수있	-11.6945
아니었다	-11.6949
▁고소	-11.695
▁벨라	-11.6952
밝히	-11.6954
▁싸울때	-11.6954
스럽기	-11.6985
▁과하지	-11.6998
옵니다	-11.7003
▁중국인들	-11.7026
▁희생자	-11.7031
▁잼있었	-11.7033
봣으면	-11.7034
▁그녀들	-11.7041
사이트	-11.7048
▁본인들	-11.7051
▁사건들	-11.7055
▁해결되	-11.7059
푹	-11.706
거아님	-11.706
열심히	-11.7061
씹	-11.7061
훌륭한	-11.7061
아무리	-11.7062
감사합니다	-11.7063
보았습니다	-11.7064
독립	-11.7064
호흡	-11.7064
재미있었어요	-11.7065
빵빵	-11.7066
어쩔수없	-11.7066
밴드	-11.7068
태어나	-11.7069
재밌었음	-11.7074
말아먹	-11.7075
바꾸	-11.7075
▁액션마저	-11.7079
폭발	-11.7079
동영상	-11.7083
좋겠네요	-11.7083
풍경	-11.7086
재미있었다	-11.7086
성룡	-11.7086
▁결투	-11.7097
스케일	-11.7098
잼있어요	-11.71
▁받았던	-11.7103
▁양반	-11.7106
점점	-11.7106
▁잠들어	-11.7117
주변	-11.7117
▁재밌겠	-11.7118
▁보고또보고	-11.7121
싶으나	-11.7128
▁봐봐	-11.7137
이미지	-11.7138
공포물	-11.7142
됌	-11.7164
캐리	-11.7168
빼놓	-11.7192
공감되고	-11.7205
▁챙기	-11.7213
착하고	-11.7217
▁좋은소재	-11.7225
▁찾아보니	-11.7239
궁금하	-11.7239
크루	-11.7246
잇어서	-11.7252
▁빠져있	-11.7255
하시네	-11.7257
▁예술이라	-11.7259
길어서	-11.726
▁어떨	-11.7264
따뜻해지는	-11.727
보게되네요	-11.7286
잼있음	-11.7288
할순없	-11.7289
▁느껴진	-11.7292
▁어마어마	-11.7294
하기전에	-11.7296
에로영화	-11.7297
▁지켜야	-11.7303
무려	-11.7304
▁걸맞	-11.7311
▁죄송하	-11.7313
춰	-11.7321
▁구경하	-11.7321
륙	-11.7323
까말까	-11.7326
둠	-11.7326
탠	-11.7327
튜	-11.7328
인상깊었	-11.7328
줍	-11.7328
깁	-11.7329
▁류승완	-11.733
▁퍼시픽	-11.733
▁가물가물	-11.733
▁곽부성	-11.733
▁깜짝깜짝	-11.733
▁동방불패	-11.733
▁러블리	-11.733
▁레즈비언	-11.733
▁마녀사냥	-11.733
▁맴돈다	-11.733
▁분신사바	-11.733
▁불친절한	-11.733
▁성지순례	-11.733
▁스펙터클	-11.733
▁쏟아지	-11.733
▁아메리카	-11.733
▁애틋하	-11.733
▁연평해전	-11.733
▁워쇼스키	-11.733
▁웬만해선	-11.733
▁조마조마	-11.733
▁주구장창	-11.733
▁짜맞춘	-11.733
▁테일러	-11.733
▁투모로우	-11.733
▁프랭크	-11.733
국회의원	-11.733
뤠	-11.733
뤽	-11.733
좃	-11.733
죵	-11.733
필모그래피	-11.733
▁국가대표	-11.733
▁꽃미남	-11.733
▁끝냈어야	-11.733
▁문채원	-11.733
▁부드러운	-11.733
▁앤드류	-11.733
▁오마쥬	-11.733
▁쭈욱	-11.733
▁카메오	-11.733
꿰	-11.733
챔	-11.733
▁같잖은	-11.733
▁드팔마	-11.733
됏	-11.733
▁김우빈	-11.733
▁김윤진	-11.733
▁무심코	-11.733
▁베드씬	-11.733
▁블러드	-11.733
▁엉뚱하	-11.733
▁리처드	-11.733
▁어리버리	-11.733
▁에밀리	-11.733
▁진솔한	-11.733
▁금성무	-11.733
▁소름끼쳤	-11.733
▁전두환	-11.733
▁그토록	-11.733
▁댄싱	-11.733
▁박물관	-11.733
▁박시후	-11.733
▁핀처	-11.733
▁힛걸	-11.733
▁서유기	-11.733
▁강수연	-11.733
▁벅찬	-11.733
▁부자연스러운	-11.733
▁뜨거워	-11.733
▁사토시	-11.733
▁당위성	-11.733
▁빠짐없이	-11.733
▁스마트폰	-11.733
▁감회가	-11.733
▁기대되요	-11.733
▁발가락	-11.733
▁브란도	-11.733
▁온가족이	-11.733
▁갇혀	-11.733
▁토요일	-11.733
▁개똥철학	-11.733
▁퓨전	-11.7331
▁드라마틱한	-11.7331
▁치닫는	-11.7331
▁별그대	-11.7331
▁이집트	-11.7331
▁표현하기	-11.7331
▁배워라	-11.7331
▁묵직하	-11.7331
▁열린결말	-11.7331
▁갱스터	-11.7331
▁시한부	-11.7331
▁기다림	-11.7331
▁꼬꼬마	-11.7331
▁잤음	-11.7331
▁이태임	-11.7331
▁환희	-11.7331
▁감춰	-11.7331
▁안볼란다	-11.7332
▁겹쳐	-11.7332
▁다운받았는데	-11.7332
▁핵꿀잼	-11.7332
▁미스터빈	-11.7332
▁흥겹	-11.7332
▁유머코드	-11.7332
▁유대인	-11.7332
▁어지럽고	-11.7332
▁이동진	-11.7332
▁개고생	-11.7332
▁다섯번	-11.7332
▁교도소	-11.7333
▁암유발	-11.7333
▁서영희	-11.7333
▁테마	-11.7333
허우적	-11.7334
▁남깁니다	-11.7334
▁정신상태	-11.7334
▁망가진	-11.7335
그렇다쳐도	-11.7335
▁닭살	-11.7335
▁한낱	-11.7335
▁디젤	-11.7335
▁세븐	-11.7336
▁휴먼드라마	-11.7336
▁절대보지마라	-11.7336
▁웃지요	-11.7336
의극치	-11.7336
▁어렸을땐	-11.7336
▁젊은시절	-11.7336
▁투박하	-11.7337
▁함축	-11.7337
▁뒷맛	-11.7337
▁대사하나하나	-11.7337
▁베껴	-11.7337
▁돋았다	-11.7337
▁대륙	-11.7337
▁고아라	-11.7337
▁보셨으면	-11.7337
▁부러웠	-11.7338
▁늘어진다	-11.7338
▁개쩌는	-11.7338
▁기대할게요	-11.7338
아까비	-11.7338
▁친근	-11.7339
차분한	-11.7339
▁죄송합니다	-11.7339
▁산뜻	-11.734
▁터진다	-11.734
▁합격	-11.734
▁되도않	-11.734
▁이보영	-11.734
▁보지마시길	-11.734
▁오버액션	-11.734
▁두마리	-11.7341
▁산드라	-11.7341
▁결정적으로	-11.7341
▁스폰	-11.7341
▁추상적	-11.7342
▁두번다시	-11.7342
▁자칭	-11.7342
▁취권	-11.7342
▁거창하	-11.7343
▁대만족	-11.7343
▁생생히	-11.7344
▁낚여	-11.7344
▁아름답습니다	-11.7346
▁영향력	-11.7346
▁보자마자	-11.7347
▁십분	-11.7347
부탁드립니다	-11.7348
▁공익	-11.7348
▁한국전쟁	-11.7348
▁잠오는	-11.7348
베이비	-11.7349
▁관련된	-11.7349
▁입술	-11.735
펀치	-11.7351
▁다뤄	-11.7352
▁닿는	-11.7354
▁시사하는	-11.7354
▁그럴싸하	-11.7354
▁지루했고	-11.7354
▁고추	-11.7354
▁심플	-11.7354
▁답없다	-11.7354
▁짜장면	-11.7355
▁나았습니다	-11.7355
▁고스트	-11.7356
▁다녀왔	-11.7356
▁무서웠던	-11.7357
▁비슷비슷	-11.7358
▁아깝단	-11.7358
▁예상대로	-11.7358
▁종편	-11.7359
▁개발연기	-11.7359
▁즐거웠던	-11.7359
▁아름다워서	-11.7359
▁평온	-11.736
▁이제와서	-11.7361
▁틀린	-11.7361
▁반쪽	-11.7361
▁웃었음	-11.7362
▁감동적이지도	-11.7362
▁자폐	-11.7363
▁낚일	-11.7363
▁짧았	-11.7366
▁쓰세요	-11.7367
▁개허접	-11.7367
▁식당	-11.7368
▁주관적인	-11.7369
▁네버	-11.737
▁허망	-11.737
▁실망했어요	-11.7371
▁잔인하지만	-11.7371
▁보낼	-11.7372
▁남았던	-11.7375
▁뭔소리	-11.7377
▁분보다가	-11.7378
▁배우빨	-11.7379
▁다음날	-11.7379
빠돌이	-11.7381
▁민주	-11.7382
▁몇달	-11.7385
버리고싶	-11.7386
▁주연급	-11.7388
▁아니였음	-11.7388
▁운전	-11.7389
▁번이상	-11.739
▁백제	-11.7391
▁재생	-11.7391
▁여성부	-11.7396
▁울다가	-11.7398
▁재희	-11.74
▁누구에게	-11.74
▁과하다	-11.7401
▁출연했다는	-11.7402
▁상업성	-11.7402
▁투쟁	-11.7406
▁관객들에게	-11.7407
▁경비	-11.7407
▁필모	-11.7409
▁늘었	-11.7419
▁중반이후	-11.7422
밑	-11.7423
짜증남	-11.7432
▁엿볼	-11.7433
▁올라오	-11.7434
▁누군가에게	-11.7435
▁감안하면	-11.7441
▁부모님께	-11.7445
▁경찰들	-11.7462
받았어요	-11.7467
모여서	-11.7467
▁왕짜증	-11.7471
▁충격먹	-11.7473
▁미국인들	-11.748
▁혼났	-11.7488
배워	-11.75
▁괜찮을듯	-11.7503
▁애써	-11.7508
▁노출씬	-11.7513
하지도않고	-11.7516
▁이국적	-11.7534
▁싫었	-11.7537
▁형편	-11.7537
을라나	-11.7537
▁눈앞에	-11.7537
전설적인	-11.7551
좋겟네요	-11.7552
▁키이라	-11.7555
▁박력	-11.7563
▁년뒤	-11.7578
▁있다는것	-11.7585
▁아기자기하	-11.7586
본영화인데	-11.7592
들어와서	-11.7595
채널돌리다	-11.7598
▁잡혀	-11.7603
카페	-11.7615
▁매력적이었	-11.7616
때문인가	-11.7656
무엇하나	-11.766
▁안웃기	-11.7672
▁진부하지	-11.7673
허무맹랑한	-11.7678
▁이외에	-11.7685
▁대중성	-11.7686
▁돌아갈	-11.7686
▁울엇	-11.7687
▁올려놓	-11.7702
▁도둑들	-11.7716
아름답	-11.7721
안나지만	-11.7722
봤을땐	-11.7724
됐던	-11.7724
뻥	-11.7725
귀여움	-11.7726
뮤지컬	-11.7728
짱짱맨	-11.7728
구멍	-11.773
▁들어갈	-11.773
쓰렉	-11.773
만드냐	-11.773
최강	-11.7731
쇼크	-11.7733
흥행	-11.7734
▁달라진	-11.7734
탈출	-11.7739
재밌게봤다	-11.7741
잘만들었	-11.7742
정서에	-11.7742
흥미	-11.7743
사랑이야기	-11.7762
재미있습니다	-11.7766
▁마지막씬	-11.7767
남친	-11.777
일어나	-11.7774
▁미치는줄	-11.7775
▁연결되	-11.779
나보군	-11.7791
▁알맞	-11.7794
약간	-11.7796
▁따져	-11.7799
여운이남	-11.7807
싶었지만	-11.7816
폐인	-11.7819
할려면	-11.7828
▁있을거라	-11.7846
▁재미없더라	-11.7858
▁누군	-11.7861
게스트들	-11.787
날정도로	-11.7872
지몰라도	-11.7884
▁감흥없	-11.7898
▁틀어놓	-11.79
▁초점	-11.7914
▁어린아이들	-11.7916
▁센스있	-11.792
뤄	-11.7923
▁빨라	-11.7923
▁막나가	-11.7933
▁충격받	-11.7935
▁퀴어	-11.7939
나올까	-11.794
봇	-11.7959
픔	-11.7961
▁저럴	-11.7972
▁줄려다	-11.7989
생각해보니	-11.7992
믹	-11.7993
콧	-11.7994
되었습니다	-11.7994
황당	-11.7995
샌	-11.7995
칩	-11.7995
썽	-11.7996
늑	-11.7996
▁라디오	-11.7996
첼	-11.7996
잘어울려	-11.7997
▁고군분투	-11.7997
▁꼬박꼬박	-11.7997
▁다큐멘타리	-11.7997
▁덴젤워싱턴	-11.7997
▁동물농장	-11.7997
▁매드맥스	-11.7997
▁멕시코	-11.7997
▁섞여있	-11.7997
▁스콜세지	-11.7997
▁스페셜	-11.7997
▁시궁창	-11.7997
▁야마카시	-11.7997
▁어장관리	-11.7997
▁오마이갓	-11.7997
▁우마서먼	-11.7997
▁전무후무	-11.7997
▁줄리아로버츠	-11.7997
▁찝찝해	-11.7997
▁코스트너	-11.7997
▁크로넨버그	-11.7997
▁키아누리브스	-11.7997
▁타임킬링	-11.7997
▁트라우마	-11.7997
▁학예회	-11.7997
▁홍석천	-11.7997
겔	-11.7997
꿉	-11.7997
넥	-11.7997
벡	-11.7997
뷁	-11.7997
슥	-11.7997
쏜	-11.7997
쪙	-11.7997
킁	-11.7997
▁김동완	-11.7997
▁껍데기	-11.7997
▁스머프	-11.7997
▁스티븐시걸	-11.7997
▁안어울려	-11.7997
▁애슐리	-11.7997
▁일으킨	-11.7997
▁쯔쯔	-11.7997
▁파란만장	-11.7997
▁해피앤딩	-11.7997
멧	-11.7997
뿅	-11.7997
첸	-11.7997
▁맴도는	-11.7997
▁비노쉬	-11.7997
▁아청법	-11.7997
▁코폴라	-11.7997
▁루카스	-11.7997
▁소오름	-11.7997
▁재조명	-11.7997
▁정확하게	-11.7997
▁리브스	-11.7997
▁베테랑	-11.7997
▁염정아	-11.7997
▁움직인	-11.7997
▁전설의고향	-11.7997
▁지겨움	-11.7997
▁어린나이에	-11.7997
▁정경호	-11.7997
▁라운드	-11.7997
▁서비스	-11.7997
▁땡칠이	-11.7997
▁싱거운	-11.7997
▁올리비아	-11.7997
▁플러스	-11.7997
▁할로윈	-11.7997
▁바이올린	-11.7997
▁해바라기	-11.7997
▁해병대	-11.7997
▁혈압	-11.7997
레이션	-11.7997
▁생동감	-11.7997
▁요한슨	-11.7997
▁삼박자	-11.7997
▁안중근	-11.7997
▁소림사	-11.7997
▁다섯손가락	-11.7997
▁평점조작	-11.7997
▁믹스	-11.7997
▁스트립	-11.7997
▁연기변신	-11.7997
▁내세운	-11.7997
▁정신차리	-11.7997
▁인상깊었던	-11.7997
▁미사일	-11.7997
▁견딜	-11.7997
▁탱크	-11.7997
▁신성일	-11.7997
▁글로리아	-11.7997
▁닥쳐	-11.7997
못보겟다	-11.7997
▁기다릴	-11.7997
▁유전자	-11.7997
▁김지운	-11.7997
▁미소짓게	-11.7998
▁옆집	-11.7998
▁유태인	-11.7998
▁무의미하	-11.7998
▁초심을	-11.7998
▁제국주의	-11.7998
▁연대기	-11.7998
▁블랙코메디	-11.7998
▁삽입곡	-11.7998
다닐때	-11.7998
▁두말할	-11.7998
▁무능한	-11.7998
▁초저예산	-11.7998
▁반가운	-11.7998
▁부러워	-11.7998
▁아야세	-11.7998
▁보지말것	-11.7998
▁링컨	-11.7998
칩니다	-11.7998
▁팬텀	-11.7998
▁망설이	-11.7998
히히히	-11.7998
▁둔갑	-11.7999
▁조셉	-11.7999
▁어두워	-11.7999
▁어딜봐서	-11.7999
▁안녕하세요	-11.7999
▁영원하라	-11.7999
▁베댓	-11.7999
▁떡칠	-11.8
▁바람둥이	-11.8
▁여럿	-11.8
▁바쁜	-11.8
▁흘리게	-11.8
▁그놈의	-11.8
▁절대보지마세요	-11.8001
▁다를바	-11.8001
▁복싱	-11.8002
▁출품	-11.8002
▁난해함	-11.8002
십쇼	-11.8003
▁다른사람들	-11.8003
▁레벨	-11.8003
▁멋있었어요	-11.8003
▁상식적으로	-11.8003
▁단언컨데	-11.8004
▁현실적이어서	-11.8004
▁토나온다	-11.8004
애청자	-11.8004
▁억지스러워	-11.8005
▁화면구성	-11.8006
올릴	-11.8006
▁맥락	-11.8007
▁아깝군	-11.8007
▁배낀	-11.8007
▁어쩌자는	-11.8008
▁그립습니다	-11.8008
줄아는	-11.8008
▁보여줬던	-11.8008
▁백프로	-11.8008
▁드러운	-11.8009
▁애로영화	-11.8009
▁이수정	-11.801
▁추격신	-11.8011
▁제미있	-11.8011
▁김고은	-11.8012
▁활력	-11.8012
▁선정적인	-11.8012
▁많은생각을	-11.8012
▁정상적인	-11.8013
▁가필드	-11.8013
▁안목이	-11.8015
▁총각	-11.8016
▁아주아주	-11.8017
▁연설	-11.8018
▁달린다	-11.8018
▁하루카	-11.8018
▁결정적인	-11.8018
▁만들던가	-11.8019
보는눈이	-11.802
▁여백	-11.8021
▁밋밋하다	-11.8021
▁허락	-11.8021
▁살았던	-11.8022
▁절때	-11.8022
▁보편적	-11.8023
▁초대박	-11.8024
▁개소름	-11.8024
▁오죽하	-11.8024
▁코너	-11.8025
▁낫습니다	-11.8026
말아주세요	-11.8027
거아냐	-11.8027
▁잼슴	-11.8028
▁한가인	-11.8028
▁가져야	-11.8029
▁한국사회	-11.803
▁대머리	-11.8031
▁불평	-11.8031
▁다음작품	-11.8032
▁악행	-11.8033
▁못보겠음	-11.8034
▁오픈	-11.8035
▁부끄러워	-11.8036
▁나오코	-11.8037
▁설계	-11.8038
▁두서없	-11.8039
▁소중하다	-11.8039
최고의드라마	-11.8041
▁의미있	-11.8043
▁치매	-11.8044
▁역경	-11.8044
▁재미없었는데	-11.8046
▁나오던데	-11.8047
▁뒷모습	-11.805
▁찰스	-11.8051
▁출연작	-11.8052
그럴듯하게	-11.8052
공략	-11.8053
▁있으니까	-11.8059
▁효주	-11.8072
▁명품연기	-11.8073
라이프	-11.8078
▁배신감	-11.8082
▁떨어질	-11.8084
하랴	-11.8087
▁헛점	-11.8089
흥미롭	-11.8094
▁욕나올	-11.8095
▁배끼	-11.8102
▁답없는	-11.8108
▁폭력적이	-11.8112
만들었는지	-11.8116
노릇	-11.8123
타케	-11.8125
중요성을	-11.8125
▁서영	-11.8126
하셨어요	-11.8131
▁요괴	-11.8143
분이라면	-11.8172
▁우아하	-11.8174
▁어디있	-11.8177
안됌	-11.8178
▁같으면서	-11.8182
▁김기덕감독	-11.8188
▁있으신	-11.8195
떠서	-11.8202
잼있어	-11.8212
볼께요	-11.8229
▁던진	-11.8234
본질을	-11.8234
이쁜데	-11.8249
▁잔혹함	-11.8271
됐을까	-11.8346
▁이딴것	-11.8349
못본게	-11.8376
▁감성적이	-11.8385
▁벗었	-11.8388
▁멤버들	-11.8392
고싶게	-11.8394
주기도아깝다	-11.8398
▁보냈	-11.8399
유머와	-11.8406
땀	-11.8434
스텝	-11.8436
맺	-11.8438
훈훈	-11.844
뺏	-11.844
예고편	-11.844
맞춰	-11.844
자동차	-11.8441
예쁘다	-11.8441
시트콤	-11.8442
메세지	-11.8442
시간낭비	-11.8445
청춘	-11.8446
역활	-11.8446
공룡	-11.845
▁강조하	-11.8456
볼만함	-11.8466
만드나	-11.8469
결국	-11.8471
할머니	-11.8475
바꿔서	-11.8485
▁일베충들	-11.8502
너무귀여워	-11.8518
모르겠고	-11.8537
▁재미있겠	-11.8547
▁냉정하	-11.8559
돌아간다	-11.86
땜	-11.8607
▁사람죽이	-11.862
남아서	-11.8622
▁획기적	-11.8629
하나도안	-11.8633
누군지	-11.8635
기억이난다	-11.8642
진지하고	-11.8661
▁가슴뭉클	-11.8673
▁쳐맞	-11.8686
▁권총	-11.8687
숫	-11.871
귓	-11.8711
▁스텝들	-11.8711
쭈	-11.8711
맴	-11.8711
횡	-11.8711
헷	-11.8711
▁갈팡질팡	-11.8711
▁곱씹어	-11.8711
▁레미제라블	-11.8711
▁로드리게즈	-11.8711
▁무한반복	-11.8711
▁비긴어게인	-11.8711
▁여균동	-11.8711
▁인디아나존스	-11.8711
굽	-11.8711
뚤	-11.8711
륨	-11.8711
▁거듭할수록	-11.8711
▁놈놈놈	-11.8711
▁대서사시	-11.8711
▁발킬머	-11.8711
▁부자연스럽고	-11.8711
▁불법체류자	-11.8711
▁스텔론	-11.8711
▁쓰잘데기	-11.8711
▁아름다울	-11.8711
▁알콩달콩	-11.8711
▁애매모호	-11.8711
▁엑스파일	-11.8711
▁예뻤다	-11.8711
▁오광록	-11.8711
▁외모지상주의	-11.8711
▁잘짜여진	-11.8711
▁정신차려	-11.8711
▁존트라볼타	-11.8711
▁징기스칸	-11.8711
▁찝찝하고	-11.8711
▁찰리채플린	-11.8711
▁카펜터	-11.8711
▁탐크루즈	-11.8711
▁태권브이	-11.8711
▁투니버스	-11.8711
▁판빙빙	-11.8711
▁페넬로페	-11.8711
▁하비에르	-11.8711
▁해리슨포드	-11.8711
껌	-11.8711
넴	-11.8711
쒯	-11.8711
앳	-11.8711
얍	-11.8711
잌	-11.8711
잰	-11.8711
찼	-11.8711
쳇	-11.8711
텨	-11.8711
퐁	-11.8711
헠	-11.8711
홉	-11.8711
휙	-11.8711
▁단체관람	-11.8711
▁마다가스카	-11.8711
▁방어율	-11.8711
▁시끄러워서	-11.8711
▁유투브	-11.8711
▁주걸륜	-11.8711
▁지지부진	-11.8711
▁쪽팔리	-11.8711
▁최곤데	-11.8711
▁하지마루요	-11.8711
▁휴대폰	-11.8711
특공대	-11.8711
▁갇힌	-11.8711
▁넘사벽	-11.8711
▁셜록	-11.8711
▁전체관람가	-11.8711
깜짝놀랐	-11.8711
▁디지털	-11.8711
▁뚱뚱	-11.8711
▁번지르르	-11.8711
▁비틀즈	-11.8711
▁흐믓	-11.8711
▁백진희	-11.8711
▁임요환	-11.8711
▁쿵푸	-11.8711
▁김준호	-11.8711
▁박시환	-11.8711
▁황정음	-11.8711
▁정무문	-11.8711
▁언젠간	-11.8711
▁거꾸로	-11.8711
▁브리짓	-11.8711
▁빌어먹	-11.8711
▁마이클베이	-11.8711
▁썸머	-11.8711
▁한채영	-11.8711
▁눈시울	-11.8711
▁최시원	-11.8711
▁돌이켜	-11.8711
▁과감한	-11.8711
▁울궈먹	-11.8711
썹	-11.8711
▁개신교	-11.8711
▁영애씨	-11.8711
▁천안함	-11.8711
▁국제시장	-11.8711
▁난장판	-11.8711
▁돌고래	-11.8711
▁김병만	-11.8711
▁최선정	-11.8711
▁미지근	-11.8711
▁뽀뽀	-11.8711
▁순식간	-11.8711
▁소박한	-11.8711
▁괴리감	-11.8711
▁썰전	-11.8711
▁오글거린다	-11.8711
▁이명박	-11.8712
▁은지원	-11.8712
▁정준영	-11.8712
▁전우치	-11.8712
▁외노자	-11.8712
▁갖춰	-11.8712
▁라디오스타	-11.8712
▁줄리안	-11.8712
▁직설적	-11.8712
▁월요일	-11.8712
▁밑바닥	-11.8712
▁거창한	-11.8712
▁쉴드	-11.8712
▁황진이	-11.8712
▁경상도	-11.8712
▁이소연	-11.8712
▁창의력	-11.8712
▁다이빙	-11.8712
온전히	-11.8712
▁이하늬	-11.8712
▁헨리	-11.8713
▁느껴집니다	-11.8713
▁김정훈	-11.8713
▁로맨틱코메디	-11.8713
▁비운의	-11.8713
▁희한한	-11.8713
▁국민학교	-11.8713
▁우아한	-11.8713
▁미니언	-11.8713
▁사고방식	-11.8713
▁굴곡	-11.8713
▁아끼는	-11.8714
▁칼싸움	-11.8714
▁변해가는	-11.8714
▁클로이	-11.8714
▁안겨준	-11.8715
▁몸개그	-11.8715
▁슈퍼스타	-11.8715
▁배웠습니다	-11.8716
▁미쿡	-11.8716
▁맞춤	-11.8716
▁자유로운	-11.8717
▁고평가	-11.8717
▁프란	-11.8717
▁손잡고	-11.8717
▁희열	-11.8717
▁멍하니	-11.8718
▁세뇌	-11.8718
▁감동적이었고	-11.8718
▁정보석	-11.8718
다닌다	-11.8718
▁스페이스	-11.8718
▁벗어날	-11.8719
▁여학생	-11.8719
▁당첨	-11.8719
▁심쿵	-11.8719
▁코끼리	-11.8719
▁빼놓을	-11.8719
▁놔두	-11.8719
▁근친	-11.872
▁부끄러운줄	-11.872
▁무인도	-11.872
▁못만드나	-11.8721
▁샤론	-11.8721
▁북극	-11.8721
▁그저그랬	-11.8721
▁유익하	-11.8721
▁하느님	-11.8722
▁처벌	-11.8722
▁친척	-11.8723
▁맘대로	-11.8723
▁눈깔	-11.8723
▁타겟	-11.8724
▁관광	-11.8724
▁겹치	-11.8725
▁빙의	-11.8725
▁졸귀	-11.8725
▁연기자분들	-11.8726
▁점도아까움	-11.8726
▁악령	-11.8726
▁살인범	-11.8726
▁치킨	-11.8727
▁헤매	-11.8728
▁썼으면	-11.8728
머싯	-11.8729
▁크리스티	-11.873
▁설교	-11.873
▁따라올	-11.873
▁격투신	-11.8731
▁좋을텐데	-11.8731
▁모자르	-11.8732
▁외설	-11.8732
▁불쾌했다	-11.8732
▁양심적으로	-11.8732
▁호소하	-11.8732
▁알게됨	-11.8733
▁감추	-11.8734
▁입맛	-11.8735
▁정녕	-11.8735
꺼에요	-11.8736
▁그레이스	-11.8736
▁기다리며	-11.8736
트랙	-11.8737
▁아이언	-11.8739
▁재미지다	-11.8739
▁신랄	-11.874
▁장난이냐	-11.874
▁파고들	-11.8741
▁요란하	-11.8741
나본데	-11.8744
▁피어스	-11.8744
먹히는	-11.8748
▁오그라들어	-11.8748
▁잼있었는데	-11.875
▁감안하더라	-11.8754
▁알았으면	-11.8755
▁맘에드는	-11.8756
▁지워지지	-11.8759
셨다면	-11.8759
▁시대극	-11.8763
▁면상	-11.8765
만들수있	-11.877
돌리다가	-11.8773
▁배꼽잡	-11.8778
▁말이안되	-11.8778
메이드	-11.8781
▁풀리는	-11.8782
비우고	-11.8787
줬을텐데	-11.8788
아까우	-11.879
▁귀여우	-11.8792
▁웃었던	-11.8794
▁느끼게해준	-11.8799
▁만들었어요	-11.8803
▁쳐다보	-11.8803
▁오락물	-11.8806
볼껄	-11.8806
▁초월	-11.8811
보러갔다가	-11.8812
▁추천하고싶	-11.882
목숨	-11.8825
▁맨마지막	-11.8827
목적으로	-11.8837
넘침	-11.8846
▁건드리	-11.8848
▁남아돌아	-11.885
▁토나오	-11.8862
독특하게	-11.8864
▁아가씨	-11.8867
하지말라	-11.887
으면좋겟	-11.8871
▁몰입력	-11.8881
이었군	-11.8892
따뜻해지고	-11.8905
입장에선	-11.8908
▁많아졌	-11.8917
▁잊을수없는	-11.8918
▁끼친	-11.892
시점에	-11.8947
▁슬프면서	-11.8963
우울하고	-11.8966
안타까울뿐	-11.8967
▁만드셨	-11.9001
팬들	-11.901
▁어디갔	-11.9014
재밋엇어요	-11.9046
한구석이	-11.9048
가수들	-11.9048
▁느슨하	-11.9054
시는분들	-11.9054
▁가고싶	-11.9074
▁말아먹었	-11.9088
▁싸웠	-11.9136
주셨으면	-11.9148
▁먹고싶	-11.9158
▁바뀌어	-11.917
싹	-11.9202
젊	-11.9209
아쉬워요	-11.9209
사투리	-11.9211
▁놓쳐	-11.9215
섹시	-11.9215
섹스	-11.9217
삭제	-11.9218
보아도	-11.9222
것같았	-11.923
살짝	-11.9235
보고싶네	-11.924
걸릴뻔	-11.9262
왜이렇게	-11.9288
▁해줘야	-11.9329
쩐	-11.9336
▁남아돌	-11.9341
▁끝나버리	-11.9342
백년	-11.9344
보이던데	-11.9349
▁좋았겠	-11.9361
토끼를	-11.9367
▁비교되	-11.9384
▁무난하	-11.9448
▁설명할수	-11.9455
뀌	-11.9478
성애자	-11.948
연쇄살인	-11.948
▁개그콘서트	-11.948
▁고정관념	-11.948
▁고창석	-11.948
▁곽경택	-11.948
▁글래디에이터	-11.948
▁끼워맞추기	-11.948
▁남우주연상	-11.948
▁놀랐어요	-11.948
▁놀랐음	-11.948
▁눈물콧물	-11.948
▁니콜라스케이지	-11.948
▁라푼젤	-11.948
▁러셀크로우	-11.948
▁복제인간	-11.948
▁불우이웃	-11.948
▁브로스넌	-11.948
▁브리트니	-11.948
▁사이프리드	-11.948
▁산드라블록	-11.948
▁삼각관계	-11.948
▁설마설마	-11.948
▁센세이션	-11.948
▁스웨덴	-11.948
▁스크린쿼터	-11.948
▁시대착오적	-11.948
▁앙상블	-11.948
▁어드벤처	-11.948
▁엘리베이터	-11.948
▁엘리자베스	-11.948
▁연개소문	-11.948
▁우왕좌왕	-11.948
▁조디포스터	-11.948
▁지긋지긋	-11.948
▁차예련	-11.948
▁첩혈쌍웅	-11.948
▁팔레스타인	-11.948
▁프렌즈	-11.948
▁횡설수설	-11.948
깼	-11.948
욘	-11.948
쟝	-11.948
춥	-11.948
▁김원효	-11.948
▁노트북	-11.948
▁떳떳	-11.948
▁똘똘	-11.948
▁시놉시스	-11.948
▁실베스타	-11.948
▁쏟아져	-11.948
▁알게해줬다	-11.948
▁우디알렌	-11.948
▁윤제문	-11.948
▁크리스찬베일	-11.948
▁행오버	-11.948
꼐	-11.948
꽈	-11.948
넛	-11.948
돔	-11.948
볶	-11.948
섀	-11.948
챈	-11.948
▁과감히	-11.948
▁사무엘	-11.948
▁레슬리	-11.948
▁유동근	-11.948
▁코넬리	-11.948
▁다이애나	-11.948
▁서유리	-11.948
▁숭고한	-11.948
▁장학우	-11.948
▁조미료	-11.948
▁단조롭	-11.948
▁양자경	-11.948
▁현주소	-11.948
▁똘끼	-11.948
▁서동요	-11.948
▁박상민	-11.948
▁노민우	-11.948
▁느슨한	-11.948
▁낭패	-11.948
▁메르스	-11.948
▁박시연	-11.948
▁삼총사	-11.948
▁김대희	-11.948
▁넘버원	-11.948
▁찌꺼기	-11.948
▁긴박한	-11.948
▁박하선	-11.948
▁정려원	-11.948
▁정준하	-11.948
▁천박한	-11.948
▁할리웃	-11.948
▁몹시	-11.948
▁이뭐병	-11.948
▁바래요	-11.948
▁박철수	-11.948
▁모조리	-11.9481
▁오묘한	-11.9481
시크릿	-11.9481
▁나타낸	-11.9481
▁대박나세요	-11.9481
▁화딱지	-11.9481
▁현란한	-11.9481
▁김청기	-11.9481
▁라이브	-11.9481
▁김민정	-11.9481
▁핑크	-11.9481
▁핫세	-11.9481
▁떨어뜨린다	-11.9481
▁서툰	-11.9481
▁도서관	-11.9481
▁보람이	-11.9481
▁스미스	-11.9481
▁정사신	-11.9481
▁썩어빠진	-11.9481
줍시다	-11.9481
▁귓가에	-11.9481
▁흘려	-11.9481
▁김대중	-11.9481
▁잔상이	-11.9481
▁김두한	-11.9481
▁뭐이딴	-11.9481
▁떨어집니다	-11.9481
▁예지원	-11.9481
▁랄프	-11.9481
▁습격	-11.9481
▁저리가라	-11.9481
▁만들어주셔서	-11.9481
▁가까워	-11.9481
▁라이더	-11.9481
▁추억팔이	-11.9481
▁얕은	-11.9481
▁깔려있	-11.9482
▁전범기	-11.9482
▁촌스러워	-11.9482
▁난생처음	-11.9482
▁고통스럽	-11.9482
▁아랫분	-11.9482
▁원영의	-11.9482
▁환호	-11.9482
예상외로	-11.9482
▁메마른	-11.9482
컴백	-11.9482
▁으으으	-11.9483
▁댄서	-11.9483
▁터널	-11.9483
▁어지럽다	-11.9483
▁관념	-11.9483
봐서그런가	-11.9484
▁아이템	-11.9484
▁천원주고	-11.9484
▁찌르는	-11.9484
▁연상케	-11.9484
▁뭐가뭔지	-11.9484
길이남을	-11.9484
▁양념	-11.9484
▁당하기만	-11.9484
▁외로워	-11.9484
▁검술	-11.9485
▁계몽	-11.9485
▁원조격	-11.9486
▁무의식	-11.9486
▁없어져야	-11.9487
▁절규	-11.9487
▁굿굿굿굿	-11.9487
▁종족	-11.9487
▁속았네	-11.9488
줄알았더니	-11.9488
▁있어보이려고	-11.9488
▁바스코	-11.9488
▁출근	-11.9488
▁사람냄새	-11.9488
▁병사들	-11.9488
▁보여줬으면	-11.9489
▁속지마세요	-11.9489
▁던져주는	-11.9489
▁간절히	-11.9489
▁풍광	-11.9489
▁궁극	-11.9489
▁탄압	-11.949
파이퍼	-11.949
▁실사판	-11.949
▁보러갈	-11.949
▁바꼈	-11.949
▁너무하잖아	-11.949
▁언제끝나	-11.9491
▁날카로	-11.9491
▁들어왔다	-11.9491
▁착한척	-11.9491
▁김정화	-11.9492
▁높길래	-11.9493
▁아쉬웠어요	-11.9493
행복했어요	-11.9493
▁흉내낸	-11.9494
▁만들어졌으면	-11.9494
[...]
