<pad>	0
<unk>	0
<s>	0
</s>	0
▁	-3.24513
이	-4.2527
▁영화	-4.38291
의	-4.50094
도	-4.56588
가	-4.59866
는	-4.60035
을	-4.79126
에	-4.88661
고	-4.89055
은	-5.00568
다	-5.0233
지	-5.06949
를	-5.31099
한	-5.32484
▁너무	-5.35059
▁이	-5.41656
만	-5.43414
▁정말	-5.45807
로	-5.54454
게	-5.57974
▁진짜	-5.64958
나	-5.69212
과	-5.79218
영화	-5.80345
어	-5.95616
리	-5.97613
라	-5.97632
기	-5.97824
인	-5.98234
으로	-6.00335
하고	-6.04247
네	-6.0536
▁그	-6.05991
서	-6.07321
▁안	-6.09856
들	-6.1152
▁잘	-6.11984
에서	-6.15858
▁점	-6.16177
▁왜	-6.20317
와	-6.207
▁다	-6.21342
아	-6.21809
요	-6.22422
▁이런	-6.2287
▁수	-6.23428
▁아	-6.24454
▁더	-6.25421
하는	-6.28257
네요	-6.30323
자	-6.32079
해	-6.32482
▁그냥	-6.32516
면	-6.40112
거	-6.4134
▁드라마	-6.4349
▁본	-6.44821
음	-6.4655
수	-6.47579
스	-6.48673
지만	-6.49962
▁보고	-6.52869
▁내	-6.53188
▁연기	-6.54534
▁평점	-6.55605
니	-6.58393
시	-6.61905
▁한	-6.62073
야	-6.64426
▁좀	-6.64689
함	-6.64894
사	-6.65571
▁개	-6.65742
▁영화를	-6.65947
대	-6.68061
▁참	-6.69199
하게	-6.71368
▁나	-6.72391
여	-6.72708
드	-6.74159
보	-6.75015
▁쓰레기	-6.75273
▁못	-6.75784
▁스토리	-6.75791
이다	-6.75976
▁최고	-6.76168
하	-6.77662
▁이거	-6.77734
▁완전	-6.79794
▁이건	-6.79936
▁봤는데	-6.8036
▁내가	-6.80664
일	-6.80713
▁없는	-6.8179
하다	-6.82308
진	-6.83029
▁최고의	-6.83559
임	-6.83656
▁없다	-6.84193
데	-6.84211
듯	-6.84805
▁영화가	-6.84972
미	-6.84996
던	-6.85205
는데	-6.85409
▁영화는	-6.86444
들이	-6.87276
보다	-6.88081
할	-6.88475
구	-6.89065
해서	-6.89617
까지	-6.90315
주	-6.90324
▁있는	-6.90621
▁좋은	-6.91263
우	-6.91665
안	-6.91902
성	-6.9264
냐	-6.92843
▁이게	-6.93579
정	-6.93744
▁다시	-6.94534
▁이렇게	-6.95333
▁난	-6.95352
▁것	-6.9627
▁보는	-6.97049
신	-6.97766
적	-6.99843
▁뭐	-7.02378
랑	-7.02897
▁그리고	-7.03171
▁가	-7.03324
건	-7.03959
▁말	-7.03992
▁보	-7.05494
치	-7.06128
중	-7.07994
▁오	-7.08337
트	-7.08503
상	-7.09412
려	-7.10605
전	-7.10916
▁평점이	-7.1126
▁시간	-7.11563
▁넘	-7.12009
보고	-7.12444
▁많이	-7.1323
▁역시	-7.13236
▁저	-7.1405
장	-7.14278
▁지	-7.14364
▁감동	-7.14624
▁재밌게	-7.14828
▁하	-7.15191
▁주	-7.1564
▁전	-7.15879
인데	-7.16293
▁또	-7.16932
▁별로	-7.17249
▁대	-7.17924
마	-7.18256
물	-7.1863
▁마지막	-7.19104
▁작품	-7.1941
부	-7.19659
질	-7.20615
▁생각	-7.21251
▁재미	-7.22923
러	-7.23592
▁볼	-7.23661
▁기	-7.237
▁감독	-7.24208
비	-7.2454
▁하는	-7.27766
히	-7.27901
습니다	-7.29018
때	-7.29111
▁꼭	-7.29611
▁액션	-7.2972
것	-7.29876
화	-7.31134
오	-7.31148
▁무	-7.31581
어요	-7.31616
했다	-7.32265
제	-7.32447
원	-7.3264
입니다	-7.32856
적인	-7.33478
▁지금	-7.35255
▁무슨	-7.35363
▁아깝다	-7.35741
같은	-7.3642
▁이야기	-7.36738
▁다른	-7.37264
▁가장	-7.37394
▁별	-7.37713
▁사	-7.37846
용	-7.3786
하지	-7.37879
▁명작	-7.37924
▁없고	-7.38216
▁자	-7.38383
라고	-7.39527
▁하나	-7.39793
▁아니	-7.41597
식	-7.41636
▁일	-7.42021
세	-7.4245
▁한국	-7.425
있는	-7.42665
본	-7.42716
말	-7.43073
이나	-7.43158
걸	-7.43297
▁김	-7.4336
▁기대	-7.43633
씨	-7.43844
▁보면	-7.439
소	-7.44302
란	-7.44991
▁배우	-7.45365
▁중	-7.45922
▁할	-7.46045
▁비	-7.46303
내	-7.46422
된	-7.4676
▁조	-7.47322
부터	-7.47487
줄	-7.47732
▁유	-7.48298
영	-7.4863
감	-7.48789
▁연출	-7.48953
그	-7.49128
▁만든	-7.49314
▁미	-7.49872
▁느낌	-7.50102
▁같은	-7.50343
▁편	-7.50438
당	-7.51142
▁짱	-7.51362
▁일본	-7.51618
▁분	-7.5162
▁사랑	-7.51863
▁내용	-7.51995
▁와	-7.52274
군	-7.52433
더	-7.52484
좀	-7.53122
라는	-7.53263
으면	-7.53498
▁정	-7.54389
작	-7.54557
▁마	-7.5457
▁년	-7.54686
르	-7.55355
무	-7.55784
▁돈	-7.5597
▁말이	-7.56232
▁처음	-7.56835
인지	-7.57252
▁때	-7.57782
▁하지만	-7.57837
없는	-7.58231
선	-7.58268
호	-7.58339
에게	-7.58781
남	-7.5904
▁좋아	-7.591
운	-7.59162
린	-7.59927
▁끝까지	-7.61237
긴	-7.6135
▁여자	-7.62297
모	-7.62434
개	-7.6273
▁두	-7.62737
▁좋다	-7.63507
▁솔직히	-7.63638
▁거	-7.63845
한다	-7.64606
조	-7.64715
동	-7.65022
▁뭔가	-7.65709
▁해	-7.65831
들의	-7.65918
바	-7.65978
▁있다	-7.66331
▁영화다	-7.66658
▁전혀	-7.66835
며	-7.66927
디	-7.67356
래	-7.67537
▁사람	-7.67563
처럼	-7.6772
죠	-7.67735
▁제	-7.67792
▁굿	-7.67871
크	-7.68542
면서	-7.68646
▁시	-7.69115
드라마	-7.69377
간	-7.69472
울	-7.69859
워	-7.70191
▁어	-7.70224
▁아주	-7.7027
유	-7.70562
▁근데	-7.70808
▁최악	-7.71192
▁세	-7.71334
▁같다	-7.71704
연	-7.71745
▁그래도	-7.71787
▁알	-7.71868
▁재밌다	-7.71977
심	-7.72367
▁신	-7.72556
▁애	-7.7259
생	-7.72669
▁인생	-7.72952
▁남	-7.73064
▁봤다	-7.73268
희	-7.73287
▁대한	-7.73757
두	-7.73989
타	-7.74106
길	-7.74112
▁모	-7.74191
인가	-7.74444
▁구	-7.74934
▁부	-7.75015
▁아니라	-7.75477
레	-7.75676
▁이영화	-7.76014
되는	-7.76032
었다	-7.7638
▁대박	-7.76707
▁많은	-7.76791
난	-7.76938
▁이걸	-7.77034
했던	-7.77457
합니다	-7.7783
▁봐도	-7.78405
▁어떻게	-7.78656
이랑	-7.78657
분	-7.78685
▁배우들	-7.78781
판	-7.7912
프	-7.79125
명	-7.79356
▁계속	-7.7954
구나	-7.79559
준	-7.79602
▁모두	-7.80011
이라	-7.80174
▁그런	-7.80699
▁한번	-7.8095
▁박	-7.80954
▁후	-7.8104
▁줄	-7.81332
▁살	-7.81357
▁최악의	-7.81362
까	-7.81741
노	-7.82092
▁내용이	-7.82182
▁재미없다	-7.82295
▁코미디	-7.8234
들은	-7.82436
▁재미있게	-7.82469
날	-7.82631
▁바	-7.82684
하면	-7.8274
때문에	-7.82858
단	-7.83194
재	-7.83268
▁장면	-7.83329
▁만들어	-7.83336
▁되	-7.83523
든	-7.83571
▁보다	-7.83626
▁급	-7.83965
경	-7.84098
▁모든	-7.8417
▁아닌	-7.84304
점	-7.8431
▁내내	-7.84343
▁반전	-7.8474
▁소	-7.8479
▁나오는	-7.84859
루	-7.84874
방	-7.85315
국	-7.85472
▁실망	-7.85878
▁진	-7.86807
▁않고	-7.86983
▁반	-7.87084
▁주인공	-7.87143
지는	-7.87422
봤는데	-7.87615
차	-7.87908
▁요즘	-7.88039
▁이제	-7.88229
▁보기	-7.88472
민	-7.88784
저	-7.88985
▁하고	-7.89526
▁이상	-7.89646
▁현실	-7.89827
관	-7.89831
▁명	-7.90604
▁딱	-7.90684
한테	-7.9074
▁강	-7.90899
없이	-7.91011
▁번	-7.91094
▁남자	-7.91256
발	-7.91447
잘	-7.91464
되	-7.92233
위	-7.93161
겨	-7.93271
하나	-7.93643
▁음악	-7.93662
급	-7.93724
님	-7.93747
티	-7.9389
겠다	-7.93956
편	-7.94143
▁우리	-7.9421
적으로	-7.94243
림	-7.94285
▁욕	-7.94378
▁감독이	-7.9483
▁원	-7.94903
▁이해	-7.94915
▁아름다운	-7.95165
파	-7.95313
연기	-7.95329
▁특히	-7.95331
▁절대	-7.95373
▁아니다	-7.95559
이라는	-7.95789
▁내용도	-7.95964
다니	-7.96023
엔	-7.96162
▁애니	-7.96256
▁연기가	-7.96357
▁추천	-7.96443
▁스릴러	-7.96909
▁조금	-7.97059
▁배	-7.97114
후	-7.97377
▁제일	-7.98
애	-7.98609
▁전개	-7.98673
▁개봉	-7.98798
▁연기도	-7.98845
하네	-7.98888
지도	-7.98918
▁보다가	-7.98949
생각	-7.99202
▁만드는	-7.99263
▁듯	-7.99298
▁시간이	-7.99825
▁나는	-7.9996
▁공포	-8.00405
▁수준	-8.00483
▁속	-8.00855
진짜	-8.00877
▁눈	-8.01031
▁스토리가	-8.01049
▁차라리	-8.01104
▁우	-8.01419
▁않은	-8.01536
▁제대로	-8.01911
산	-8.02738
하네요	-8.02977
터	-8.0342
▁건	-8.03485
▁않는	-8.03726
▁장	-8.03844
▁걸	-8.03901
어서	-8.03983
피	-8.04188
▁싶다	-8.04268
▁막장	-8.0449
없다	-8.04603
▁불	-8.05124
살	-8.05193
▁끝	-8.05206
형	-8.05298
▁가족	-8.05301
이란	-8.05381
보면	-8.05425
져	-8.05584
달	-8.05707
▁재밌	-8.05742
▁진심	-8.05791
▁년대	-8.0588
▁점도	-8.06197
▁미국	-8.06433
하지만	-8.0651
박	-8.06511
▁위	-8.06511
▁연기력	-8.06681
▁대사	-8.06772
다가	-8.075
▁기억	-8.07662
매	-8.07768
▁캐릭터	-8.07874
▁아니고	-8.08118
버	-8.08234
▁정도	-8.08238
즈	-8.08305
▁공감	-8.08344
너무	-8.08431
니까	-8.08821
▁재미도	-8.09082
▁초	-8.09211
▁도대체	-8.09474
망	-8.09474
▁아직도	-8.09551
▁여	-8.09778
▁나름	-8.10003
▁노	-8.10014
반	-8.10418
체	-8.10677
▁남는	-8.10688
들을	-8.10725
▁만들	-8.10808
▁때문에	-8.10828
▁걍	-8.10982
▁나오	-8.11676
카	-8.11742
▁마지막에	-8.12015
▁표현	-8.12096
▁발	-8.12124
▁영화라고	-8.12205
▁없	-8.12245
▁스토리도	-8.12448
하기	-8.12465
공	-8.12562
▁피	-8.12601
▁결말	-8.12781
▁보면서	-8.12906
▁파	-8.1315
▁여운이	-8.13276
▁원작	-8.13364
▁우리나라	-8.13459
▁스	-8.13477
▁동	-8.13515
▁아까운	-8.13559
▁울	-8.13815
이고	-8.13892
▁공	-8.14043
▁눈물	-8.14192
는거	-8.14299
이라고	-8.14371
▁엄청	-8.14451
▁사람들	-8.14748
▁제목	-8.14834
려고	-8.1496
▁나도	-8.14992
▁재밌어요	-8.15199
현	-8.15258
릴	-8.15393
죽	-8.15473
키	-8.15658
▁심	-8.15817
인듯	-8.15891
코	-8.16074
는게	-8.16122
년	-8.16179
▁오랜만에	-8.16751
▁주는	-8.16784
못	-8.17073
▁좋았다	-8.17332
▁날	-8.17342
▁재	-8.17533
던데	-8.17859
▁나온	-8.17944
▁사실	-8.17978
배우	-8.18194
▁영상	-8.18489
▁되는	-8.18619
▁감독의	-8.18643
건지	-8.18688
▁예	-8.18895
▁화	-8.19131
▁공포영화	-8.19269
▁영화입니다	-8.19289
▁시리즈	-8.19369
뿐	-8.19708
했는데	-8.1988
▁들	-8.20012
격	-8.20119
▁오늘	-8.20502
▁멋진	-8.20766
▁뻔한	-8.20792
문	-8.21051
▁영화의	-8.21119
▁웃	-8.21469
해요	-8.21588
▁시나리오	-8.22017
▁소재	-8.22378
▁성	-8.22379
속	-8.22501
▁될	-8.22516
실	-8.22647
▁보는내내	-8.22653
▁시작	-8.22969
▁있	-8.23043
▁이해가	-8.23297
으	-8.23303
▁강추	-8.23481
집	-8.23549
보는	-8.23586
▁개인적으로	-8.23677
▁좋아하는	-8.23939
▁지루함	-8.24288
▁차	-8.24377
쳐	-8.24444
따	-8.24525
▁인간	-8.24529
▁망	-8.24537
름	-8.24586
▁인	-8.24595
토	-8.2469
▁지루하고	-8.24764
▁배우들의	-8.24825
▁어떤	-8.24867
▁긴장감	-8.24907
예	-8.25058
▁수작	-8.25328
▁봤습니다	-8.25389
▁뭔	-8.25515
▁쓰	-8.25522
▁뭘	-8.25605
녀	-8.257
▁막	-8.25771
▁없음	-8.26009
▁좋고	-8.26025
▁그저	-8.26073
테	-8.26271
▁봤던	-8.26274
▁지루한	-8.26349
라도	-8.26386
것도	-8.26396
▁몇	-8.26419
▁영	-8.26457
▁생각이	-8.26607
▁연	-8.27054
포	-8.27412
▁아무리	-8.2772
태	-8.27763
▁않	-8.27884
배	-8.28089
는지	-8.28164
▁노래	-8.28309
▁재미가	-8.2833
밖에	-8.28433
▁맞	-8.28708
▁최고다	-8.28721
▁기분	-8.28776
있다	-8.28832
더라	-8.28877
장면	-8.28996
▁가슴	-8.29097
▁허	-8.29487
▁재밌는	-8.29573
었는데	-8.29616
▁제발	-8.29782
▁알바	-8.29958
▁싶은	-8.30327
업	-8.30425
해도	-8.30584
움	-8.31167
▁졸작	-8.31198
▁설정	-8.3132
력	-8.31572
▁괜찮은	-8.31594
▁사람이	-8.31618
▁함께	-8.31765
잡	-8.31852
정도	-8.31999
만큼	-8.3216
▁아이	-8.32706
▁애니메이션	-8.32959
계	-8.32971
▁없이	-8.32995
▁물	-8.33006
▁캐스팅	-8.33049
▁한국영화	-8.33215
▁큰	-8.33314
▁몰입도	-8.33319
였다	-8.33519
리는	-8.33639
▁재밋	-8.33793
▁얼마나	-8.33829
먹	-8.33882
없	-8.34005
▁결국	-8.34202
▁점이	-8.34228
▁머	-8.34329
▁매	-8.34424
하며	-8.3454
사람	-8.34557
▁된	-8.34607
짱	-8.34875
슬	-8.34956
▁후회	-8.35091
▁선	-8.3519
극	-8.35285
▁영화에	-8.35526
▁작가	-8.36038
▁보세요	-8.36287
종	-8.36823
른	-8.36846
아니	-8.3692
▁더빙	-8.36933
▁못한	-8.36971
▁베	-8.3721
▁지루하다	-8.37508
▁점은	-8.37541
중에	-8.3796
▁안되는	-8.38203
학	-8.38251
▁그렇게	-8.38443
▁최	-8.3878
▁영화로	-8.39119
구만	-8.39217
▁만화	-8.39247
하면서	-8.39454
류	-8.39536
락	-8.40257
석	-8.40294
▁외	-8.40442
▁매우	-8.4049
했	-8.40538
▁평	-8.40575
었던	-8.4085
갈	-8.41064
▁기억에	-8.41154
▁웃음	-8.41176
역	-8.41182
봄	-8.41323
▁같이	-8.41683
▁전쟁	-8.41797
▁류	-8.41827
▁만	-8.41906
▁토	-8.42037
대로	-8.42145
▁극장에서	-8.42161
론	-8.4238
았	-8.42511
▁연기는	-8.4265
▁코믹	-8.42844
봐도	-8.42873
능	-8.43247
등	-8.43265
▁너	-8.43343
불	-8.43678
▁좋아요	-8.43757
통	-8.43943
볼	-8.44043
교	-8.4407
▁애들	-8.44078
양	-8.44156
글	-8.4416
행	-8.44166
설	-8.44422
▁치	-8.44701
했음	-8.44729
짐	-8.44855
▁그래서	-8.44894
담	-8.45131
정말	-8.4516
▁예술	-8.45316
▁분위기	-8.45778
▁길	-8.45864
▁로	-8.4595
회	-8.46129
▁별점	-8.46157
▁총	-8.46232
주는	-8.46393
▁중국	-8.46612
▁죽	-8.46622
▁행복	-8.4665
▁너무나	-8.46657
잇	-8.46706
환	-8.47004
▁코	-8.47274
▁마음이	-8.47293
▁당	-8.47439
스트	-8.47484
▁모르겠다	-8.47572
▁억지	-8.47647
이지만	-8.4769
버린	-8.4785
▁단	-8.47874
▁준	-8.47888
▁보지	-8.48326
▁필요	-8.48373
▁한다	-8.48404
▁문제	-8.48422
▁엔딩	-8.48451
▁하나도	-8.48539
씬	-8.48556
하는데	-8.48824
▁봤어요	-8.48957
▁들어	-8.49084
▁존나	-8.49265
보단	-8.49273
이야	-8.49385
▁회	-8.49434
번	-8.49467
▁호	-8.49599
▁것이	-8.49655
기에	-8.49732
▁잼	-8.49843
▁있고	-8.50033
입	-8.50253
▁대체	-8.50391
▁내용은	-8.50733
▁자기	-8.50828
꺼	-8.50941
▁위해	-8.5101
▁존	-8.51113
이었다	-8.51247
▁않는다	-8.51375
▁누가	-8.51396
▁상	-8.51403
▁그나마	-8.51409
기도	-8.51488
▁적	-8.51528
▁정신	-8.5191
작품	-8.51969
▁위한	-8.51991
군요	-8.5204
봐	-8.52092
▁재밌음	-8.52096
▁없어	-8.52224
▁주연	-8.52232
넘	-8.52324
투	-8.52419
▁음	-8.52532
▁알고	-8.52542
된다	-8.52619
기는	-8.52623
금	-8.52832
▁등	-8.52941
▁글	-8.53158
니다	-8.53335
았다	-8.53528
▁미친	-8.53544
재밌	-8.5357
▁느낌이	-8.53848
증	-8.53884
케	-8.53956
▁눈물이	-8.54047
▁점대	-8.54189
절	-8.54213
▁로맨스	-8.54264
▁그만	-8.54298
▁노잼	-8.54425
슨	-8.54767
돌	-8.54859
참	-8.54907
▁출연	-8.55065
왜	-8.55122
▁똥	-8.55153
을까	-8.5516
▁보게	-8.55215
▁입	-8.55377
▁결말이	-8.55419
머	-8.55523
▁가슴이	-8.5579
▁잡	-8.55818
였	-8.5584
스토리	-8.5591
▁백	-8.5606
이네요	-8.56063
해야	-8.56132
악	-8.56186
▁갈수록	-8.56248
내용	-8.56255
▁졸	-8.56284
이네	-8.563
난다	-8.56712
▁봐야	-8.56782
▁훨씬	-8.57048
▁잠	-8.57127
감독	-8.5721
▁있을	-8.57299
▁아무	-8.57458
▁높	-8.57501
느낌	-8.57606
▁시즌	-8.57635
▁엄마	-8.57711
직	-8.57876
▁모습	-8.5803
▁웃기	-8.58103
▁매력	-8.58189
언	-8.58288
평	-8.58381
▁감동이	-8.58433
▁밖에	-8.58521
▁그러	-8.58537
인줄	-8.58552
▁타	-8.58658
▁재미없음	-8.5885
▁어느	-8.59022
▁추	-8.59143
▁악	-8.59312
결	-8.59422
▁마음	-8.59462
▁많	-8.59534
알	-8.59589
보니	-8.59627
병	-8.59629
▁꽤	-8.59817
▁약	-8.59852
소리	-8.59883
듯한	-8.60059
▁간	-8.60073
▁발연기	-8.60215
라서	-8.60373
▁메	-8.60385
다고	-8.60457
▁안되	-8.60842
▁구성	-8.6085
잼	-8.60858
▁간만에	-8.60998
▁허접	-8.61093
색	-8.61189
▁다큐	-8.61318
▁유치	-8.61448
▁변	-8.61594
▁기억이	-8.61867
법	-8.6199
▁어설픈	-8.62005
건가	-8.62167
▁극	-8.62354
▁쓰레기영화	-8.62411
▁없었다	-8.62445
복	-8.62451
▁다들	-8.6253
▁지루	-8.62652
감동	-8.6288
▁연기를	-8.62962
뻔	-8.6315
▁감	-8.63166
였음	-8.63188
짓	-8.63296
▁야	-8.63423
▁딸	-8.63524
▁열	-8.63752
칠	-8.63783
▁성룡	-8.63809
▁재밌고	-8.64133
쉬	-8.64295
▁자체	-8.64346
너	-8.64577
▁영화네요	-8.64584
어야	-8.64601
▁따라	-8.64859
▁잔잔한	-8.65012
치는	-8.65065
나요	-8.65182
▁영화관에서	-8.65206
▁보여주는	-8.65211
거야	-8.65246
▁손	-8.65341
▁점수	-8.65359
▁아쉽다	-8.65564
께	-8.65685
온	-8.65866
▁걸작	-8.65939
▁재미있다	-8.6597
범	-8.66112
베	-8.66321
거지	-8.66443
놓고	-8.6651
강	-8.66512
▁올	-8.66735
▁않다	-8.66775
▁뿐	-8.66782
었	-8.66782
▁있었	-8.66929
▁당시	-8.66955
기를	-8.67445
출	-8.6776
▁얘기	-8.67872
렸	-8.67883
▁실	-8.67895
▁감동도	-8.6796
▁상황	-8.68033
▁영화중	-8.68141
나오는	-8.68164
싶	-8.68241
권	-8.68523
▁관객	-8.68544
쓰	-8.68751
▁여주인공	-8.68806
션	-8.68824
▁멋있	-8.68843
▁볼만한	-8.68927
적이	-8.68933
▁다음	-8.68983
▁찾아	-8.68998
수준	-8.69187
평점	-8.69307
▁진정한	-8.69307
▁이딴	-8.69315
▁평가	-8.69382
있	-8.69495
브	-8.69584
블	-8.69603
겠지	-8.69705
▁재미없	-8.69979
됨	-8.69979
▁주고	-8.7003
있고	-8.70122
▁사람들이	-8.70139
▁네이버	-8.70165
존	-8.70198
▁데	-8.70578
치고	-8.70622
에도	-8.70745
▁영상미	-8.70772
▁배우들이	-8.70832
짜	-8.70832
▁바로	-8.70909
▁감동적인	-8.71047
▁의미	-8.71084
천	-8.71139
▁잼있	-8.71183
▁아님	-8.71287
▁같	-8.71399
▁생각보다	-8.71417
슴	-8.7147
될	-8.71478
라면	-8.71678
▁찾	-8.71712
▁친구	-8.71824
땜에	-8.71919
겠	-8.71942
▁전부	-8.72038
열	-8.72135
▁배경	-8.7215
는건	-8.72168
완	-8.7217
▁힘	-8.7221
▁맘에	-8.72213
▁좋은데	-8.72223
승	-8.72225
▁여기	-8.72371
리고	-8.72481
▁약간	-8.72508
▁오래	-8.72515
▁역	-8.72838
이라도	-8.72976
▁중간에	-8.73025
▁스릴	-8.73043
수가	-8.73125
▁영화였다	-8.73133
▁얼굴	-8.73222
었음	-8.7324
었어요	-8.73259
▁먹	-8.73413
혀	-8.73486
막	-8.73514
최고	-8.73599
끼	-8.73844
좋아	-8.73951
▁카	-8.74026
플	-8.74107
났	-8.74422
▁상당히	-8.74437
▁재미있는	-8.74654
▁각본	-8.7476
쓰레기	-8.74829
척	-8.74908
▁같아요	-8.74926
▁살아	-8.75156
웃	-8.75253
사랑	-8.75276
근	-8.75354
▁것을	-8.7541
순	-8.75426
▁갈	-8.75469
▁스토리는	-8.75498
▁있을까	-8.75539
▁그러나	-8.75713
▁판타지	-8.75772
▁버	-8.75804
▁대해	-8.75831
▁나올	-8.75898
▁재미는	-8.75919
했지만	-8.76067
▁뭐야	-8.76291
할때	-8.7632
▁생각을	-8.76357
▁소리	-8.76429
▁준다	-8.76926
▁경	-8.76949
▁암	-8.77299
▁그대로	-8.77315
친	-8.77345
▁것도	-8.77351
▁거의	-8.77707
▁뭐지	-8.77722
▁레	-8.77752
▁같은데	-8.77759
▁줄거리	-8.77766
▁높은	-8.77772
▁장난	-8.77817
▁충격	-8.77838
▁감성	-8.78177
기만	-8.78254
광	-8.78294
▁왕	-8.78472
초	-8.78599
▁꿈	-8.7864
▁종	-8.78674
느	-8.78845
▁했는데	-8.78878
▁담	-8.78894
창	-8.7893
나는	-8.78933
만한	-8.78938
없고	-8.79074
▁추억	-8.79347
▁재미없는	-8.79467
새	-8.79572
구요	-8.79649
으나	-8.79685
셨	-8.79727
목	-8.79759
재밋	-8.79777
▁크	-8.79792
낸	-8.79944
▁에서	-8.79963
재미	-8.79988
표	-8.8008
찍	-8.80122
▁따	-8.80173
▁멜로	-8.80365
땐	-8.80365
▁혼자	-8.80434
▁감동을	-8.80442
▁좋	-8.80447
▁재미있	-8.80927
▁재미있어요	-8.80946
외	-8.80994
▁이영화를	-8.81033
▁정도로	-8.8104
▁존재	-8.8105
해라	-8.81085
▁장르	-8.81096
시키	-8.81227
▁순	-8.813
▁나와서	-8.81301
더니	-8.81351
▁주제	-8.81374
▁이름	-8.81472
▁갑자기	-8.81635
들에게	-8.81735
것이	-8.8177
▁재밌네요	-8.81776
▁아직	-8.81944
에선	-8.81962
▁저런	-8.81968
맨	-8.82088
▁감정	-8.82109
▁나왔	-8.82164
돈	-8.82282
다는	-8.82369
▁어디서	-8.82401
백	-8.82466
▁아버지	-8.82519
졌	-8.82708
▁제가	-8.8276
▁천	-8.8287
▁훌륭한	-8.8296
▁집중	-8.82969
아서	-8.83114
▁있지만	-8.83242
이지	-8.83373
액션	-8.83404
향	-8.83437
레이	-8.83438
▁머리	-8.8344
▁봤지만	-8.83466
린다	-8.83505
▁말도	-8.83582
진다	-8.83637
▁일단	-8.83642
▁포스터	-8.83866
술	-8.83875
▁초딩	-8.83893
추	-8.83907
이야기	-8.83937
▁감독님	-8.83944
▁양	-8.84025
▁굉장히	-8.84114
약	-8.84264
조차	-8.84571
▁된다	-8.8467
▁제작	-8.84693
▁방송	-8.84741
▁헐	-8.84777
▁원작을	-8.84828
▁끝나	-8.84973
▁영화인데	-8.8499
▁마음에	-8.85027
▁새로운	-8.85063
▁여배우	-8.8523
▁이런영화	-8.85292
분들	-8.8531
▁새	-8.85332
▁않았	-8.85539
▁몰입	-8.85555
재미있	-8.85591
▁빨리	-8.85642
앗	-8.85679
합	-8.85707
▁좋은영화	-8.85819
을때	-8.85838
햇	-8.86018
영화는	-8.86036
덕	-8.86063
▁궁금	-8.86076
철	-8.86089
할수	-8.86103
▁아이들	-8.86125
주의	-8.86136
곡	-8.86136
들어	-8.86181
들도	-8.86193
침	-8.8624
▁현	-8.86241
않	-8.86242
▁삼	-8.86264
▁몸	-8.86335
쪽	-8.86341
▁역사	-8.86437
▁금	-8.86499
처	-8.86528
▁봐서	-8.86543
▁태	-8.86664
▁팬	-8.86703
이라면	-8.8682
예요	-8.86829
▁달	-8.87007
▁극장판	-8.8702
련	-8.87099
▁그리	-8.87134
▁년이	-8.87146
▁나이	-8.87149
▁보니	-8.87235
▁화면	-8.87355
▁예상	-8.87387
▁뭐냐	-8.87432
▁낮은	-8.87436
▁만점	-8.87471
▁항상	-8.87648
했습니다	-8.87886
▁나의	-8.87893
▁비교	-8.88027
▁사회	-8.88039
퍼	-8.88102
▁점을	-8.88109
▁주인공이	-8.88264
▁윤	-8.88272
▁장면이	-8.88311
빈	-8.88476
건데	-8.88527
정도로	-8.8853
없음	-8.88844
▁첨	-8.88941
▁질	-8.88972
다면	-8.89047
시대	-8.89092
커	-8.89144
▁흥행	-8.89309
▁맛	-8.89335
▁꿀잼	-8.89387
▁연출력	-8.89425
▁있어서	-8.89442
▁영화임	-8.89551
줘	-8.89582
훈	-8.8962
▁언제	-8.89754
▁여주	-8.8982
▁성우	-8.89857
나오	-8.89869
혜	-8.89972
스러운	-8.89983
잔	-8.90162
뭐	-8.90196
▁책	-8.90238
되어	-8.90274
▁요	-8.90456
거나	-8.90512
▁처음부터	-8.90526
▁대단한	-8.90589
▁개연성	-8.90673
▁찍	-8.90714
▁비해	-8.90867
▁생각하게	-8.90988
에는	-8.91034
잖아	-8.91134
▁의도	-8.91212
▁휴	-8.91326
좋	-8.91328
라니	-8.91498
▁저는	-8.9157
봐서	-8.91648
▁보여주	-8.91667
보기	-8.91746
▁깨	-8.91823
▁작	-8.91862
여자	-8.91944
▁첫	-8.91972
같이	-8.91998
▁방	-8.92111
▁비디오	-8.92192
▁누구	-8.92319
▁물론	-8.92398
▁짜증	-8.9243
▁산	-8.92665
▁충분히	-8.92716
▁봐라	-8.92901
▁평점을	-8.93004
채	-8.93042
▁되어	-8.93124
▁옛날	-8.93209
▁뭐가	-8.93245
견	-8.93261
지않	-8.93292
습	-8.93326
▁관	-8.93359
▁봤음	-8.93391
료	-8.93615
각	-8.93862
▁한마디로	-8.93885
▁생	-8.93944
▁목	-8.93956
▁세계	-8.93966
▁점점	-8.94025
것같다	-8.94056
▁삼류	-8.94205
맞	-8.94242
길래	-8.94268
한거	-8.9451
▁있어	-8.94605
영화를	-8.94626
▁뻔	-8.94682
▁하지	-8.94871
▁리	-8.9491
▁통	-8.94996
▁라는	-8.95084
▁자체가	-8.95143
▁그런지	-8.95264
▁못하는	-8.95272
▁댓글	-8.95321
놈	-8.95344
▁가지고	-8.95508
듬	-8.9552
▁병	-8.95613
했어요	-8.95699
▁만들었	-8.95766
▁편집	-8.95971
▁으	-8.96092
▁지루해	-8.96185
숙	-8.9654
▁없어서	-8.96555
▁너무너무	-8.96649
▁아까움	-8.968
여서	-8.96823
보다는	-8.96999
으니	-8.97021
족	-8.97152
▁했다	-8.97161
▁흠	-8.97165
메	-8.97199
이상	-8.97263
츠	-8.9729
▁짜	-8.97384
▁시대	-8.97398
▁포	-8.97422
▁나와	-8.9748
▁실화	-8.97496
▁돌	-8.9759
시간	-8.97608
▁써	-8.97742
▁볼만	-8.97945
하여	-8.98027
김	-8.98165
▁봄	-8.98169
▁과거	-8.98198
거다	-8.9824
▁그때	-8.983
▁있는데	-8.98334
▁돈주고	-8.98496
엇	-8.98527
▁놀	-8.98551
▁순간	-8.9856
빠	-8.98613
▁만족	-8.98789
였는데	-8.98836
▁잘못	-8.98847
▁사람은	-8.98915
▁싶	-8.98972
▁좋네요	-8.99051
적이고	-8.99117
▁도저히	-8.99117
▁불륜	-8.99128
▁터	-8.99208
▁부족	-8.99325
부분	-8.99328
해지는	-8.99537
귀	-8.99545
▁당신	-8.99736
▁완벽	-8.99737
▁감동적이	-8.99745
▁원래	-9
▁안된다	-9.0001
써	-9.00229
▁더럽게	-9.00286
▁두번	-9.00305
▁다시봐도	-9.00403
▁감독은	-9.00426
▁나온다	-9.0044
▁이것도	-9.00465
▁소설	-9.00483
욕	-9.00489
틀	-9.00523
▁있었다	-9.00532
▁그닥	-9.00765
▁무조건	-9.00976
▁말고	-9.01018
▁더욱	-9.01031
▁쳐	-9.01136
▁이유	-9.0114
▁초반	-9.01148
▁패	-9.01172
탄	-9.01173
▁예전에	-9.01213
청	-9.01253
도록	-9.01321
하냐	-9.01399
성이	-9.01442
▁어릴때	-9.01499
▁흥미진진	-9.01524
▁이영화는	-9.0181
▁재밌는데	-9.01855
▁창	-9.0197
▁월	-9.01998
버리	-9.02042
▁망작	-9.02056
▁대단	-9.02126
▁편이	-9.02147
▁지금까지	-9.02277
세요	-9.02309
허	-9.02387
되고	-9.02456
효	-9.02827
답	-9.02882
품	-9.02934
하니	-9.02939
▁영화라	-9.02984
▁노력	-9.03104
▁복수	-9.0311
▁참고	-9.03149
눈	-9.0317
▁좋겠다	-9.03184
▁어린	-9.03217
▁유치한	-9.03219
▁시절	-9.03248
▁게	-9.03323
▁엄청난	-9.03382
▁떠	-9.03409
▁귀	-9.03481
▁하다	-9.03572
▁어디	-9.03659
본다	-9.0373
쯤	-9.03969
▁따뜻한	-9.04024
▁아쉬운	-9.04024
▁그래픽	-9.04028
런	-9.04151
▁슬픈	-9.04208
▁전개가	-9.04242
▁재밌었다	-9.04287
▁인물	-9.04298
▁이미	-9.0444
▁선택	-9.04564
간다	-9.0466
▁힘들	-9.047
▁오히려	-9.04801
같다	-9.04883
▁그게	-9.04891
▁라	-9.04912
록	-9.04934
▁아닌가	-9.05069
왕	-9.05168
변	-9.05197
▁뒤	-9.0538
특	-9.05471
▁귀신	-9.05582
▁괜히	-9.05584
졌다	-9.05748
거냐	-9.05771
이라니	-9.05801
▁후반부	-9.05802
▁재미없어	-9.05822
겠지만	-9.05836
▁죽음	-9.05873
▁없었	-9.05993
▁편은	-9.06023
▁아빠	-9.06025
▁것은	-9.0611
▁흥미	-9.06131
▁결혼	-9.06147
많	-9.06269
기가	-9.06291
▁모르고	-9.06429
거리	-9.06439
▁보는데	-9.0648
팬	-9.06509
패	-9.06517
▁괜찮	-9.06566
익	-9.0673
▁괴	-9.06959
▁낫다	-9.0706
염	-9.07168
아닌	-9.07263
▁계	-9.07347
▁평점은	-9.07503
▁해서	-9.07639
▁독	-9.07817
▁돌아	-9.0784
▁까	-9.07853
▁느끼	-9.07876
또	-9.07925
하시	-9.08015
▁설	-9.08108
▁낮	-9.08126
벌	-9.08191
놓	-9.08229
▁온	-9.0824
▁자꾸	-9.08273
사람들	-9.08295
▁예고편	-9.08373
▁설명	-9.08822
▁싸	-9.08838
걸까	-9.08854
▁쓴	-9.08862
▁했	-9.08914
끝	-9.08967
▁가는	-9.08995
했고	-9.0904
▁화이팅	-9.09154
▁돈이	-9.09188
▁전형적인	-9.09211
▁봤네요	-9.09254
필	-9.09295
모르	-9.09311
▁병맛	-9.09411
리가	-9.09423
▁재밌어	-9.09445
▁목소리	-9.09558
▁아쉽	-9.09563
▁앞으로	-9.09564
▁완벽한	-9.09603
▁영화보다	-9.09675
▁일본영화	-9.09686
롭	-9.09705
▁저질	-9.09718
▁바보	-9.09918
립	-9.09938
▁없을	-9.09942
▁사랑을	-9.09991
겟	-9.09997
▁없네	-9.10051
▁웃긴	-9.10105
▁사람들은	-9.10196
▁감사	-9.10199
▁이정도	-9.1026
▁상상	-9.10261
스럽다	-9.10358
전개	-9.10367
▁감상	-9.10376
규	-9.10413
▁프로	-9.10506
이냐	-9.10605
▁인간의	-9.10612
▁연출이	-9.10657
▁힘든	-9.10701
▁교	-9.10705
▁이러	-9.10787
고싶다	-9.10812
▁봐	-9.10923
▁배우가	-9.10986
▁투	-9.11041
마다	-9.1114
영화가	-9.11286
▁현재	-9.11297
기대	-9.11382
▁무서운	-9.11396
▁티	-9.11452
▁별루	-9.11465
▁여성	-9.11478
▁합니다	-9.11497
찬	-9.11572
주세요	-9.11609
▁모르는	-9.11692
▁있음	-9.11724
▁세상	-9.11781
▁허무	-9.1185
▁알게	-9.11869
▁반전이	-9.11887
▁나라	-9.12
링	-9.12076
▁대한민국	-9.12077
▁늘	-9.12113
▁집	-9.12252
▁부족한	-9.12261
을듯	-9.12269
뜨	-9.12431
▁미화	-9.12441
▁그런데	-9.12481
하던	-9.1249
▁억지로	-9.12823
▁아무것도	-9.12944
▁년전	-9.12953
같	-9.12953
나서	-9.1304
였습니다	-9.13042
▁완성도	-9.13148
놈들	-9.13182
▁뭔지	-9.13347
▁프랑스	-9.13494
▁여운	-9.13555
▁키	-9.13562
▁골	-9.13622
함을	-9.13634
▁개그	-9.13673
▁좀비	-9.13678
들과	-9.13691
보는데	-9.13777
▁형	-9.13784
▁지나	-9.13888
봐라	-9.13898
▁몰	-9.13951
▁절	-9.13995
딩	-9.14041
▁이상한	-9.14105
▁만나	-9.14351
는걸	-9.14485
▁이번	-9.14527
만든	-9.14574
삼	-9.14583
▁느끼게	-9.14602
킹	-9.14625
▁우연히	-9.14649
▁느낄	-9.14684
하는거	-9.14718
시켜	-9.14852
▁믿고	-9.14982
▁인정	-9.15024
▁신기	-9.15051
멋	-9.15063
▁없네요	-9.15078
▁기대하고	-9.15093
▁진실	-9.15163
▁남주	-9.15235
지루	-9.1524
▁안보	-9.15266
배우들	-9.15307
▁그래	-9.15359
▁대작	-9.15364
▁평점에	-9.15451
좋은	-9.15467
▁탄	-9.1549
이에요	-9.15531
남자	-9.15664
▁액션도	-9.15705
▁이런거	-9.15795
▁알았다	-9.15832
먼	-9.15834
▁좋음	-9.15902
▁만들지	-9.15935
듣	-9.16077
재미없	-9.16159
▁문	-9.16182
▁바람	-9.16407
▁좋았어요	-9.16416
▁스타일	-9.16477
▁킬링타임용	-9.16593
성을	-9.16745
▁있다는	-9.16799
▁메세지	-9.168
▁믿	-9.16837
▁천재	-9.16857
▁비추	-9.16947
▁비슷한	-9.16951
▁굳	-9.16971
▁이리	-9.17105
▁서로	-9.17144
▁수준이	-9.17162
▁진행	-9.17204
▁청춘	-9.17245
아이	-9.17249
▁됐	-9.17299
야지	-9.1732
▁시청률	-9.17369
▁이런걸	-9.17379
올	-9.17383
하세요	-9.17467
▁지금도	-9.17481
▁전작	-9.1762
▁이야기를	-9.1763
▁작품성	-9.17728
별	-9.17736
곤	-9.17751
한데	-9.17755
일까	-9.17927
▁처음으로	-9.18044
▁싶어	-9.18083
만으로도	-9.18151
▁이후	-9.18182
▁용	-9.18187
시리즈	-9.1833
▁교훈	-9.18485
껏	-9.18539
함이	-9.18629
▁유머	-9.18681
▁아이들이	-9.18688
전에	-9.18744
▁시간낭비	-9.19042
▁대단하다	-9.19145
▁특유의	-9.19187
싸	-9.19231
▁처	-9.19583
에요	-9.19705
▁황	-9.19743
는것	-9.19811
튼	-9.1982
누	-9.19953
▁코메디	-9.19998
▁어렸을때	-9.20046
풍	-9.20195
얼	-9.202
▁부분	-9.20298
▁졸라	-9.20305
▁실제	-9.20316
▁디	-9.20354
▁볼수	-9.20418
▁저도	-9.20503
▁액션영화	-9.20644
▁숨	-9.20688
▁재미있고	-9.20739
▁왜이리	-9.20907
▁년도	-9.21014
▁마무리	-9.21043
가서	-9.21122
▁가치	-9.21123
십	-9.21131
뜻	-9.21148
▁관계	-9.21244
▁둘	-9.21287
▁불편	-9.21328
▁얼	-9.21355
▁짜증나	-9.2137
▁성장	-9.21482
더군요	-9.21497
▁꼬	-9.21512
속에	-9.21561
▁리메이크	-9.21754
힌	-9.21754
▁노출	-9.21816
▁속편	-9.21878
▁알았는데	-9.21882
드는	-9.22072
▁왠지	-9.2213
▁화려한	-9.22219
▁살인	-9.22242
▁듯한	-9.22283
▁게임	-9.22517
▁광	-9.22595
▁맥	-9.22731
▁나만	-9.22932
마저	-9.23123
▁유치하고	-9.23134
받	-9.23158
▁지난	-9.2327
어도	-9.23366
▁않을	-9.23378
▁해도	-9.23448
▁안나오	-9.23473
▁보여	-9.23482
▁마치	-9.23638
▁재미없고	-9.23641
▁무엇보다	-9.23686
인거	-9.23723
▁최악이다	-9.2373
▁확	-9.23783
▁진부한	-9.23826
스터	-9.23835
▁것이다	-9.23864
▁트	-9.23869
로서	-9.23878
영화다	-9.23977
▁생각해	-9.24011
으며	-9.24057
났다	-9.24078
안되	-9.24108
▁모습이	-9.2415
▁관심	-9.24159
▁이젠	-9.2427
주고	-9.24279
▁니	-9.24318
였던	-9.24331
▁받아	-9.24424
봐야	-9.24522
으면서	-9.24536
▁겁나	-9.24576
한영화	-9.24658
▁그녀	-9.24701
▁지루하지	-9.24787
▁성인	-9.24918
▁삶	-9.24918
▁훌륭	-9.24922
놓은	-9.24968
▁명작이다	-9.24999
▁귀여운	-9.25055
▁정치	-9.25116
도없고	-9.25194
▁분명	-9.25213
▁사건	-9.2523
독	-9.25274
씩	-9.25372
▁않았다	-9.25397
▁근	-9.25485
▁보고나서	-9.25504
▁또한	-9.25511
▁바라	-9.25556
▁어찌	-9.2556
▁우울	-9.25637
▁관람	-9.25695
▁나쁜	-9.25724
▁빠져	-9.25772
▁작품이	-9.25785
때마다	-9.25841
▁경찰	-9.2588
징	-9.25975
▁알았	-9.25982
맛	-9.26009
윤	-9.26048
▁내인생	-9.26067
▁받	-9.26215
리스	-9.26265
▁인상	-9.26318
▁만들었다	-9.26364
시절	-9.26486
▁잘봤습니다	-9.26548
해주는	-9.26672
됐	-9.26693
▁자유	-9.26812
▁아오	-9.26828
▁주인공들	-9.26896
▁극장	-9.26985
▁사랑이	-9.26997
▁수가	-9.27029
것이다	-9.27046
▁않음	-9.27061
있는데	-9.2712
▁자연	-9.27272
동안	-9.27277
▁어이없	-9.27343
나라	-9.27427
▁전체적으로	-9.27481
했을	-9.27537
네여	-9.27595
면서도	-9.27633
▁점짜리	-9.2766
▁대충	-9.27841
엉	-9.27941
▁아니면	-9.28071
▁맞는	-9.28076
▁알아	-9.28113
▁군대	-9.2817
▁장면은	-9.28239
▁미래	-9.28245
낮	-9.2839
탈	-9.28403
이런	-9.28422
렌	-9.28439
▁그렇고	-9.2844
밀	-9.28452
▁아니지만	-9.28462
▁밑에	-9.28524
▁재밌었어요	-9.2855
▁지금봐도	-9.28592
혹	-9.28689
자가	-9.28727
▁떠나	-9.28789
▁마음을	-9.28797
하긴	-9.28927
▁심리	-9.28933
괴	-9.28982
▁씨	-9.28989
▁복	-9.29004
▁범죄	-9.29213
수록	-9.29304
처음	-9.29331
이면	-9.29344
▁아닐까	-9.29405
땅	-9.29432
봣	-9.29483
▁좋았습니다	-9.29501
▁성공	-9.2953
▁하면	-9.29595
꼬	-9.29609
▁똑같	-9.29763
렸다	-9.29768
▁카메라	-9.2982
하는게	-9.29839
려서	-9.29881
돼	-9.29896
▁행동	-9.29968
많이	-9.29972
▁답	-9.30029
▁평론가	-9.3007
을텐데	-9.30096
려는	-9.30288
하자	-9.30325
셔	-9.30359
량	-9.30361
▁소재는	-9.30418
그래	-9.30493
▁아놔	-9.30559
▁허접한	-9.30565
▁독립영화	-9.30616
▁세상에	-9.30623
놀	-9.30725
▁본다	-9.30866
탕	-9.30909
▁지루하	-9.30937
▁먼저	-9.30973
▁감사합니다	-9.30991
▁좋았고	-9.31105
▁나에게	-9.31218
모습	-9.31256
랄	-9.31279
다시	-9.31472
버렸다	-9.31511
▁엉성	-9.31531
▁중에	-9.31693
갔	-9.31749
별로	-9.31836
▁여자가	-9.31932
▁한편	-9.31959
한건	-9.32007
▁보여준	-9.32019
▁너무나도	-9.32033
▁아들	-9.32081
했는지	-9.32209
엿	-9.32246
오는	-9.32255
왔	-9.323
▁어색한	-9.32319
▁생각한다	-9.32362
▁어쩌	-9.32445
에겐	-9.32469
▁깊이	-9.3247
▁억	-9.32498
▁촬영	-9.32539
한번	-9.3258
로운	-9.32589
▁같습니다	-9.32597
▁상상력	-9.32614
▁눈이	-9.32667
픈	-9.32781
▁이어	-9.32836
▁삶을	-9.32866
▁중간중간	-9.32986
▁범인	-9.33012
▁모르겠	-9.33062
▁싫	-9.33256
했으면	-9.33276
짜리	-9.33343
그냥	-9.33355
짝	-9.33393
▁한계	-9.33404
아깝다	-9.3348
▁영화였습니다	-9.33498
뻐	-9.33502
▁상영	-9.33517
▁자신	-9.33576
▁맨	-9.33623
▁아까워	-9.33629
있게	-9.33643
▁입니다	-9.33684
▁점준다	-9.33715
▁앞	-9.33776
했어	-9.33791
▁역시나	-9.33939
▁취	-9.3397
▁다소	-9.33972
▁로맨틱	-9.34019
▁저예산	-9.34025
▁확실히	-9.3406
든다	-9.342
좋다	-9.3425
▁드라마를	-9.34274
▁알수	-9.34309
줘야	-9.34344
끔	-9.34414
▁질질	-9.34474
▁민	-9.34499
▁예전	-9.34521
▁깊은	-9.34548
▁글쎄	-9.34552
스타	-9.34598
▁어이없는	-9.34618
▁자신의	-9.34631
▁년에	-9.34642
봉	-9.34677
것은	-9.3474
▁명작이	-9.34742
▁일상	-9.34792
▁잘만든	-9.34831
영환	-9.34843
▁못하고	-9.34924
▁스토리에	-9.34925
▁느껴	-9.34957
▁사이	-9.34975
나옴	-9.35029
사람이	-9.35065
순간	-9.35071
겠네	-9.35173
▁통해	-9.35218
버리고	-9.35266
▁싫어	-9.35279
드리	-9.35295
령	-9.35381
한다는	-9.35385
▁그랬	-9.35415
▁함	-9.35433
▁흐	-9.35473
해보	-9.35539
앙	-9.35574
팅	-9.35602
▁연애	-9.35712
▁유쾌	-9.35792
▁매력적인	-9.35796
▁슬프	-9.35956
푸	-9.36018
▁권	-9.36102
▁표	-9.36137
▁다만	-9.36143
▁영웅	-9.36163
준다	-9.36176
▁전편	-9.36195
▁보지마세요	-9.36199
되지	-9.3623
▁별로다	-9.36261
▁액션이	-9.36267
없어	-9.36273
▁빈	-9.36318
거같다	-9.36353
▁영화에서	-9.36393
▁중간	-9.36452
명작	-9.36595
풀	-9.36609
▁여자들	-9.36659
드라	-9.36817
▁제작진	-9.36855
▁팔	-9.36855
▁낚	-9.36915
▁임	-9.36993
스럽	-9.37
▁순수한	-9.37076
▁이영화가	-9.37132
▁영화중에	-9.37169
▁보이는	-9.37196
▁메시지	-9.37213
그런	-9.37216
에서는	-9.37254
▁해준	-9.37324
닥	-9.37456
▁취향	-9.37468
와서	-9.37533
▁생각나	-9.37566
▁같네요	-9.37571
▁전기세	-9.3775
▁스케일	-9.37751
▁단순	-9.37752
시다	-9.37794
착	-9.378
▁빠	-9.37805
▁볼때마다	-9.37836
▁좋았는데	-9.37861
▁왜이렇게	-9.37864
▁후반	-9.37893
▁좋았음	-9.37906
▁커	-9.37908
▁유쾌한	-9.37922
▁멀	-9.37992
▁있었던	-9.38045
▁놓	-9.38105
거임	-9.3821
웅	-9.3826
방송	-9.38291
▁프로그램	-9.38317
▁초반에	-9.38331
▁눈을	-9.38336
▁이런게	-9.38369
▁답답	-9.384
▁낭비	-9.38427
▁동화	-9.38476
것을	-9.3857
▁보이	-9.38577
▁읽	-9.38684
▁하는데	-9.38713
▁그림	-9.38714
▁이건뭐	-9.38758
▁그런가	-9.38845
▁미치	-9.38861
▁미소	-9.38931
▁긴	-9.38958
▁벌	-9.38964
▁고민	-9.38967
▁역대	-9.39059
▁모습을	-9.391
▁기분이	-9.39169
▁빼	-9.39171
좋았	-9.39233
▁누	-9.39254
던가	-9.39281
갑	-9.3936
▁이야기가	-9.39381
취	-9.39416
▁감탄	-9.39418
뒤	-9.39422
암	-9.39474
▁평생	-9.3951
▁게이	-9.39686
▁놀라	-9.39764
들아	-9.39876
보다가	-9.39889
널	-9.39933
▁이쁘	-9.39954
걸로	-9.4011
하라	-9.40133
▁호러	-9.40137
일뿐	-9.40148
▁슬프다	-9.40167
던지	-9.40186
지고	-9.40234
버렸	-9.40264
득	-9.40354
▁매력이	-9.40396
▁만드	-9.40448
▁애들이	-9.40484
센	-9.40486
▁드	-9.40492
벨	-9.40495
휘	-9.40496
▁느낀	-9.40501
▁조폭	-9.40543
▁딴	-9.40567
▁스토리와	-9.4057
있어	-9.40637
▁부분이	-9.40683
▁까지	-9.4072
였어요	-9.40808
▁꼴	-9.40828
▁현실성	-9.4095
▁시도	-9.41028
▁식	-9.41034
▁나중에	-9.41042
▁내용을	-9.41052
껄	-9.41055
▁아저씨	-9.41078
▁여전히	-9.41086
감이	-9.4112
▁판	-9.41172
▁느껴지는	-9.41313
▁독특한	-9.41483
▁붙	-9.41522
▁죽는	-9.41551
▁평범한	-9.41603
잉	-9.41605
▁리뷰	-9.41622
▁현대	-9.41637
▁떨어지는	-9.41702
▁풀어	-9.41898
었습니다	-9.41933
▁돋	-9.41938
▁더이상	-9.41948
▁아름답다	-9.41983
▁찍은	-9.42216
▁나를	-9.42277
▁그럼	-9.4231
스런	-9.42405
대박	-9.42407
▁끝나고	-9.42445
▁전달	-9.42498
▁돌려	-9.42516
겁	-9.42547
▁끌	-9.42604
▁액션은	-9.42693
▁슬픔	-9.4275
▁살짝	-9.42796
▁티비	-9.42881
▁각	-9.42892
▁캐	-9.42905
▁가지	-9.42974
▁전에	-9.43025
▁보고싶다	-9.43034
더만	-9.43229
▁섹시	-9.43323
▁신선한	-9.43335
▁사극	-9.4352
▁처음이다	-9.43567
▁사랑하는	-9.43568
▁했지만	-9.43604
▁재미있음	-9.43677
▁있나	-9.43742
▁역할	-9.43776
▁마라	-9.43894
▁저렇게	-9.43896
▁해야	-9.43918
나온	-9.43927
▁과연	-9.43961
으론	-9.43969
▁악역	-9.43977
▁젤	-9.43982
▁죄	-9.44008
▁춤	-9.44128
▁든다	-9.44132
텐데	-9.44179
▁국	-9.44248
▁이것	-9.4427
▁아닌데	-9.44293
▁하게	-9.44313
시킨	-9.4432
▁알바들	-9.44333
내요	-9.44352
▁끼	-9.44438
압	-9.44466
▁해주는	-9.44481
▁예쁜	-9.44487
▁표절	-9.44497
▁좋을	-9.44646
▁추천합니다	-9.4466
▁굳이	-9.44707
▁그들의	-9.44799
▁사람을	-9.44816
곳	-9.44842
▁이유가	-9.44925
▁있다면	-9.44954
▁소재를	-9.45016
▁이연걸	-9.45057
▁귀엽고	-9.45085
▁종교	-9.45099
하려는	-9.45127
▁봤었는데	-9.45136
▁표정	-9.45199
▁괴물	-9.45224
▁브	-9.45242
▁홍콩	-9.4527
깨	-9.45333
▁시선	-9.4539
▁희망	-9.45395
▁음악이	-9.45409
▁영화관	-9.45435
릭	-9.45602
만으로	-9.45632
▁뒷	-9.45792
▁감동적이고	-9.45806
한듯	-9.45821
▁밀	-9.45874
▁필요한	-9.45907
▁분노	-9.45929
▁고전	-9.45997
▁아름답고	-9.46003
인이	-9.46135
버려	-9.46145
▁연기력이	-9.46188
▁에휴	-9.46246
▁찍어	-9.46292
▁어릴적	-9.46293
이며	-9.46369
▁벗	-9.46485
▁능력	-9.46513
몰	-9.46526
▁우정	-9.46583
▁어색	-9.46606
▁나오고	-9.46678
▁흘러	-9.46757
▁넣	-9.46778
▁스타	-9.46821
활	-9.46827
인것	-9.46856
▁처음엔	-9.47056
▁드라마가	-9.47071
내는	-9.47112
완전	-9.47132
▁좋았	-9.47144
책	-9.47145
▁칼	-9.47183
까진	-9.47193
▁시원	-9.47259
새끼	-9.47325
▁접	-9.47342
묘	-9.47361
▁출	-9.4738
▁뮤지컬	-9.47415
필요	-9.47432
재밌게	-9.47511
니깐	-9.47514
▁웃겨	-9.47618
▁재밌었는데	-9.47623
▁티비에서	-9.47652
▁기대를	-9.47668
다운	-9.47673
▁느	-9.47711
었으면	-9.47743
주인공	-9.47749
영화중	-9.47778
팔	-9.47793
▁드는	-9.47942
▁황당	-9.47952
하지않	-9.47962
보세요	-9.48003
▁희생	-9.48024
▁보는게	-9.4805
▁등장	-9.48056
▁가진	-9.48086
▁이하	-9.4819
▁결과	-9.48272
▁반성	-9.48318
▁다르	-9.48325
었지만	-9.48375
▁용서	-9.484
▁말로	-9.48418
▁사랑과	-9.48424
▁팬이	-9.48556
춘	-9.48577
덤	-9.48616
타임	-9.48676
▁포장	-9.48759
먹고	-9.48766
▁무지	-9.48827
▁친	-9.48848
▁이정도면	-9.48865
▁소름	-9.48895
▁몰입감	-9.48963
▁안되고	-9.49003
▁폭력	-9.49007
▁먼	-9.49119
쩔	-9.49133
▁필	-9.49142
▁리얼	-9.49159
▁몰입이	-9.49192
▁그럭저럭	-9.49222
▁열심히	-9.49222
▁보기엔	-9.49284
▁자막	-9.4937
▁올라	-9.49448
▁싫다	-9.49463
▁않아	-9.49477
에서도	-9.49502
엄	-9.49589
▁인기	-9.49677
되서	-9.49708
째	-9.49716
굴	-9.49812
▁잊혀지지	-9.49836
▁드러	-9.49956
▁아깝	-9.50033
▁의심	-9.50083
▁요소	-9.50099
떨	-9.50183
▁스토리를	-9.50212
▁끝내	-9.50222
▁끝난	-9.50223
쇼	-9.50315
쓴	-9.50317
▁어제	-9.50322
응	-9.50333
됬	-9.50341
▁그의	-9.50349
애니	-9.50396
▁여러	-9.50471
지마라	-9.50513
▁짜증나는	-9.50559
▁소녀	-9.50562
▁법	-9.5063
▁라고	-9.50638
받고	-9.50782
▁재밌었	-9.50793
▁빨	-9.50805
념	-9.50883
▁중요한	-9.50895
딱	-9.5092
쿠	-9.50955
▁부터	-9.51044
낼	-9.51063
▁압권	-9.51064
▁상처	-9.51108
는건지	-9.51203
킨	-9.51228
말이	-9.51292
▁연기와	-9.51294
▁잼있게	-9.51316
줌	-9.51369
▁아닌듯	-9.5142
▁기본	-9.51437
사가	-9.51479
▁진심으로	-9.51511
▁공감이	-9.51595
▁다행	-9.51601
▁짠	-9.51618
▁북한	-9.51639
▁남는다	-9.51641
▁볼거리	-9.51705
시는	-9.51831
▁주인공의	-9.519
▁같아	-9.51925
▁안됨	-9.5194
빨	-9.5196
▁재미없네	-9.52097
충	-9.52138
시키는	-9.52143
▁되었	-9.52178
▁포기	-9.52207
줬	-9.5225
▁긴장	-9.52282
씨가	-9.52287
▁섹스	-9.52312
▁묘사	-9.52319
▁짓	-9.52334
쁘	-9.52356
▁몸매	-9.5237
▁빛	-9.52411
▁나왔으면	-9.52448
▁설레	-9.52511
▁아마	-9.52532
▁올해	-9.52537
▁죽어	-9.52543
더라구요	-9.52665
▁최근	-9.52695
▁생각합니다	-9.52741
▁하나하나	-9.52744
▁추억의	-9.52751
▁그걸	-9.52761
▁영화보고	-9.52814
북	-9.52846
▁안하고	-9.52847
▁아는	-9.52916
▁그다지	-9.53071
하는지	-9.53122
▁언제나	-9.53148
▁만들어진	-9.53204
▁같음	-9.53208
▁재밌습니다	-9.53242
기엔	-9.53254
▁연기에	-9.53255
만들어	-9.53339
▁사랑에	-9.53504
▁안타깝	-9.53519
항	-9.53568
▁흐름	-9.53603
▁지루해서	-9.53605
▁개판	-9.5368
▁잔인하	-9.53713
▁나가	-9.53818
▁썩	-9.53897
인간	-9.53962
▁나서	-9.53976
▁했던	-9.5398
▁광고	-9.5403
르는	-9.54099
▁킬링타임	-9.54142
하다니	-9.54171
▁퀄리티	-9.54191
벽	-9.54192
▁올리	-9.54193
▁해피엔딩	-9.54208
▁힐링	-9.54208
확	-9.54214
쳤	-9.54285
하려고	-9.54327
▁고생	-9.54384
▁달리	-9.54405
▁과정	-9.54507
할듯	-9.54612
▁제목이	-9.54646
▁홍	-9.54707
▁이유는	-9.54708
말고	-9.54765
▁젊은	-9.54769
나올	-9.54815
▁몇번을	-9.54821
▁분들	-9.54846
▁쓰래기	-9.54849
▁쉽게	-9.54859
딸	-9.54893
하는것	-9.54928
▁보시길	-9.5496
알바	-9.55048
▁볼만함	-9.55091
람	-9.55103
▁우리가	-9.55133
▁음악도	-9.55201
▁클	-9.55227
▁먹먹	-9.55252
▁네	-9.5535
▁무섭다	-9.55404
오글	-9.55428
▁갑	-9.55453
▁오버	-9.55463
턴	-9.55481
▁디즈니	-9.55494
▁봤으면	-9.55494
튀	-9.55494
▁청	-9.55502
▁암튼	-9.55517
▁국민	-9.55545
▁덜	-9.55571
▁느끼는	-9.55575
▁케	-9.55595
왔다	-9.55649
▁감동과	-9.55652
▁많다	-9.5568
▁되었다	-9.55681
▁크게	-9.55755
을수	-9.55758
킬	-9.55817
▁퍼	-9.55881
▁봤다가	-9.55889
▁허술	-9.55919
친구	-9.55943
▁시간을	-9.56029
▁낫	-9.56039
▁재미를	-9.56081
홀	-9.56133
웠	-9.56187
었고	-9.56325
▁다큐멘터리	-9.56364
▁엉성한	-9.56388
▁있지	-9.56401
이거	-9.56426
▁유치함	-9.56463
▁아련	-9.5655
▁보고싶	-9.5666
누나	-9.5667
협	-9.56728
▁가볍게	-9.56797
그러	-9.56814
것만	-9.56822
▁루	-9.56831
빵	-9.56911
▁볼수록	-9.56911
▁어쩔	-9.56915
▁동생	-9.57004
▁만큼	-9.5704
▁보러	-9.57076
▁할말	-9.572
▁난다	-9.57385
애들	-9.5741
빡	-9.57428
보면서	-9.57432
황	-9.57447
쏘	-9.57451
되네요	-9.57452
폰	-9.57455
▁빌	-9.57465
하면서도	-9.5757
▁가끔	-9.57609
▁영화이다	-9.57677
▁되게	-9.57696
속에서	-9.57715
▁슬프고	-9.57735
▁좋았던	-9.57747
▁출연진	-9.57762
느라	-9.57772
▁동물	-9.57823
▁사는	-9.57851
오빠	-9.57867
관계	-9.57887
▁지루할	-9.57939
것들	-9.5794
▁지구	-9.57948
나고	-9.58093
렉	-9.58113
▁헐리우드	-9.58117
▁통쾌	-9.58129
▁폭	-9.58191
▁재밌네	-9.58194
찌	-9.58234
▁아쉬움	-9.58355
▁삶의	-9.58359
▁열정	-9.58416
▁만든다	-9.58425
▁킬링타임용으로	-9.585
▁짱짱	-9.5866
▁정서	-9.58688
자들	-9.58705
페	-9.58729
▁비주얼	-9.58784
▁싸구려	-9.58784
▁생각나는	-9.58918
클	-9.58978
최악	-9.58988
▁홍보	-9.59047
겼	-9.59209
▁철	-9.5924
욱	-9.59259
생겼	-9.5945
▁얻	-9.59482
▁방금	-9.59499
옥	-9.59554
▁몇년	-9.59563
월	-9.59566
▁게다가	-9.59605
▁좋습니다	-9.59612
골	-9.59628
추천	-9.59651
▁죽여	-9.59672
함과	-9.59706
▁높다	-9.59747
▁없지만	-9.5977
▁쓸	-9.59882
이건	-9.60011
혼	-9.60112
▁필요없다	-9.60112
자체	-9.60172
▁필요없는	-9.60185
▁점주는	-9.60241
▁다시한번	-9.60261
▁중반	-9.60272
▁잔인한	-9.60337
손	-9.60392
점이	-9.60394
▁봐야할	-9.60395
▁소재가	-9.60523
일이	-9.60576
▁재미있네요	-9.60579
소재	-9.60729
탁	-9.60764
롱	-9.60773
하셨	-9.60877
▁악당	-9.60967
지않고	-9.60983
▁그려	-9.61044
▁반전도	-9.61091
▁딱히	-9.61193
▁보았	-9.61204
▁돌아가	-9.61241
얘기	-9.61282
없네	-9.61301
▁남기	-9.61324
▁죽을	-9.61348
▁에로	-9.61388
율	-9.61409
▁연예인	-9.61496
로써	-9.61515
▁눈빛	-9.61517
▁몰라도	-9.61573
▁믿을	-9.61805
으로서	-9.61828
표현	-9.61883
▁드라마는	-9.61884
▁우주	-9.6196
▁남아	-9.61963
▁맘	-9.61978
한게	-9.62035
▁그것	-9.62043
였지만	-9.6207
▁시사회	-9.62225
▁쫌	-9.62306
마음	-9.62322
폭	-9.62418
▁배우의	-9.62421
▁결말은	-9.62431
▁찡	-9.62439
▁어른	-9.6251
▁채	-9.62543
▁못했다	-9.62547
실망	-9.62566
▁보고싶은	-9.62621
▁느꼈	-9.62664
▁볼만하	-9.62676
▁헤	-9.62679
져서	-9.62722
▁여기서	-9.62759
▁멋지다	-9.62789
▁재밋게	-9.62814
▁남을	-9.62816
▁몰랐	-9.62819
만화	-9.62897
▁소재로	-9.62984
▁뜨	-9.62987
▁문화	-9.63093
▁이쁜	-9.63155
▁어이가	-9.6318
▁진정	-9.63184
송	-9.63192
▁둘다	-9.63206
▁조연	-9.63296
지않은	-9.63343
▁무시	-9.63422
▁무섭	-9.63476
▁한국인	-9.63504
▁점수를	-9.63544
스러웠	-9.63595
지마	-9.63822
▁좀더	-9.63968
끝나	-9.63972
▁빠지	-9.63985
▁전문가	-9.64013
▁좋아서	-9.64013
▁니들	-9.64067
▁하면서	-9.64177
▁펑펑	-9.64209
뿌	-9.64248
▁모르	-9.6427
힐	-9.64283
▁드럽게	-9.64291
▁이제야	-9.64343
줄이야	-9.64399
▁발전	-9.64468
▁할말이	-9.64482
▁연출도	-9.64578
▁사람의	-9.64633
▁가서	-9.64664
넣	-9.64667
죄	-9.64704
세계	-9.64814
했나	-9.64847
▁제작비	-9.6485
▁풍	-9.64927
가지고	-9.64951
▁어려운	-9.64993
▁검	-9.65053
▁웃기고	-9.6506
▁마세요	-9.65099
찾	-9.65111
▁평이	-9.65128
▁결말도	-9.6515
▁재밋다	-9.65162
▁끝나는	-9.65222
▁와우	-9.6524
▁지금은	-9.65266
졸	-9.65321
▁외국	-9.65545
▁영화지만	-9.65586
▁인생을	-9.65635
▁보아	-9.65678
▁실패	-9.65686
▁쵝오	-9.65707
▁뛰어난	-9.6574
▁아픔	-9.65784
▁죽이	-9.65807
▁끄	-9.65814
▁사랑스러운	-9.65825
▁쩝	-9.65921
▁재밌었음	-9.6597
▁틀	-9.66041
봣는데	-9.66063
▁투자	-9.6611
▁배우들도	-9.66227
둘	-9.66236
리아	-9.66362
▁견자단	-9.66426
털	-9.66426
▁로그인	-9.66427
▁불구하고	-9.66428
▁무언가	-9.66428
▁단지	-9.66478
▁채널	-9.66555
▁작가가	-9.66594
하신	-9.66629
워서	-9.66681
▁그린	-9.66721
끌	-9.66783
먹는	-9.66856
아님	-9.66908
▁탈	-9.66936
▁하루	-9.66941
▁무엇	-9.66944
하하하	-9.66947
거라	-9.66948
▁핵	-9.66949
▁풀	-9.66951
▁산으로	-9.67001
찰	-9.67014
▁전설	-9.67035
▁집에서	-9.67049
▁귀엽	-9.67112
▁엉망	-9.67118
흑	-9.67133
▁그렇다고	-9.67163
▁어머니	-9.67182
감을	-9.67224
▁베스트	-9.67231
▁평범	-9.67232
▁생애	-9.67232
▁끌어	-9.67238
▁느와르	-9.67249
▁불쾌	-9.67253
▁않게	-9.67253
▁단연	-9.67309
▁심심	-9.67322
▁남녀	-9.6734
▁차이	-9.67406
▁남편	-9.67411
▁시대를	-9.67451
▁꽃	-9.67459
▁페	-9.67482
려면	-9.67487
숨	-9.67558
▁유치하다	-9.67587
▁아깝지	-9.67607
▁볼만하다	-9.67673
▁유명	-9.67707
있음	-9.67724
▁있습니다	-9.67732
했다는	-9.67735
멘	-9.6788
▁아름다움	-9.67881
▁벌써	-9.67898
되면	-9.67941
▁맨날	-9.67941
▁연결	-9.67962
▁전체	-9.68171
▁낮아서	-9.68184
머리	-9.68239
▁이따위	-9.6824
갔다	-9.68278
▁없나	-9.68302
한다면	-9.68316
▁세기	-9.68337
▁달라	-9.68357
▁시걸	-9.68369
짧	-9.68384
▁히	-9.6841
▁현실적이	-9.68439
▁봣	-9.68443
▁만들고	-9.68455
홍	-9.68483
▁캐릭터들	-9.68487
꼽	-9.68501
▁많았	-9.68577
▁청소년	-9.68619
▁빌려	-9.6862
▁흔한	-9.68635
온다	-9.6867
반전	-9.68708
▁찍었	-9.68744
▁대화	-9.6875
▁정말로	-9.68773
재밌어요	-9.68805
▁남겨	-9.68881
▁불쌍	-9.68892
력이	-9.68892
▁그렇다	-9.68922
▁느낄수	-9.68943
▁봣는데	-9.6896
▁있게	-9.69046
▁씬	-9.6905
▁자극	-9.69103
빙	-9.6911
끄	-9.69124
나와서	-9.69131
랜	-9.69137
나와	-9.69201
끈	-9.69217
▁급영화	-9.69296
▁스스로	-9.6936
▁연속	-9.69371
▁멍청한	-9.69447
▁고통	-9.69458
▁생생	-9.69464
▁되지	-9.69473
▁죄다	-9.69487
딴	-9.69503
한것	-9.69545
▁옛날에	-9.69603
가족	-9.69608
시간에	-9.69651
▁매력있	-9.69659
▁안돼	-9.69698
중의	-9.69734
▁현실적인	-9.69766
할까	-9.69781
스가	-9.69793
▁탄탄한	-9.69812
▁이런영화가	-9.69934
▁야한	-9.69975
작가	-9.7001
▁기독교	-9.70103
▁헐리웃	-9.70103
했네	-9.70131
▁재미있었다	-9.70176
하시는	-9.70188
▁아이돌	-9.7019
▁시각	-9.70213
▁주변	-9.70261
▁설마	-9.70281
프로	-9.70332
▁아직까지	-9.70359
▁말할	-9.70362
▁많아	-9.70566
▁푹	-9.70626
았던	-9.7069
에대한	-9.7074
▁해주	-9.7078
코미디	-9.70798
▁굿굿	-9.708
축	-9.70804
▁행	-9.70815
보게	-9.70855
▁바뀌	-9.70864
몽	-9.70875
▁영화냐	-9.70892
▁사기	-9.70909
▁거지	-9.70909
▁자식	-9.70926
▁무엇을	-9.70959
▁미드	-9.70971
▁영국	-9.71035
▁인간들	-9.7108
왔는데	-9.71088
▁눈물을	-9.71111
자체가	-9.71142
▁누구나	-9.71177
빼고	-9.71193
▁국내	-9.71202
▁송	-9.71204
▁인간이	-9.7122
▁무서워	-9.71306
▁재미없어요	-9.71426
▁예쁘	-9.71431
좋고	-9.71508
▁단순한	-9.71569
▁때문	-9.71595
▁러닝타임	-9.71613
▁김기덕	-9.71613
▁이거보고	-9.71653
▁환상	-9.71662
▁모든게	-9.71789
▁몰입해서	-9.71856
▁꺼	-9.71944
▁뻔하고	-9.71944
인가요	-9.71946
좋아요	-9.71947
▁분이	-9.71969
▁아나	-9.7202
나가는	-9.72021
▁찌	-9.72099
▁나왔다	-9.72143
높	-9.72161
버리는	-9.72203
▁들었	-9.72236
▁이후로	-9.72237
는것도	-9.72323
콜	-9.72359
값	-9.72361
▁남자가	-9.72371
농	-9.72375
컨	-9.72376
마지막	-9.72396
▁명품	-9.72454
지않는	-9.72517
▁기술	-9.72576
▁매력적이	-9.72579
▁꾸	-9.72597
▁뜻	-9.72611
안에	-9.72678
▁덕분에	-9.72692
▁힘들다	-9.72719
닌	-9.72735
극장	-9.72741
▁있어요	-9.72745
▁심장	-9.72779
▁나오면	-9.72782
▁샤	-9.72834
▁한심	-9.72878
했으나	-9.72936
흐	-9.72989
▁봤었	-9.73039
택	-9.73064
폐	-9.73174
▁어휴	-9.73191
▁안타깝다	-9.73209
▁쇼	-9.73309
하지도	-9.73367
▁지나치	-9.73381
▁말을	-9.7342
겟다	-9.73433
▁괜찮았	-9.73537
▁점준	-9.73579
▁잔잔하고	-9.73597
▁생각없이	-9.73616
▁영어	-9.73637
▁놈	-9.73698
끊	-9.73747
▁필요없	-9.73773
▁보았다	-9.73806
▁밥	-9.7382
하는건	-9.73839
하구	-9.73878
▁보니까	-9.73914
잼있	-9.73933
접	-9.73956
▁왠	-9.73972
▁노답	-9.73989
재미없다	-9.73989
▁관객들	-9.73995
슈	-9.74004
▁특이	-9.74028
보이	-9.74077
▁같아서	-9.74104
▁표현한	-9.74177
웠다	-9.74188
친다	-9.74239
▁떠나서	-9.74309
▁되고	-9.7431
으려	-9.74346
님의	-9.74375
▁본인	-9.74392
으로써	-9.74473
짜증	-9.74502
쾌	-9.7457
▁발로	-9.74596
▁솔직	-9.74634
▁긴장감도	-9.74662
▁슈퍼	-9.74696
▁아역	-9.74696
▁기대안하고	-9.74704
▁위대한	-9.74705
같음	-9.74706
노잼	-9.74773
떠	-9.74773
▁찌질	-9.74782
총	-9.74812
▁운	-9.75
▁못한다	-9.75016
▁유쾌하고	-9.75055
시고	-9.75084
▁공부	-9.75091
해주세요	-9.75123
▁와닿	-9.75204
▁무비	-9.75252
결말	-9.75273
긴한데	-9.75275
▁끝이	-9.75419
▁중요	-9.75426
즘	-9.75467
▁즐겁게	-9.75494
▁로봇	-9.755
▁무서웠	-9.75507
▁철학	-9.75554
▁지켜	-9.75581
엘	-9.75619
▁싶네요	-9.75908
▁장면에서	-9.75933
많은	-9.75953
▁어렸을	-9.75977
하겠	-9.76043
▁울었	-9.76054
큐	-9.76054
▁높아	-9.76093
흘	-9.76233
▁인물들	-9.76246
굿	-9.7625
▁유명한	-9.76261
틱	-9.76276
▁시트콤	-9.76283
닝	-9.76283
▁레전드	-9.76283
▁보고나면	-9.76297
▁순수	-9.76324
했네요	-9.76334
▁발견	-9.76355
쩌	-9.76391
▁좋았을	-9.76398
▁줌	-9.76399
▁뽑	-9.76407
대는	-9.76438
▁있으면	-9.76441
용으로	-9.7645
중에서	-9.76503
▁허세	-9.76547
▁눈에	-9.76551
▁나옴	-9.76565
님들	-9.76611
어울리	-9.76695
수없는	-9.76697
스타일	-9.76728
▁이해할	-9.76744
▁우와	-9.76795
▁한참	-9.76801
한다고	-9.76859
전쟁	-9.76893
겹	-9.7696
기위해	-9.76972
▁않지만	-9.76981
▁소름돋	-9.77004
땡	-9.77083
것같	-9.7713
▁갈등	-9.77146
▁쩐다	-9.77184
▁반복	-9.77207
▁느낌을	-9.77211
들만	-9.77254
첨	-9.77263
▁말하는	-9.77286
아요	-9.77332
냥	-9.77481
▁결	-9.775
▁최고입니다	-9.7762
▁보길	-9.77627
기분	-9.77688
▁늘어	-9.77697
▁잊지	-9.77741
▁같았	-9.77784
▁건지	-9.77801
놨	-9.7783
▁보시	-9.7785
떄	-9.77889
톱	-9.77889
▁즐거운	-9.77889
▁초등학생	-9.77889
겁니다	-9.77919
▁멋있다	-9.77949
▁착한	-9.77965
▁학교	-9.78046
▁코난	-9.78054
▁학교에서	-9.78122
연출	-9.78156
영화라고	-9.78215
현실	-9.78225
눈물	-9.7831
▁뭐라	-9.78341
▁부모	-9.78359
▁싶지	-9.78502
▁봤을	-9.78536
▁시청자	-9.78583
▁왜케	-9.78597
▁재밌을	-9.78603
▁작가님	-9.7867
스러움	-9.78678
▁보인다	-9.78693
▁마이클	-9.78709
내고	-9.78751
▁최강	-9.78773
▁진리	-9.78777
▁아줌마	-9.7878
더라면	-9.78798
▁엄	-9.7882
▁망한	-9.78986
▁나오지	-9.79045
거면	-9.79054
더라도	-9.7908
았는데	-9.7915
▁앞으로도	-9.79156
▁개인	-9.79183
하더라	-9.7919
놔	-9.79319
▁넘어	-9.7934
▁하네요	-9.79367
▁멋	-9.79394
점수	-9.79425
▁개연성이	-9.79515
▁에피소드	-9.79522
▁의외로	-9.79522
▁새롭	-9.79552
▁옛	-9.79592
무비	-9.79631
헤	-9.79635
▁편견	-9.79655
▁않나	-9.79693
냈	-9.79786
낫	-9.79829
까지는	-9.79831
▁안보고	-9.79921
해진	-9.79941
하려	-9.79959
육	-9.79967
▁생각하는	-9.79969
이라서	-9.80112
주고싶	-9.80144
▁주말	-9.80182
▁생각하고	-9.80297
혁	-9.80311
잤	-9.8032
▁못할	-9.80344
혈	-9.80348
▁짝퉁	-9.80348
스러워	-9.80361
지말고	-9.80396
▁못해	-9.80415
계의	-9.80506
▁미안	-9.80529
▁내려	-9.80531
▁영화에요	-9.80546
▁친구들	-9.8056
▁이때	-9.80572
▁지루했다	-9.80636
봅니다	-9.80689
▁있네요	-9.80743
▁이쁘고	-9.80829
줘서	-9.80838
▁미모	-9.80879
▁어렵	-9.80882
▁침	-9.80911
▁의리	-9.80934
영상	-9.80988
▁꿈을	-9.80999
만드는	-9.81025
▁실제로	-9.81065
▁잔	-9.81074
▁멍청	-9.81091
솔	-9.81179
▁외계인	-9.81182
▁년전에	-9.81185
▁대사가	-9.81248
▁손발이	-9.81262
▁한데	-9.81305
▁빼고	-9.81315
▁이기	-9.81317
고싶어	-9.81334
최고의	-9.81353
▁무척	-9.8138
▁작은	-9.814
▁대중	-9.81404
▁여행	-9.81406
사는	-9.81443
▁혼	-9.8145
▁부르	-9.81496
▁울었다	-9.81509
음악	-9.81511
▁음악과	-9.81515
싱	-9.81552
▁모르겠고	-9.81563
▁자살	-9.81584
▁아침	-9.8166
엄마	-9.81669
▁받았	-9.81724
▁연기자들	-9.81736
장면이	-9.8174
냈다	-9.81752
학생	-9.81875
있어서	-9.81893
사람은	-9.81922
▁논	-9.8201
▁마이너스	-9.82022
례	-9.82022
칙	-9.82022
▁뭉클	-9.82022
▁슬펐	-9.82022
▁젠장	-9.82024
언니	-9.8203
▁하는지	-9.82092
▁떨어지	-9.82125
▁재미있었어요	-9.82132
▁연기력도	-9.82158
▁대부분	-9.82254
▁당시에	-9.82259
▁이미지	-9.82329
믿	-9.82456
다는게	-9.82532
씬은	-9.82613
재밌다	-9.82626
▁케이블	-9.82637
▁누군가	-9.82657
험	-9.82702
▁헤어	-9.82822
▁신선하고	-9.82852
받는	-9.82854
몬	-9.82869
▁주성치	-9.82872
▁경험	-9.82887
▁전투	-9.82938
▁낳	-9.8295
▁기다리	-9.82981
▁양심	-9.82996
▁편보다	-9.83006
▁제로	-9.83024
영화임	-9.83101
▁좋게	-9.8311
▁없는데	-9.83139
▁평론가들	-9.83189
▁아쉽네요	-9.83258
뭔	-9.83327
▁이쁘다	-9.83405
▁비슷	-9.83427
만들었	-9.83439
럽	-9.83454
▁따뜻해지는	-9.83454
해야지	-9.83465
▁콩	-9.83512
▁보지마	-9.83535
▁힘이	-9.83628
▁폴	-9.83638
틈	-9.83669
았습니다	-9.83705
탓	-9.83724
▁더러운	-9.83725
▁스크린	-9.83726
▁더불어	-9.83728
▁아이가	-9.83762
였고	-9.83802
▁죽은	-9.83891
▁있어야	-9.83902
▁그거	-9.83947
▁속에	-9.8396
▁영화였어요	-9.83961
▁원작이	-9.83979
▁감동적	-9.84126
▁어린이	-9.84181
형님	-9.84211
▁비극	-9.84244
▁언	-9.8427
▁울고	-9.84412
▁이래	-9.84428
나온다	-9.84532
춰	-9.8456
릿	-9.84567
뛰	-9.84569
▁충	-9.84572
이유	-9.84575
끼리	-9.84577
▁봤더니	-9.84586
▁왠만하면	-9.84586
▁싸이코	-9.84587
▁고양이	-9.8459
▁흥미로운	-9.84606
▁복잡	-9.84632
보자	-9.84662
줬다	-9.84721
구성	-9.84776
▁외모	-9.84798
있나	-9.84851
▁에이	-9.84947
▁이럴	-9.84999
▁동안	-9.85083
럼	-9.85142
▁완전히	-9.8518
잇는	-9.85194
따라	-9.8522
▁좋지만	-9.8529
지마세요	-9.85313
▁오바	-9.85365
▁몇번	-9.85396
▁카리스마	-9.85456
▁패러디	-9.85456
▁직접	-9.85457
▁교육	-9.85468
▁영혼	-9.85492
▁방법	-9.85507
▁역대급	-9.85513
▁뇌	-9.85527
▁조합	-9.85615
▁빼고는	-9.85695
빼곤	-9.85699
봐요	-9.85717
▁모르겠지만	-9.85731
▁웃음이	-9.85866
사이	-9.85888
▁인생의	-9.85891
▁밤	-9.85899
▁앤	-9.86021
▁무섭지도	-9.86095
▁웃김	-9.86155
▁승	-9.86188
했을까	-9.8621
해준	-9.86232
▁적당	-9.86236
있었	-9.86299
댄	-9.86306
▁받을	-9.86319
낀	-9.86325
▁포르노	-9.86333
연기가	-9.86341
▁필름	-9.86374
▁레알	-9.86394
버릴	-9.86412
▁한번쯤	-9.86427
▁재미있었	-9.86486
할수있	-9.86554
▁일이	-9.8657
▁어른들	-9.86577
▁삶에	-9.86595
▁극치	-9.86648
▁박수를	-9.86656
▁피해자	-9.86677
▁없었던	-9.86696
안되는	-9.86721
▁작품이다	-9.86729
▁평점보고	-9.86801
하지마라	-9.86879
▁쓰레기같은	-9.86888
▁최대	-9.86933
▁작품을	-9.87043
이였다	-9.87081
식으로	-9.87116
룡	-9.87156
뽕	-9.87218
▁크리스마스	-9.87218
흘리	-9.8725
▁힘들었	-9.87277
▁가능	-9.87291
▁웃기지도	-9.87305
님이	-9.87323
빠르	-9.87334
않는	-9.87357
집니다	-9.87379
▁지루하게	-9.87426
꾸	-9.87435
▁말하고	-9.87465
▁좋았지만	-9.87471
▁부족하다	-9.87488
▁용기	-9.87526
았음	-9.87535
▁사랑의	-9.87535
됐다	-9.87604
아주	-9.87676
▁즐기	-9.87681
▁지루하기	-9.87704
▁살려	-9.87711
만큼은	-9.87769
하기엔	-9.87849
▁감정을	-9.87853
▁살고	-9.87968
▁독특	-9.87995
▁도전	-9.88019
▁감동적이다	-9.88102
했었	-9.88108
칭	-9.8811
퀴	-9.88111
상을	-9.88159
▁답답한	-9.88168
▁좋겠어요	-9.88181
▁일품	-9.88263
▁괜찮다	-9.88264
▁잭	-9.88289
▁잊	-9.88334
늘	-9.8834
▁해석	-9.8835
켜	-9.8843
▁점정도	-9.88439
▁한명	-9.88455
▁기대했는데	-9.88481
▁군	-9.88541
▁들어가	-9.8865
▁그럴	-9.88678
▁홍콩영화	-9.88686
▁보자	-9.88813
엇다	-9.88855
▁본다면	-9.88891
▁볼수있	-9.88906
▁영화인듯	-9.88961
▁영화보면서	-9.88968
▁썼	-9.88978
부족	-9.88991
▁퇴	-9.88996
컬	-9.89008
델	-9.89012
▁아름다웠	-9.89012
▁좋았으나	-9.89036
▁사랑은	-9.89054
▁원작의	-9.89076
▁깔끔	-9.89173
▁잼있다	-9.89247
사회	-9.89296
▁챙겨	-9.89314
▁잊을	-9.89401
▁중에서	-9.89443
쉽	-9.89457
▁전설의	-9.89501
▁비판	-9.89503
었어	-9.8954
▁무협	-9.89571
▁올려	-9.89595
▁옥	-9.89616
▁밝	-9.89658
▁인상적이	-9.89659
▁훈훈한	-9.89697
▁행복한	-9.89716
▁신고	-9.89722
몰라	-9.89795
텐	-9.89814
했었는데	-9.89886
▁블랙	-9.89915
▁몇몇	-9.8994
▁응	-9.89959
나오네	-9.89984
▁다룬	-9.90018
▁찬	-9.90022
▁개막장	-9.90044
상태	-9.90099
▁화가	-9.90138
▁멍	-9.90201
▁탑	-9.9022
▁알려	-9.90282
해진다	-9.90323
▁질리지	-9.90401
▁진부하고	-9.90444
하던데	-9.90484
▁합	-9.90566
웨	-9.90578
▁나쁘지	-9.90634
▁의미를	-9.90643
▁있네	-9.90683
젤	-9.907
▁아프	-9.90805
▁기자	-9.90836
렁	-9.90838
둔	-9.90838
▁디테일	-9.90838
▁스트레스	-9.90839
내내	-9.9084
▁잠깐	-9.90846
▁뒤로	-9.90861
▁할머니	-9.90882
▁빵점	-9.90889
▁일어나	-9.90897
씨의	-9.90897
무슨	-9.90909
▁척	-9.90957
쟁이	-9.91022
▁뛰어	-9.91042
문화	-9.91062
▁신경	-9.91111
인건	-9.91114
▁결론	-9.91117
▁이유를	-9.91178
셔서	-9.91186
▁악마	-9.9119
▁밑	-9.91243
▁가슴에	-9.91275
이었음	-9.91345
쳤다	-9.91379
▁있던	-9.91396
▁개성	-9.91409
▁이해하기	-9.91467
새끼들	-9.91468
쥐	-9.91654
괜찮	-9.91658
검	-9.9166
▁본방사수	-9.91764
▁반개도	-9.91768
▁느껴진다	-9.91792
▁짜증난다	-9.91818
▁풍경	-9.91819
개봉	-9.91909
▁감히	-9.92048
▁똑같은	-9.92078
감독이	-9.92085
▁그녀의	-9.92099
▁낚시	-9.92201
▁막판에	-9.92239
▁모르게	-9.92299
▁하는거	-9.92348
▁한마디	-9.92422
▁부작	-9.92445
간의	-9.92519
▁얼마	-9.92522
읽	-9.92593
▁재미잇	-9.92611
▁보며	-9.92627
밥	-9.92627
캐	-9.92631
▁좋아할	-9.92657
텔	-9.92676
뉴	-9.9269
층	-9.92699
▁말도안되는	-9.92716
▁흑인	-9.9272
▁남자의	-9.92723
▁싶었	-9.92738
▁애기	-9.92772
▁좋아해서	-9.92822
▁할까	-9.92859
기까지	-9.92878
▁맹	-9.92895
▁해결	-9.92905
▁욕망	-9.92924
▁꽝	-9.92938
▁커플	-9.92953
저리	-9.92968
▁안나	-9.92972
중독	-9.92997
▁안맞	-9.93082
▁않을까	-9.93153
▁실력	-9.93157
▁뿐이다	-9.93204
▁시청	-9.93321
앞	-9.93449
휴	-9.93527
▁처럼	-9.93575
꼭	-9.93617
컷	-9.93624
▁보여준다	-9.9363
▁갔	-9.93639
뮤	-9.93641
▁시간가는줄	-9.93642
▁아까울	-9.93643
▁이제서야	-9.93645
▁비현실적	-9.93652
▁겨우	-9.9367
▁우리는	-9.93689
▁봤을때	-9.93722
왔습니다	-9.93767
▁씁쓸	-9.93769
▁결정	-9.93772
▁사랑이야기	-9.93812
▁재미와	-9.93851
▁야동	-9.9387
▁십	-9.93882
▁미쳤	-9.9392
아니다	-9.93929
▁편의	-9.93961
▁넘치는	-9.94036
동생	-9.94044
▁보통	-9.94048
치곤	-9.941
▁없지	-9.94107
▁선생님	-9.94149
흔	-9.94154
▁가득	-9.94184
▁개봉한	-9.94273
▁한심한	-9.94295
▁거기에	-9.9432
▁쓰레기다	-9.94322
겠어요	-9.94339
▁드립니다	-9.94368
▁졸리	-9.94378
이렇게	-9.94396
▁전개도	-9.94437
▁모를	-9.94513
까요	-9.94546
껴	-9.94571
좌	-9.94592
엠	-9.94592
랫	-9.94594
냄새	-9.94601
▁테러	-9.94609
▁어린시절	-9.94618
▁많고	-9.94629
하고싶은	-9.94642
내용이	-9.94647
▁남자주인공	-9.94654
설정	-9.94682
▁변태	-9.94694
▁존경	-9.94724
상황	-9.94727
▁보려고	-9.94835
▁잼있어요	-9.94841
▁빠져들	-9.94862
▁이래서	-9.94863
▁마이	-9.94891
▁추억이	-9.94919
▁관점	-9.94928
▁따로	-9.94948
▁오랜만	-9.94977
▁빠진	-9.95004
▁아내	-9.9504
▁그렇지	-9.95115
▁괜찮은데	-9.95148
▁알겠	-9.95181
메이	-9.9524
▁관한	-9.95339
시길	-9.95407
▁어릴	-9.95411
버림	-9.95425
지금	-9.95448
▁형사	-9.9545
헌	-9.95523
▁싶은데	-9.95551
냉	-9.95552
앉	-9.95556
핑	-9.95556
롤	-9.95556
칸	-9.95556
▁감흥	-9.95576
▁효과	-9.95586
▁어쩜	-9.9559
▁개뿔	-9.956
▁보지마라	-9.95647
▁이것이	-9.95726
▁들었다	-9.95727
잡고	-9.95863
▁먹고	-9.95952
▁갖	-9.95985
▁그건	-9.95993
▁한국영화는	-9.96011
▁재밌다고	-9.96036
시작	-9.96037
▁오락	-9.96071
▁읽어	-9.96075
막장	-9.96081
▁간다	-9.96092
▁어이	-9.96159
랬	-9.96181
정신	-9.96237
재밌음	-9.9625
때부터	-9.96325
▁둘이	-9.96326
▁심하게	-9.96341
겠습니다	-9.96356
▁심각	-9.96489
붕	-9.96517
쥬	-9.96527
넹	-9.96527
▁영화보는	-9.9653
▁제임스	-9.96537
▁참신한	-9.96563
거같	-9.96566
깔	-9.96601
것인가	-9.96652
▁재밌던데	-9.96722
제목	-9.96791
으니까	-9.96828
▁보내	-9.96955
▁주기	-9.97014
▁자주	-9.97026
▁시리즈중	-9.97082
▁색	-9.97091
▁대해서	-9.97109
▁생각하면	-9.97128
▁좋아하는데	-9.97141
모양	-9.97191
▁위로	-9.97321
▁보여줬	-9.97373
▁소중한	-9.97398
▁나머지	-9.97482
같지	-9.97493
벅	-9.97507
나올때	-9.97521
▁기다려	-9.97535
▁말아먹	-9.97586
▁무술	-9.97721
▁긴장감이	-9.97776
웃기	-9.97799
▁장르가	-9.97817
▁하나의	-9.97818
▁죽이는	-9.97882
우스	-9.98057
▁이용	-9.98076
야한다	-9.98118
▁됨	-9.98166
▁우리의	-9.98168
요소	-9.98177
▁점수가	-9.98216
▁마지막장면	-9.98433
▁동성애	-9.98498
▁영원히	-9.98539
▁대본	-9.98554
야할	-9.9857
바닥	-9.98596
▁국가	-9.98615
▁비디오로	-9.98647
붙	-9.98664
캐릭터	-9.98667
▁쿠	-9.98672
▁방영	-9.9868
답답	-9.98692
▁부모님	-9.98787
▁없어요	-9.98814
▁헛	-9.98871
▁속에서	-9.98879
▁어쩔수	-9.98913
▁맞아	-9.98952
▁있었지만	-9.99117
▁망치	-9.99188
▁잊을수	-9.99211
나왔	-9.99227
▁남아있	-9.99238
▁확실	-9.99399
나오고	-9.99409
폼	-9.99497
▁여러가지	-9.99508
납니다	-9.99512
자나	-9.99519
▁거짓말	-9.99546
▁하늘	-9.99591
▁잼없	-9.99615
▁웃기다	-9.99622
받은	-9.99626
▁깨닫게	-9.99655
흥	-9.99679
▁색감	-9.99732
콩	-9.99739
▁도망	-9.99763
▁왜이래	-9.99863
▁아픈	-9.99895
▁재미없게	-9.99905
▁신선하	-9.9992
▁녹	-9.99927
▁보긴	-9.99978
▁자신이	-10.0001
장애	-10.0005
▁보기에	-10.001
▁옷	-10.0012
싶다	-10.0016
있냐	-10.0034
▁웃고	-10.0041
핀	-10.0051
거같은데	-10.0053
▁특별한	-10.0054
속의	-10.0054
▁번째	-10.0057
▁관객을	-10.0058
▁인해	-10.0062
▁전율	-10.0063
▁재미있어	-10.0063
문제	-10.0066
▁아예	-10.0066
▁배역	-10.0068
▁기대이상	-10.0069
▁이런영화를	-10.007
▁여름	-10.0071
▁보았습니다	-10.0072
▁보여주고	-10.0074
▁생각함	-10.0074
▁있구나	-10.0076
사람들은	-10.0077
▁줬	-10.0079
드립니다	-10.008
인생	-10.0085
▁액션씬	-10.0086
올리	-10.0092
▁충격적이	-10.0098
▁못함	-10.01
되었	-10.0104
▁아쉬웠	-10.0107
것같아요	-10.011
겠네요	-10.0118
이즈	-10.0118
▁식상	-10.0123
▁정의	-10.0124
▁야구	-10.0125
▁소름이	-10.0129
공주	-10.0136
스크	-10.0138
▁캐릭터가	-10.0138
▁그것도	-10.0139
▁노래도	-10.0142
▁정도의	-10.0143
▁탐	-10.0143
적이다	-10.0147
혹은	-10.0151
략	-10.0151
▁안타까운	-10.0153
▁신선	-10.0156
고싶은	-10.0156
▁떨어진다	-10.0157
▁모험	-10.0158
▁돼	-10.0159
▁최초	-10.0161
▁세상을	-10.0162
▁등등	-10.0163
▁비밀	-10.0165
▁단편	-10.0171
하기에	-10.0172
돋	-10.0178
그리	-10.0188
▁점줌	-10.0188
▁전쟁영화	-10.019
상실	-10.0193
했더니	-10.0196
였어	-10.0209
▁조작	-10.0216
겠음	-10.0217
없어서	-10.0224
하겠다	-10.0228
스키	-10.0235
▁명작입니다	-10.0246
하기도	-10.0249
삐	-10.0256
▁짜임새	-10.0256
▁잔뜩	-10.0256
▁색다른	-10.0256
따위	-10.0257
무서움	-10.0257
▁모두가	-10.026
▁형님	-10.0261
도아니고	-10.0266
▁내면	-10.0266
▁본영화	-10.0268
▁그만큼	-10.0283
▁할수	-10.0283
▁대놓고	-10.0288
▁에로영화	-10.0294
▁있으	-10.0297
임에도	-10.0305
▁싸움	-10.0308
▁자신을	-10.0318
▁흥	-10.032
▁최고였다	-10.032
▁죽는줄	-10.0323
▁조화	-10.0345
주면	-10.035
▁다루	-10.0354
어진	-10.0356
흡	-10.0357
셀	-10.036
멸	-10.036
▁쓰는	-10.0363
▁만든영화	-10.0365
▁않네요	-10.0365
▁그저그런	-10.0365
▁사고	-10.0367
▁억지스러운	-10.0367
▁화려하	-10.0373
▁끈	-10.0375
▁가족영화	-10.0378
▁오래된	-10.0382
▁세번	-10.0382
▁만들면	-10.0383
아까움	-10.039
었네요	-10.0394
쓸	-10.0398
▁불러	-10.0414
▁낮다	-10.0418
▁사진	-10.0423
▁생각나서	-10.0424
트리	-10.043
같네	-10.0432
▁훌륭하다	-10.0436
▁최고임	-10.0437
▁위해서	-10.0439
보내	-10.0445
▁넌	-10.0446
보지말	-10.0447
잃	-10.0449
▁본거	-10.0449
▁술	-10.0451
콘	-10.0452
▁재난영화	-10.0452
▁감정이	-10.0459
쿨	-10.0465
▁아이디어	-10.0465
▁심지어	-10.0466
손가락	-10.0467
▁못하다	-10.0468
▁결코	-10.047
▁바꾸	-10.047
▁훈훈	-10.0475
▁뻔하	-10.0476
좋아하는	-10.0476
버전	-10.0479
▁됬	-10.0483
▁하나같이	-10.0485
▁정말이지	-10.0488
▁깎	-10.0488
했다고	-10.0488
▁집에	-10.0491
보구	-10.0492
럴	-10.0497
▁단어	-10.0498
떡	-10.0507
샤	-10.0508
꼴	-10.0508
잠	-10.051
▁감안	-10.0512
▁답답하고	-10.0513
부분이	-10.0518
▁명화	-10.0525
▁듣고	-10.0529
사람들이	-10.0538
때문	-10.0545
안됨	-10.0547
▁먼가	-10.0547
▁멋지	-10.0562
힘	-10.0566
빠지	-10.0568
▁몽	-10.0568
랄까	-10.0569
▁극장가서	-10.0574
▁남자들	-10.058
건가요	-10.0585
▁알겠는데	-10.0586
▁가치가	-10.0594
스럽고	-10.0594
▁받는	-10.0594
▁만들다니	-10.0597
▁재미도없고	-10.06
▁영상이	-10.0615
빛	-10.0616
논	-10.0619
스릴러	-10.062
▁최근에	-10.0621
럽다	-10.0622
▁여러분	-10.0622
▁촌스럽	-10.0625
기억	-10.0634
▁문제가	-10.0635
▁제외	-10.064
▁낚였다	-10.0646
하길	-10.0648
떨어지	-10.0648
옴	-10.065
되나	-10.0659
▁슬퍼	-10.0659
▁소중	-10.0665
▁다운받아	-10.0673
▁오빠	-10.0679
쿵	-10.0679
▁후속작	-10.068
▁앞뒤	-10.0681
▁감정이입	-10.0681
▁있는지	-10.0681
▁아무런	-10.0685
▁아래	-10.0685
▁무엇인지	-10.0687
▁낙	-10.0694
▁성격	-10.0699
생활	-10.0708
▁살아가는	-10.0709
▁모르겠음	-10.0712
▁느꼈다	-10.0713
공포	-10.0722
▁쩌	-10.0724
▁엿	-10.0727
▁그당시	-10.0727
▁없습니다	-10.0728
▁다르다	-10.0728
▁있었는데	-10.0735
▁비하면	-10.0736
본영화	-10.0746
▁지났	-10.0747
▁재미없었다	-10.075
▁캬	-10.0751
▁분위기가	-10.0755
▁아니었	-10.0766
노래	-10.0776
▁돌리	-10.0782
▁여운을	-10.0784
좋겠	-10.0785
액	-10.0786
묵	-10.0787
▁블록버스터	-10.0788
▁살다살다	-10.0788
▁잔혹	-10.0789
▁적당히	-10.0797
▁작품은	-10.08
▁연극	-10.0803
▁추리	-10.0816
세상	-10.0817
▁변화	-10.0817
는거야	-10.0821
▁막장드라마	-10.0823
▁끝났	-10.083
▁배우를	-10.0831
▁풍자	-10.0834
그리고	-10.0837
▁분들은	-10.0844
본사람	-10.0845
영화인데	-10.085
학교	-10.0853
▁갖고	-10.0854
▁낚였	-10.0858
▁의미가	-10.0858
▁싶을	-10.086
▁승리	-10.0864
▁애들은	-10.0864
▁달달	-10.0864
▁혹시	-10.0865
▁뭐하나	-10.0866
긴하지만	-10.0866
▁어색하	-10.0872
긴다	-10.0875
거같아요	-10.0884
야겠다	-10.0885
▁출연한	-10.0885
평점이	-10.0887
닿	-10.0891
만듬	-10.0892
▁아닙니다	-10.0898
▁잘봤어요	-10.0898
찔	-10.0898
▁끔찍	-10.0898
▁사운드	-10.0898
▁소소한	-10.0898
당한	-10.0899
라곤	-10.0899
▁데리고	-10.0907
▁첨엔	-10.091
매력	-10.0912
▁가정	-10.0915
▁왔	-10.0925
▁선동	-10.0927
▁부실	-10.0928
▁재미있습니다	-10.0931
▁내가본	-10.0939
▁원작에	-10.0949
▁촌	-10.0953
▁높게	-10.0961
싸움	-10.0966
▁주인공은	-10.0969
▁식상한	-10.0969
▁안습	-10.0971
▁반전은	-10.0976
시오	-10.0978
▁뛰어나	-10.0979
▁아니야	-10.098
▁기준	-10.098
▁개연성도	-10.0981
지도않고	-10.0982
▁별로임	-10.0988
때매	-10.0991
다른	-10.0991
▁폐지	-10.0992
▁년도에	-10.0993
▁찾아보	-10.0995
▁길게	-10.0996
스럽게	-10.0997
▁깔	-10.0999
브라	-10.1003
좋음	-10.1003
픽	-10.1006
▁지나도	-10.1009
숭	-10.1009
렷	-10.1009
닉	-10.1009
▁장국영	-10.1009
▁울컥	-10.1009
▁작위적	-10.1011
▁여주가	-10.1011
후에	-10.1016
▁또다른	-10.1017
▁등장인물	-10.1018
웃음	-10.102
▁대단하	-10.102
▁그야말로	-10.102
▁맡	-10.1023
▁죽인	-10.103
었을	-10.1035
▁수많은	-10.1038
▁좀비영화	-10.1039
▁잼나게	-10.1047
▁수준의	-10.1049
▁엉성하고	-10.1061
▁살면서	-10.1066
▁책을	-10.1069
▁가슴을	-10.1072
꽃	-10.1074
밤	-10.1076
▁노래가	-10.1076
얼굴	-10.1079
▁연기자	-10.1081
깝	-10.1081
▁남은	-10.1082
▁헬	-10.1083
▁마지막까지	-10.1084
무섭	-10.1086
▁연출과	-10.1091
▁시청률이	-10.1094
내가	-10.1095
녕	-10.1098
닐	-10.1101
▁요리	-10.1106
있습니다	-10.111
자리	-10.112
▁가면	-10.112
뚱	-10.1121
▁태어나서	-10.1121
▁충실	-10.1125
▁첫사랑	-10.1127
▁맞추	-10.1127
▁감각	-10.1128
▁담배	-10.1131
▁열받	-10.1132
▁열연	-10.1142
기에는	-10.1142
앞에서	-10.1142
쓰고	-10.1143
만하다	-10.1149
▁싸우는	-10.115
했지	-10.1151
▁잼잇	-10.1152
▁신파	-10.116
▁잼나	-10.1164
▁보려	-10.1164
▁코미디영화	-10.1165
였으면	-10.1165
▁낮네	-10.1169
▁으리	-10.1175
▁놀랍다	-10.1182
▁공포물	-10.1184
▁매일	-10.119
궁	-10.1193
햇다	-10.1197
▁잘만들었	-10.12
▁언니	-10.1203
관람	-10.121
▁당신은	-10.1212
섭	-10.1218
▁예쁘고	-10.1218
덕에	-10.1218
▁낮아	-10.1226
영화입니다	-10.1226
아깝	-10.1227
▁의문	-10.1228
받아	-10.1229
최	-10.123
▁약간의	-10.1232
옹	-10.1233
▁됩니다	-10.1235
▁특수효과	-10.1235
▁로버트	-10.1235
▁아류작	-10.1235
▁많은데	-10.1235
▁다양한	-10.1236
▁핵노잼	-10.1236
했을때	-10.1236
▁배경음악	-10.1237
▁흔들	-10.124
▁사상	-10.1242
▁운명	-10.1243
▁처음에는	-10.1243
▁엘	-10.1245
▁폐	-10.1247
▁탄생	-10.1247
짜증나	-10.1247
▁북	-10.125
마냥	-10.1252
▁답이	-10.1252
▁좋겠	-10.1255
▁포인트	-10.1259
▁그자체	-10.1275
왓	-10.1277
▁조카	-10.1279
▁자리	-10.1282
▁만남	-10.1285
▁매력을	-10.1286
▁방식	-10.1289
▁싱	-10.1297
해준다	-10.1299
없는영화	-10.13
멍	-10.1313
었네	-10.1325
▁볼게	-10.1326
▁봤네	-10.133
거리는	-10.1333
객	-10.134
륜	-10.1347
보셈	-10.1349
룩	-10.135
▁스티븐	-10.135
▁심형래	-10.135
▁러시아	-10.135
▁편을	-10.135
▁잡아	-10.1352
▁이드라마	-10.1352
▁짧은	-10.1354
▁잔인	-10.1358
▁년작	-10.1362
▁한국에서	-10.1372
▁무료	-10.1373
▁이딴걸	-10.1375
▁느껴지	-10.1384
▁집중해서	-10.1387
▁궁	-10.139
쓰는	-10.1392
▁두고	-10.1394
거든	-10.1396
▁안볼	-10.1396
▁결말을	-10.1397
하기만	-10.1398
▁시간아깝다	-10.1403
▁죽이고	-10.1413
▁구성이	-10.1414
못해	-10.1415
▁돈을	-10.1415
▁봅니다	-10.1419
▁이런건	-10.1425
▁하아	-10.1426
리스트	-10.1429
▁뭐니	-10.1431
겠죠	-10.1432
▁정작	-10.1435
갑니다	-10.1437
▁축	-10.1448
되었다	-10.1449
아쉽	-10.1456
해주고	-10.146
▁철학적	-10.1461
▁샘	-10.1463
뽀	-10.1466
럭	-10.1466
찐	-10.1466
▁플롯	-10.1466
▁집착	-10.1469
구석	-10.1473
▁여자주인공	-10.1476
▁놀라운	-10.1477
▁만들었는지	-10.148
▁꼬마	-10.1486
받았	-10.1488
▁볼만했	-10.1489
▁포스	-10.1493
▁다시보니	-10.1497
▁짜증만	-10.1501
▁하다가	-10.1502
▁빼면	-10.1502
▁궁금하다	-10.1507
▁아쉽지만	-10.1511
▁레이	-10.1512
보니까	-10.1514
▁생각했는데	-10.1519
▁생긴	-10.1523
받아서	-10.1526
▁밋밋	-10.1528
▁많은걸	-10.1531
▁그립다	-10.1532
볼만	-10.1533
든지	-10.1538
▁조선	-10.1542
꿀잼	-10.1544
▁내용인지	-10.1544
▁친구가	-10.1545
▁생활	-10.1545
것같은	-10.1546
▁신비	-10.1553
큰	-10.1556
▁거리	-10.156
커플	-10.1561
▁톰	-10.1576
▁낮게	-10.1579
갱	-10.1584
▁쓸데없이	-10.1584
▁이상하게	-10.1586
▁바랍니다	-10.1586
▁당연히	-10.1589
▁쌍	-10.1589
▁안본	-10.1591
▁뭘까	-10.1592
▁크리스	-10.1592
둥이	-10.1593
▁일반	-10.1595
▁근래	-10.1596
▁어느정도	-10.1596
▁엔딩이	-10.1598
▁주기도	-10.1601
▁조절	-10.1614
▁보기에는	-10.1615
했다면	-10.1618
놈이	-10.1623
▁욕심	-10.1625
▁만들수	-10.1626
▁형편없	-10.1627
연기도	-10.1628
갔는데	-10.1634
▁볼수있는	-10.1635
▁신선했	-10.1639
▁키스	-10.164
▁이해할수	-10.1642
▁호구	-10.1643
▁역사를	-10.1647
▁손에	-10.1648
▁반대	-10.1648
보이는	-10.1665
▁불쌍한	-10.167
▁배신	-10.167
▁잘하는	-10.1673
▁맞지	-10.1673
떨어진	-10.1679
▁남네요	-10.1683
▁편안	-10.1684
강추	-10.1686
▁교훈을	-10.1687
스카	-10.1692
둥	-10.1693
▁몰랐다	-10.1695
▁해리포터	-10.1703
▁주윤발	-10.1703
▁제니퍼	-10.1703
▁교과서	-10.1703
법한	-10.1704
▁살린	-10.1707
▁할아버지	-10.1707
▁소년	-10.1707
▁위험	-10.1707
▁때려	-10.1708
기전에	-10.1711
▁영향	-10.1714
▁일부러	-10.1715
아까웠	-10.1716
▁만약	-10.1718
어지는	-10.172
▁따분	-10.172
▁프리	-10.1722
해야할	-10.1725
▁한편의	-10.1726
▁어울리는	-10.1727
▁점이상	-10.1728
▁소설을	-10.1734
▁케이블에서	-10.1736
주기	-10.1736
대사	-10.1741
▁책임	-10.1742
▁재밋어요	-10.1746
▁꽤나	-10.1746
▁편도	-10.1755
▁바다	-10.1763
▁어른이	-10.1767
▁짜증나서	-10.1768
▁어처구니	-10.1772
▁해라	-10.1774
▁주제를	-10.1777
▁줄수	-10.1777
▁인도	-10.1778
▁매력적	-10.1781
▁망친	-10.1783
▁배우들은	-10.1784
▁기회	-10.1785
거같음	-10.1788
았지만	-10.1791
씬이	-10.1792
▁시간만	-10.18
▁만한	-10.1804
거죠	-10.1808
▁낮지	-10.1809
▁목적	-10.181
▁이런영화는	-10.1814
▁소재도	-10.1814
▁불쌍하다	-10.1817
할만한	-10.1817
섹	-10.1822
▁귀여워	-10.1823
▁임팩트	-10.1823
벼	-10.1823
싹	-10.1823
▁가벼운	-10.1823
컴	-10.1823
▁반드시	-10.1823
▁유일하게	-10.1824
▁아닐	-10.1824
할수없	-10.1825
▁두번째	-10.1826
▁년만에	-10.1828
▁순수함	-10.183
▁여자친구	-10.1833
▁나름대로	-10.1842
▁좋겠네요	-10.1846
▁포스터가	-10.1847
▁정상	-10.1847
▁봐도봐도	-10.1848
▁말하고자	-10.1849
▁나에겐	-10.1855
▁어설프고	-10.1856
▁주제가	-10.1857
▁예쁘다	-10.1859
▁우연	-10.1861
것만으로도	-10.1861
▁혹시나	-10.1861
감독님	-10.1862
티비	-10.1871
▁부분도	-10.1875
▁아름답	-10.1875
▁않아서	-10.188
▁웃겼	-10.1884
▁다운	-10.1893
▁점대는	-10.1897
모르겟	-10.1897
▁했으면	-10.1898
있을	-10.1899
▁주연배우	-10.1899
만드네	-10.19
▁상업	-10.1903
▁처음에	-10.1905
▁안맞는	-10.1909
▁난해하	-10.192
잖	-10.1923
▁명장면	-10.1923
뇌	-10.1927
▁억지스럽	-10.1928
몇	-10.1929
따구	-10.1929
덜	-10.1931
맥	-10.1933
▁최고로	-10.1934
시간이	-10.1936
장난	-10.1939
▁섬	-10.194
볼까	-10.1943
찮	-10.1944
▁배트맨	-10.1945
▁클레멘타인	-10.1945
▁터미네이터	-10.1945
▁따뜻하고	-10.1945
▁인내심	-10.1945
▁홍상수	-10.1945
▁늑대	-10.1945
▁내생에	-10.1947
▁아까웠다	-10.1948
▁거기다	-10.195
▁엉망이	-10.1951
▁상영관	-10.1954
▁어째	-10.1957
▁추격	-10.1959
▁봤을까	-10.196
▁담겨	-10.1961
▁재능	-10.1963
▁마약	-10.1967
▁무리	-10.1972
사건	-10.198
▁동심	-10.1982
▁아름답게	-10.1983
▁생각할	-10.199
▁타고	-10.199
▁강렬한	-10.1996
없었	-10.1997
▁곧	-10.1997
▁깜	-10.1999
여행	-10.2
▁그동안	-10.2005
▁못보겠	-10.2008
▁나랑	-10.2014
▁확인	-10.2015
려다가	-10.2016
▁여전	-10.2016
▁삶이	-10.2017
▁떨	-10.2019
지말자	-10.2025
▁내용과	-10.2029
▁있다니	-10.203
▁결론은	-10.2035
두고	-10.2036
▁연인	-10.2038
▁재미없어서	-10.2042
쟁	-10.2043
똥	-10.2045
라는걸	-10.2048
것처럼	-10.2048
▁보던	-10.2051
제작	-10.2054
▁흐르는	-10.2057
몸	-10.2058
벗	-10.2059
▁떨어지고	-10.206
▁볼때	-10.2068
▁고등학교	-10.2069
▁설득력	-10.2069
▁조니뎁	-10.2069
긋	-10.2069
▁짜집기	-10.2069
▁모른다	-10.2069
쳐서	-10.207
▁유일한	-10.207
▁웃으면서	-10.2076
▁멋졌	-10.2081
치고는	-10.2082
▁디워	-10.2084
▁단순히	-10.2085
▁예능	-10.2086
▁시리즈는	-10.2092
질질끌	-10.2097
이랄까	-10.21
▁하하	-10.2122
▁새벽에	-10.2124
않은	-10.2134
아까운	-10.2141
▁아까운영화	-10.2142
부분은	-10.2143
▁선물	-10.2144
▁넘게	-10.2156
▁수작이다	-10.2159
있네	-10.2163
▁빵	-10.2163
듯하다	-10.217
하진	-10.2173
▁수입	-10.2181
▁엄마가	-10.2182
▁죽었	-10.2185
유치	-10.2185
▁없으면	-10.2187
렵	-10.2188
▁자체는	-10.2189
아저씨	-10.2191
▁뱀파이어	-10.2194
탱	-10.2194
▁숨겨진	-10.2194
▁유덕화	-10.2194
▁틀어	-10.2194
▁이소룡	-10.2194
▁박진감	-10.2194
▁빵빵	-10.2194
▁여러번	-10.2198
▁응원	-10.2199
▁끼워	-10.2204
부러	-10.2208
하니까	-10.2213
▁불편한	-10.2217
▁개념	-10.2221
▁하지원	-10.2223
뿐이다	-10.2225
보여주	-10.2226
뻔한	-10.2227
▁피해	-10.2229
▁독일	-10.2232
럽게	-10.2237
▁만든거	-10.2243
▁가족들	-10.2248
▁현실과	-10.2255
▁모든걸	-10.2258
▁저급	-10.2274
▁잘만들	-10.2277
▁쥐	-10.228
▁발상	-10.2284
▁초딩때	-10.2285
▁음식	-10.2287
▁잠이	-10.2297
▁눈물나	-10.2298
방식	-10.23
보고싶다	-10.2305
▁오글거리	-10.2305
이었습니다	-10.2306
▁상대	-10.2307
▁내일	-10.2319
촌	-10.232
삭	-10.232
랭	-10.232
및	-10.232
▁대통령	-10.232
▁제이슨	-10.2321
▁언제봐도	-10.2329
▁허허	-10.2329
맞추	-10.2329
▁생각으로	-10.233
▁에효	-10.233
▁다섯	-10.233
▁공감할	-10.2332
▁재미로	-10.234
▁괜찮았다	-10.2341
▁끝에	-10.2344
엔딩	-10.2349
▁로코	-10.235
마디	-10.2354
▁점이다	-10.2355
혼자	-10.2361
▁마지막회	-10.2365
▁기억나는	-10.2367
▁실화를	-10.2368
본영화중	-10.2371
▁어렵다	-10.2372
▁희망을	-10.2375
쁜	-10.2382
먹은	-10.2383
있었다	-10.2388
출연	-10.2391
▁후에	-10.2394
▁제목만	-10.2395
▁인상적	-10.2403
▁세상이	-10.2404
▁하나로	-10.2409
▁삼류영화	-10.2415
같고	-10.2417
▁재밌어서	-10.2424
▁어디에	-10.243
▁일본인	-10.2437
▁살아있	-10.2442
빌	-10.2446
▁이상하고	-10.2447
▁우뢰매	-10.2449
▁뭥미	-10.2449
▁컴퓨터	-10.2449
땀	-10.2449
▁이토록	-10.2449
▁갠적으로	-10.2449
▁이끌어	-10.2449
▁아이들과	-10.245
▁맞춰	-10.2452
썼	-10.2453
▁잔잔	-10.2455
▁최고의영화	-10.246
▁동양	-10.2468
▁개노잼	-10.247
▁감동받	-10.2472
▁무너	-10.2472
달아	-10.2473
려나	-10.2475
될듯	-10.2476
▁좋네	-10.2478
할것	-10.2484
▁바라보	-10.2489
에대해	-10.2495
못하는	-10.2495
▁아우	-10.2496
▁많아서	-10.2496
보게되	-10.2496
▁괜찮음	-10.25
▁과학	-10.2506
▁의사	-10.2507
▁사랑해	-10.2509
▁사랑해요	-10.2511
감독의	-10.2515
오브	-10.2518
▁참신하	-10.252
보인다	-10.253
▁아쉬움이	-10.2532
씀	-10.2533
▁부부	-10.2535
▁짜증이	-10.2537
▁빅	-10.2544
있지	-10.2548
줄알았	-10.2548
살아	-10.2554
▁들고	-10.2555
▁재밋음	-10.2555
▁봤어	-10.2559
▁즐거웠	-10.256
▁그지같	-10.2562
스토	-10.2563
▁영상과	-10.2563
▁오락영화	-10.2565
▁이해를	-10.2567
적이지	-10.2567
꾼	-10.2574
균	-10.2576
▁명배우	-10.2577
▁할리우드	-10.2578
셋	-10.2578
퓨	-10.2578
깃	-10.2578
뗄	-10.2578
▁착각	-10.2579
▁사투리	-10.2579
▁깜짝	-10.2579
▁잤다	-10.2583
▁보다니	-10.2583
▁서양	-10.2584
▁아무튼	-10.2584
갓	-10.2588
▁안봐도	-10.2592
▁울리는	-10.2603
하러	-10.261
▁강한	-10.2611
웨이	-10.2615
▁봐야하는	-10.2616
배경	-10.2618
공포영화	-10.2623
였나	-10.2627
보신분	-10.2628
할뿐	-10.263
물로	-10.2633
▁정보	-10.2633
▁쓰고	-10.2634
▁돋보이는	-10.2642
머니	-10.2643
톤	-10.2646
쓰레기영화	-10.2649
▁지겹다	-10.2652
▁현실감	-10.2655
▁잼있음	-10.2656
지않아	-10.2659
▁싶어요	-10.2662
▁밀려	-10.2667
▁같고	-10.2667
▁기타	-10.2682
▁실수	-10.2687
▁슈	-10.2693
▁얘	-10.2695
▁이상해	-10.2696
평가	-10.27
▁거장	-10.2702
갈때	-10.2702
▁가수	-10.2702
▁매니아	-10.2707
닫	-10.2709
램	-10.271
젖	-10.271
▁쓸데없는	-10.271
▁아놀드	-10.271
▁흑백	-10.271
▁영환데	-10.2711
▁겨울	-10.2712
▁뭐하자는	-10.2712
▁실험	-10.2713
▁마음으로	-10.2713
하는건지	-10.2716
▁빠른	-10.2716
▁형제	-10.2717
▁쉽지	-10.2718
▁사라지	-10.2718
▁적어도	-10.2719
▁하길래	-10.2727
▁내용전개	-10.2728
▁다운받	-10.2729
▁짜증남	-10.273
몰입	-10.273
▁잘못된	-10.2731
랜드	-10.2733
▁받은	-10.2744
▁아깝고	-10.2745
기도하고	-10.2746
받을	-10.2749
옆	-10.2749
▁머리가	-10.2756
▁넘치	-10.2758
수밖에	-10.2758
끝까지	-10.2759
▁이번에	-10.2762
▁쩔어	-10.2774
▁없었음	-10.2776
▁집중이	-10.2777
좋았다	-10.279
젠	-10.2792
▁검색	-10.2798
일듯	-10.2804
았어요	-10.2806
▁멋지고	-10.2806
분들은	-10.281
▁앞에	-10.2811
▁장진	-10.2822
▁마리	-10.283
▁갔다	-10.2834
▁벤	-10.2834
딘	-10.2843
▁왤케	-10.2843
짤	-10.2843
▁나레이션	-10.2843
▁컨셉	-10.2843
▁희대의	-10.2843
▁하정우	-10.2844
뭐야	-10.2844
▁시대에	-10.2846
▁즐겨	-10.2847
▁명대사	-10.2848
▁만화책	-10.2848
▁장난하냐	-10.2849
▁처절	-10.2849
▁다시보고싶	-10.2852
▁어색하고	-10.2855
▁서울	-10.2855
▁충분	-10.2856
느껴	-10.2863
팀	-10.2864
보시길	-10.2867
▁여주인공이	-10.2869
▁정신없	-10.287
▁하품	-10.2873
▁살리	-10.2875
▁진부	-10.2876
▁뒤에	-10.2889
▁정신병자	-10.2892
▁남았	-10.2894
▁없나요	-10.2897
▁모르겠네요	-10.2907
알아	-10.2908
▁사랑한다	-10.2909
▁생기	-10.2912
▁논리	-10.2921
감정	-10.2923
▁중심	-10.2923
▁보이지	-10.2924
▁안간다	-10.2926
▁포스터에	-10.2929
▁만들기	-10.2935
맘	-10.2935
계속	-10.2947
▁어디가	-10.2947
▁맛이	-10.2954
역시	-10.2958
▁잠들	-10.296
셈	-10.2962
▁내돈	-10.2965
콧	-10.2975
눌	-10.2978
밴	-10.2978
▁네티즌	-10.2978
▁오랫만에	-10.2978
뎅	-10.2978
▁공짜로	-10.2978
부끄럽	-10.2979
▁유치해	-10.298
▁줍니다	-10.298
▁떨어짐	-10.2981
▁평균	-10.2981
▁탈출	-10.2982
▁장면들	-10.2982
▁저평가	-10.2987
▁요새	-10.2988
▁여친	-10.2995
굳	-10.3004
싫어	-10.3009
▁어거지	-10.3011
느끼	-10.3013
▁다시보고	-10.3016
▁쭉	-10.3019
▁떠오르	-10.3019
▁아냐	-10.3028
슬프	-10.3028
▁아진짜	-10.3043
▁않으	-10.3044
▁진수	-10.3059
재밌어	-10.3061
▁다르게	-10.3066
같아서	-10.307
▁선정	-10.3073
무시	-10.3083
장르	-10.309
▁따위	-10.3092
으려고	-10.3103
▁사용	-10.3105
▁굉장	-10.3109
▁점수는	-10.3113
보긴	-10.3115
맞는	-10.3115
▁싸우	-10.3115
▁인터넷	-10.3115
▁송강호	-10.3115
▁케릭터	-10.3115
▁움직이	-10.3115
▁이뻐서	-10.3116
▁도무지	-10.3116
▁이런류의	-10.3117
▁민폐	-10.3117
▁폭풍	-10.3118
져요	-10.3122
▁루즈	-10.3123
▁스릴도	-10.3124
▁돈내고	-10.3125
줄알았는데	-10.3127
▁판단	-10.3127
못한	-10.3129
▁훈훈하	-10.3137
▁재미있을	-10.3139
▁히어로	-10.314
▁최고봉	-10.3146
▁안보는게	-10.3149
▁인형	-10.3151
▁여자애	-10.3153
▁평소	-10.3156
▁궁금해서	-10.3159
▁배경이	-10.3162
▁높아서	-10.3165
▁박수	-10.3166
▁공간	-10.3173
▁육	-10.3174
▁허술한	-10.3174
▁하는게	-10.3179
▁장난치	-10.3179
소설	-10.3184
▁떡	-10.3198
▁봤다면	-10.3198
▁잊고	-10.3202
▁황당한	-10.3208
▁달려	-10.321
▁떨어	-10.3222
하시길	-10.3224
▁세월	-10.3225
▁화나	-10.3227
▁김치	-10.3231
▁학년	-10.3233
장면은	-10.3239
▁고어	-10.3242
▁갓	-10.3244
▁망했	-10.3251
▁의상	-10.3253
▁짐캐리	-10.3254
곱	-10.3254
앨	-10.3254
켄	-10.3254
▁걱정	-10.3254
▁죄송	-10.3256
▁떼	-10.3256
▁귀엽다	-10.3257
▁알겠다	-10.3259
▁재개봉	-10.3259
▁각색	-10.3259
▁왜이러	-10.3261
▁관련	-10.3261
▁폭발	-10.3262
▁믿고보는	-10.3263
▁유럽	-10.3265
▁아만다	-10.3277
▁이루	-10.3284
▁나네요	-10.3292
▁잔잔하게	-10.3296
▁기존	-10.3296
웃김	-10.3299
▁최소한	-10.3303
모두	-10.3303
▁어울리지	-10.3304
▁마지막엔	-10.3315
또한	-10.3318
▁한국판	-10.333
보소	-10.3332
개그	-10.3333
틴	-10.3337
▁없냐	-10.3345
▁얼굴이	-10.3347
▁어쩌면	-10.3349
▁짜증나고	-10.3352
▁불안	-10.3354
하지말고	-10.3356
자들이	-10.3357
▁볼만했다	-10.3366
▁초등학교	-10.337
레스	-10.3381
낭	-10.3386
▁최소	-10.3388
닷	-10.3395
얄	-10.3395
▁브루스	-10.3395
▁내생애	-10.3395
▁명복을	-10.3395
▁보시면	-10.3396
▁달콤	-10.3396
▁꿈꾸	-10.3398
▁손발	-10.3402
▁미스	-10.3402
▁극복	-10.3406
▁억지감동	-10.3407
▁이루어	-10.3407
▁거북	-10.3407
▁작품입니다	-10.3408
▁라스트	-10.3409
▁따라가	-10.341
▁자극적인	-10.3411
▁없게	-10.3411
▁즐	-10.3411
▁무엇인가	-10.3412
올라	-10.3412
▁볼만합니다	-10.3413
할수가	-10.3413
▁괜찮았는데	-10.3417
▁아들이	-10.3418
▁남긴	-10.3418
▁살인마	-10.3419
▁반담	-10.3421
있으면	-10.3422
▁적당한	-10.3425
▁원조	-10.3426
▁부담	-10.3426
▁마음속	-10.3426
▁이름이	-10.3429
▁절정	-10.343
▁오브	-10.3433
있지만	-10.3433
▁스토리전개	-10.3436
▁한방	-10.3438
▁갑니다	-10.344
비디오	-10.3441
▁시작부터	-10.3443
신분	-10.3444
▁액션신	-10.345
▁재미없을	-10.3455
▁의지	-10.3464
드립	-10.3464
곳이	-10.3476
▁강렬	-10.3482
나왓	-10.3485
▁다신	-10.3485
▁유발	-10.3495
것보다	-10.3515
▁보게된	-10.3516
▁인간은	-10.3524
▁부정	-10.3535
깍	-10.3535
엑	-10.3538
▁언젠가	-10.3538
닼	-10.3538
▁리얼리티	-10.3538
▁오프닝	-10.3538
▁임창정	-10.3538
▁자동차	-10.3538
덩어리	-10.3538
▁정우성	-10.3538
▁환경	-10.3539
▁스포츠	-10.3539
▁소중함을	-10.354
▁왠만한	-10.3542
▁은근히	-10.3544
▁파괴	-10.3547
볼수있	-10.3549
▁개똥	-10.3553
▁꼭보세요	-10.3554
▁무겁	-10.3555
▁천국	-10.3557
만큼이나	-10.3557
굿굿굿	-10.3557
▁거품	-10.3559
▁소장	-10.3562
▁끝내주	-10.3567
▁만들어주	-10.3572
▁꿀	-10.3572
▁유행	-10.3578
못하고	-10.3585
었는지	-10.3585
햇는데	-10.3586
▁평화	-10.3587
뻔했다	-10.3588
앤	-10.3589
▁말자	-10.3595
▁부럽	-10.3596
보는게	-10.3597
하군	-10.36
▁비슷하	-10.3604
▁그렇지만	-10.3604
▁기대없이	-10.3608
▁본건데	-10.3609
▁사랑합니다	-10.3611
▁넣어	-10.3614
▁예술영화	-10.3619
억지	-10.362
하지마	-10.362
▁잔잔하면서	-10.362
엇는데	-10.3622
▁가득한	-10.3632
낮은	-10.3633
▁대신	-10.3634
▁파리	-10.3637
▁어이없다	-10.3641
▁팀	-10.3661
▁추천하고	-10.3663
차별	-10.3665
주기도	-10.3666
▁표현할	-10.3675
▁포스터만	-10.3677
▁가능한	-10.368
납	-10.368
꼈	-10.3682
낯	-10.3683
팍	-10.3683
▁명불허전	-10.3683
뻥	-10.3683
웟	-10.3683
랩	-10.3683
▁도데체	-10.3683
▁제시카	-10.3683
▁헛웃음	-10.3684
▁블랙코미디	-10.3684
발랄	-10.3685
▁한개도	-10.3685
▁곰	-10.3686
오래	-10.3688
▁시점	-10.3688
▁우려먹	-10.3691
▁그것이	-10.3692
▁뻔한스토리	-10.37
▁멋있는	-10.3701
▁영화라니	-10.3702
자마자	-10.3703
▁정도면	-10.371
▁축구	-10.3715
높은	-10.3718
▁믿기지	-10.3724
▁영원한	-10.3726
▁쫓	-10.3727
잖아요	-10.3734
▁글고	-10.3736
▁빛을	-10.3736
▁끌고	-10.3737
었지	-10.3739
허접	-10.3741
▁녹아	-10.3749
더빙	-10.3751
▁놀랍	-10.3752
졸작	-10.3753
▁않았지만	-10.3755
▁별하나	-10.3756
▁죽고	-10.3758
▁난리	-10.3761
▁나이가	-10.3763
▁지겹	-10.3766
▁유치해서	-10.3768
▁매미	-10.3768
곳에서	-10.3768
▁소화	-10.3772
▁영상미가	-10.3774
▁좋을듯	-10.3778
▁그것을	-10.3781
▁보고싶어	-10.3782
▁갖다	-10.3798
재미없음	-10.3799
등록	-10.3801
녀석	-10.3802
빠져	-10.3803
할줄	-10.3804
▁재미있는데	-10.3813
않다	-10.3816
▁등장인물들	-10.3818
빼	-10.3819
▁매력에	-10.3827
▁자아	-10.3829
▁찾는	-10.383
덩	-10.383
▁류승범	-10.383
▁역겨운	-10.383
껀	-10.383
▁아무생각없이	-10.383
▁깡패	-10.383
▁동시에	-10.3831
▁돈아까워	-10.3833
▁러브	-10.3834
장에서	-10.3834
▁분만에	-10.3836
▁찾아볼	-10.3838
▁그림체	-10.3838
▁전체적인	-10.3843
▁진지한	-10.3845
▁놓치	-10.3847
▁여태	-10.3849
▁첨부터	-10.3856
공감	-10.3859
▁벌어	-10.3859
▁신인	-10.3865
아빠	-10.3865
▁아깝네	-10.3866
▁먹는	-10.3868
▁보았는데	-10.387
▁생각난다	-10.3878
▁친구랑	-10.3878
▁극중	-10.3878
▁담은	-10.3881
하자면	-10.3885
▁답답함	-10.3886
▁각자	-10.3888
▁졸려	-10.3889
▁과장	-10.389
▁보는거	-10.3895
▁나무	-10.3899
표정	-10.3902
스톤	-10.3902
▁목소리가	-10.3904
▁싶었다	-10.3907
왔어요	-10.3909
▁잠시	-10.3913
▁사랑하고	-10.3918
었나	-10.3919
▁만난	-10.3931
▁작품이라	-10.3935
▁옆에	-10.3935
▁분장	-10.3935
자들의	-10.3936
▁여배우들	-10.3941
▁괜찮아	-10.3946
줬으면	-10.3948
▁두시간	-10.3955
놨네	-10.3965
▁그립	-10.3968
▁아동	-10.3969
▁생명	-10.397
▁찍고	-10.3975
걷	-10.3979
똘	-10.3979
릇	-10.3979
인상깊었	-10.3979
▁이병헌	-10.3979
▁어두운	-10.3979
▁가까운	-10.3979
▁베드신	-10.3979
▁라이언	-10.3979
▁첩보	-10.398
▁상관없	-10.398
보느니	-10.398
▁센스	-10.3982
▁좋았을텐데	-10.3983
말이필요없	-10.3983
▁빛나는	-10.3984
▁역량	-10.3984
▁이해불가	-10.3985
▁전반적으로	-10.3987
▁고독	-10.3988
▁안될	-10.3992
것같은데	-10.3995
▁조연들	-10.3998
▁인류	-10.4007
▁만들어서	-10.4012
보고있어요	-10.4026
▁교훈도	-10.4034
▁탄탄하고	-10.4035
▁아깝네요	-10.4046
겐	-10.4053
▁사람들에게	-10.4055
▁보기싫	-10.4056
▁아파	-10.4064
할수있는	-10.407
웃겨	-10.407
▁왜곡	-10.4075
▁류영화	-10.4078
▁분들이	-10.4079
봐야지	-10.4082
작이라	-10.4084
▁불가능	-10.4089
▁책으로	-10.4094
▁아프다	-10.4111
▁명연기	-10.4114
윈	-10.4114
▁밤에	-10.4115
▁찍는	-10.4117
▁볼려고	-10.412
유쾌하게	-10.4123
▁허무한	-10.4128
▁듭니다	-10.4131
▁웰메이드	-10.4131
몫	-10.4131
▁신하균	-10.4131
뢰	-10.4131
썸	-10.4131
읍	-10.4131
▁드디어	-10.4131
▁양아치	-10.4131
▁즐길	-10.4136
▁상징	-10.4138
▁깨알	-10.4139
▁절망	-10.4142
▁뭐임	-10.4146
▁무섭고	-10.4147
▁개콘	-10.415
▁만들어낸	-10.4151
▁읽고	-10.4152
▁강력	-10.4161
▁다행이다	-10.4162
▁적절한	-10.4166
▁사람이라면	-10.4168
▁치유	-10.4168
▁씹	-10.417
▁좋지	-10.4171
▁울면서	-10.4179
▁짝이	-10.4183
▁먹먹하	-10.4187
▁만들었나	-10.4188
있어요	-10.419
게만드는	-10.4191
빠진	-10.4195
▁강간	-10.4196
▁천만	-10.4203
▁전개와	-10.4211
▁생에	-10.4213
▁소장하고	-10.4215
▁돼지	-10.4215
▁알았네	-10.4224
▁남성	-10.4233
▁마니	-10.4234
▁일부	-10.4235
▁정신병	-10.4241
▁떨어져	-10.4245
▁기적	-10.4255
렬	-10.4255
▁아니었다	-10.4274
▁미국식	-10.4278
젊	-10.4281
괜	-10.4284
▁빕니다	-10.4285
▁호기심	-10.4285
▁배급사	-10.4285
▁혐오	-10.4285
▁일주일	-10.4285
▁누군지	-10.4285
▁무간도	-10.4286
능력	-10.4286
▁귀여움	-10.4287
▁짜릿	-10.4287
찾아	-10.4288
▁케빈	-10.4288
▁부탁	-10.4289
▁이것보단	-10.429
▁좋앗	-10.4292
습니까	-10.4298
▁말아야	-10.43
▁백인	-10.431
였지	-10.431
▁담긴	-10.4317
▁봐야지	-10.4318
▁재미있었음	-10.4321
▁실감	-10.4335
▁무섭지	-10.4339
꺼면	-10.4341
▁초반부	-10.4342
▁인디	-10.4343
▁부족함	-10.4344
▁재난	-10.4346
▁뜬금없는	-10.4357
▁기대이하	-10.4363
비슷	-10.4371
진심	-10.4373
▁자극적	-10.4376
▁신선함	-10.4378
▁동네	-10.4379
▁단점	-10.4383
▁나오는데	-10.4385
▁보고나니	-10.4389
아쉬워요	-10.4391
셔야	-10.4392
늙	-10.4404
재미있어요	-10.4406
▁장난아니	-10.441
▁끝나서	-10.4413
주연	-10.4417
뭐냐	-10.4418
▁대사들	-10.4419
▁배경으로	-10.4424
▁찾아서	-10.4427
랙	-10.4441
뭉	-10.4441
빗	-10.4441
퀄	-10.4441
▁박중훈	-10.4441
▁오글오글	-10.4441
▁러브라인	-10.4441
▁하이틴	-10.4441
▁무거운	-10.4441
미스테리	-10.4441
▁낭만	-10.4443
▁쪼	-10.4444
▁극단적	-10.4445
▁고뇌	-10.4445
▁장애인	-10.4446
▁동영상	-10.4447
▁말그대로	-10.4447
▁은근	-10.4448
에비해	-10.445
특집	-10.4452
▁벗어	-10.4455
▁거지같은	-10.4457
▁로빈	-10.4459
▁분동안	-10.4459
▁놀란	-10.4467
곳에	-10.4468
▁전화	-10.4469
▁대표	-10.4471
하실	-10.4473
▁괜찮았음	-10.4475
답게	-10.4482
▁언제까지	-10.4489
스코	-10.4489
것같아	-10.4489
▁풋풋한	-10.4493
▁알았음	-10.45
봣다	-10.4507
특별	-10.4511
싶은데	-10.4516
▁반영	-10.4517
▁감동적이네요	-10.4523
기억이	-10.4527
▁못보겠다	-10.453
춤	-10.4535
삶	-10.4535
시즌	-10.4544
그랬	-10.4544
▁하나님	-10.4547
▁여신	-10.4555
재미있게	-10.4562
▁따뜻해	-10.4564
▁캐릭터들이	-10.4568
▁잘만들었다	-10.4576
없나	-10.4576
쩜	-10.4594
덴	-10.46
뚝	-10.46
랴	-10.46
▁화장실	-10.46
▁비행기	-10.46
▁스파이	-10.4601
▁도둑	-10.4603
안된다	-10.4606
▁향수	-10.4606
빨리	-10.4609
답니다	-10.4611
▁창피	-10.4614
▁재미있었습니다	-10.4616
▁던져	-10.4617
힘들	-10.4618
▁매번	-10.4618
▁장난하나	-10.4619
▁입장	-10.4622
▁싶었던	-10.463
▁따지	-10.4632
▁답답하다	-10.4633
▁망할	-10.4634
므로	-10.4637
▁가족애	-10.4638
▁이딴영화	-10.4638
▁도시	-10.464
▁어이없음	-10.4654
▁느낌이다	-10.4655
▁때리	-10.4655
▁느리	-10.4658
▁나을듯	-10.4659
연기력	-10.4662
달라	-10.4667
▁군인	-10.4676
▁빠져서	-10.468
▁드네요	-10.4683
였네요	-10.4685
▁벗어나	-10.4689
▁불쌍하	-10.4689
같아	-10.4695
찡	-10.4702
분위기	-10.4703
목소리	-10.4712
선택	-10.4713
▁선사	-10.4716
▁않은데	-10.4726
선수	-10.4728
▁개인적	-10.4731
해놓고	-10.4733
▁인상적인	-10.4742
▁정체	-10.4747
▁상어	-10.4748
▁가히	-10.4752
하거나	-10.4754
▁괜찮게	-10.4756
윌	-10.4761
렀	-10.4761
▁놀랐다	-10.4761
▁타란티노	-10.4761
▁흡입력	-10.4761
닭	-10.4761
룰	-10.4761
뱀	-10.4761
뺏	-10.4761
쟈	-10.4761
▁빨갱이	-10.4761
▁박보영	-10.4761
▁삭제	-10.4761
민망	-10.4761
▁블루	-10.4762
▁흥미로웠	-10.4762
▁진지하게	-10.4762
▁니콜	-10.4763
스텝	-10.4765
같아요	-10.4766
▁개그맨	-10.4767
▁배꼽	-10.4769
▁만났	-10.4775
▁드림	-10.4777
▁심한	-10.4783
▁미안하다	-10.4783
있던	-10.4786
▁볼것	-10.4787
▁말하려는	-10.4787
▁여인	-10.4796
▁빠졌	-10.4799
▁모르지만	-10.4799
▁있었으면	-10.4801
하시고	-10.4804
있을까	-10.4813
▁미녀	-10.4816
▁넘넘	-10.4819
▁역겹다	-10.4821
▁장면들이	-10.4821
▁안본다	-10.4822
▁무대	-10.4825
없네요	-10.4832
▁극장에	-10.4833
▁소개	-10.4833
당시엔	-10.4837
거라고	-10.4838
▁것들이	-10.4847
▁되는데	-10.4868
▁그리워	-10.4869
탑	-10.4871
▁요소가	-10.4874
▁막판	-10.488
보고싶어요	-10.4889
▁전문	-10.4903
었을까	-10.4911
▁괜찮고	-10.4914
▁다시보기	-10.4919
▁알파치노	-10.4925
▁비쥬얼	-10.4925
셧	-10.4925
욤	-10.4925
▁별반개	-10.4925
▁섬세한	-10.4925
▁평점조절	-10.4925
▁미스터리	-10.4925
▁한효주	-10.4925
주시	-10.4925
▁스타뎀	-10.4925
▁거부감	-10.4925
▁몽환적	-10.4926
▁픽사	-10.4928
▁고딩	-10.4936
▁영원	-10.4936
▁만들었을까	-10.4938
아아아	-10.4941
아까운영화	-10.4942
▁잘한다	-10.4945
▁졸았	-10.4945
꺼야	-10.4948
처리	-10.496
▁노인	-10.4963
것같네요	-10.4964
않음	-10.4965
▁어설프다	-10.4966
▁보라고	-10.4967
▁보았던	-10.4971
▁공유	-10.4974
▁순수하고	-10.4975
▁대부	-10.4976
▁재밌었던	-10.4979
▁사랑스럽다	-10.4997
▁이거보다	-10.5004
겠는데	-10.5013
▁실망스럽	-10.5014
▁화끈	-10.5021
없구	-10.5025
▁넘어가	-10.5025
▁프랑스영화	-10.5032
▁뜬금없이	-10.5033
▁대학	-10.5037
져야	-10.5041
해줄	-10.5042
▁한시간	-10.5048
터짐	-10.5057
겠어	-10.5057
▁가능성	-10.5061
▁깔끔한	-10.5063
으시	-10.5068
후회	-10.5071
측	-10.5088
풋	-10.5091
띠	-10.5091
헉	-10.5091
쉐	-10.5091
▁여러모로	-10.5092
▁워낙	-10.5092
▁비호감	-10.5092
▁격투	-10.5092
▁엽기	-10.5092
펙트	-10.5094
▁예측	-10.5094
▁잃은	-10.5096
▁생각해보게	-10.5096
▁나머지는	-10.5096
지않는다	-10.5099
밖	-10.5101
▁실망이다	-10.5104
놈들은	-10.5108
해줘서	-10.5109
▁분량	-10.511
▁장점	-10.5113
합시다	-10.5116
▁속았다	-10.5117
▁비록	-10.5118
▁잃었	-10.5125
▁계기	-10.5127
▁다운받아서	-10.513
▁옛날영화	-10.5133
▁부산	-10.5147
외엔	-10.5156
▁쩌는	-10.5156
▁들어간	-10.5156
▁첨이다	-10.5156
▁말투	-10.5158
▁와닿는	-10.5162
▁다시금	-10.5163
▁소름끼치는	-10.5172
▁맞나	-10.5172
▁한번더	-10.5173
▁범죄자	-10.518
였다면	-10.5182
▁새벽	-10.5189
▁기대하지	-10.5192
줄알았다	-10.5204
▁보겠다	-10.5213
낭비	-10.5214
▁별로였다	-10.5215
꿀	-10.5216
갖	-10.5217
므	-10.5222
▁그럴듯	-10.5222
낚	-10.5224
터져	-10.5227
▁내시간	-10.5227
▁있기	-10.5233
▁짜증나게	-10.5233
도좋고	-10.5243
▁이도저도	-10.5243
▁당연	-10.5246
▁이상하다	-10.5247
▁날아	-10.5249
▁않았던	-10.5251
▁탄탄	-10.5251
▁몰아	-10.5253
엽	-10.5257
갠	-10.5261
쯔	-10.5261
▁디카프리오	-10.5261
듦	-10.5261
뤄	-10.5261
밉	-10.5261
쉴	-10.5261
▁뒤죽박죽	-10.5261
▁스타워즈	-10.5261
▁왕조현	-10.5261
덮	-10.5261
▁클래식	-10.5261
▁칭찬	-10.5261
▁김수현	-10.5261
▁혁명	-10.5261
▁총체적	-10.5262
▁둘째치고	-10.5262
▁빠지는	-10.5262
▁레옹	-10.5264
▁더러워	-10.5264
▁에라이	-10.5265
▁보지마셈	-10.5267
▁묘한	-10.5268
월드	-10.527
으신	-10.527
▁혼란	-10.5274
유발	-10.5279
▁흘러가는	-10.528
▁오글거리는	-10.5282
▁부자연스	-10.5282
▁이별	-10.5285
▁재미없었	-10.5287
▁소통	-10.5295
▁어우	-10.5296
▁천원	-10.5299
줘야지	-10.5302
▁세월이	-10.5309
▁사회적	-10.5317
▁멋지게	-10.5322
▁우린	-10.5331
▁제작비가	-10.5334
▁구분	-10.5335
▁아이유	-10.5348
▁숨은	-10.5349
▁슬픈영화	-10.5351
더군	-10.5355
▁코믹영화	-10.5358
▁예수	-10.5361
▁건질	-10.5362
▁형편없는	-10.5371
▁뛰어넘는	-10.5372
▁삶과	-10.5373
준것들	-10.5374
해지고	-10.5387
는것을	-10.5394
▁나와야	-10.5394
포인트	-10.5397
맹	-10.5397
▁귀여	-10.5417
역할	-10.5423
▁편까지	-10.5424
▁절로	-10.543
콤	-10.5432
극히	-10.5432
으러	-10.5432
퉁	-10.5433
▁스파이더맨	-10.5433
▁시종일관	-10.5433
▁재밌게봤어요	-10.5433
▁쯧쯧	-10.5433
넬	-10.5433
맴	-10.5433
츄	-10.5433
킴	-10.5433
▁아마추어	-10.5433
▁차승원	-10.5433
▁객관적	-10.5433
▁아쉬울	-10.5433
▁킬러	-10.5434
▁향연	-10.5434
▁감명깊게	-10.5435
▁엄청나게	-10.5435
▁어디로	-10.5437
▁그려낸	-10.5437
▁낫겠다	-10.5443
▁마시길	-10.5444
▁철저	-10.5444
립니다	-10.5446
▁중학생	-10.5446
▁부활	-10.5447
▁좋겠습니다	-10.5447
하나하나	-10.5448
멋잇	-10.5449
▁따름	-10.5449
▁그런거	-10.5459
▁대박이다	-10.5465
▁케미	-10.5465
▁최후	-10.5466
멋있	-10.547
▁재미있었는데	-10.5476
▁재방	-10.5477
▁아이들에게	-10.5478
▁독특하고	-10.548
하겠습니다	-10.548
▁연기잘하	-10.5481
▁익숙	-10.5481
▁완벽하다	-10.5485
못함	-10.5489
모든	-10.549
▁사랑스럽고	-10.5491
▁믿음	-10.5497
▁중년	-10.55
▁아니잖아	-10.5503
역사	-10.5503
▁어쩌다	-10.5511
스케	-10.5512
▁개봉당시	-10.5531
▁맡은	-10.554
▁연상	-10.5542
거에요	-10.5552
▁의문이	-10.5561
▁착하	-10.5571
코메디	-10.558
거같아	-10.5586
▁시기	-10.5595
까봐	-10.5602
챙	-10.5605
▁살아야	-10.5606
긴했지만	-10.5607
뻔함	-10.5609
펜	-10.5609
맺	-10.5609
▁아기자기	-10.5609
밧	-10.5609
퉤	-10.5609
▁강동원	-10.5609
▁괜찬	-10.5609
▁닥치고	-10.5609
▁미스캐스팅	-10.5609
▁떡밥	-10.5609
머릿속	-10.561
▁나타나	-10.5612
▁발음	-10.5619
보는내내	-10.5629
▁게스트	-10.5631
▁한심하다	-10.5634
▁귀여워요	-10.5639
▁살아있는	-10.5639
▁뭐라고	-10.564
▁감명	-10.5641
▁스포	-10.5643
▁학생들	-10.5648
▁충격적인	-10.5648
▁작화	-10.5649
▁역사상	-10.5655
▁안나온다	-10.5659
좋은영화	-10.566
있네요	-10.5663
▁산만하고	-10.567
지루함	-10.5672
▁풋풋	-10.5675
▁멋져	-10.5676
▁있으나	-10.568
▁우선	-10.5683
▁알리	-10.5687
시킬	-10.5697
싫다	-10.5701
▁전편보다	-10.5701
▁당황	-10.571
▁천사	-10.5721
▁지키	-10.5726
하고싶다	-10.5731
▁티비로	-10.5734
▁싫어하는	-10.5735
▁읽는	-10.5737
▁그이상	-10.5741
▁흉내	-10.5742
▁충분한	-10.5756
부르	-10.5765
스티	-10.5766
▁세상에서	-10.5784
▁엔딩크레딧	-10.5787
▁유치찬란	-10.5787
렐	-10.5787
쌓	-10.5787
혔	-10.5787
▁엄정화	-10.5787
▁김혜수	-10.5787
▁원숭이	-10.5787
▁직업	-10.5788
▁극혐	-10.5789
쩐다	-10.5791
▁난해한	-10.5792
좋으나	-10.5793
졌으면	-10.5794
▁오래전에	-10.5794
▁감동적이에요	-10.5795
▁미쳐	-10.58
▁살렸다	-10.5803
▁늙어	-10.5803
▁권력	-10.5805
▁모욕	-10.5809
▁보여줄	-10.581
▁태국	-10.581
▁돋보였	-10.5811
▁고문	-10.5818
▁조낸	-10.5823
▁입장에서	-10.5828
▁로망	-10.5832
대단	-10.5835
▁점만점에	-10.5837
▁원하는	-10.5837
발연기	-10.5839
▁한동안	-10.5845
▁알게되	-10.5846
느냐	-10.5847
▁일반인	-10.5848
▁준비	-10.5851
▁잼없다	-10.5856
▁당장	-10.586
▁말인가	-10.5865
▁가짜	-10.5872
▁말밖에	-10.5878
▁보는것	-10.5883
▁사람에게	-10.5889
▁만화영화	-10.5895
▁최고라고	-10.5899
▁방해	-10.5901
▁잼있네요	-10.5911
▁처음이네	-10.5926
▁스릴러물	-10.5932
너무너무	-10.5936
엇음	-10.595
꿈	-10.5951
범죄	-10.5958
▁있긴	-10.5968
앵	-10.5969
▁펼쳐	-10.5969
됫	-10.5969
렛	-10.5969
팩	-10.5969
켓	-10.5969
▁한석규	-10.5969
▁권상우	-10.5969
▁바탕으로	-10.5969
▁피아노	-10.5969
▁애초에	-10.5969
▁섬뜩	-10.5969
▁온갖	-10.5971
▁섬세하	-10.5972
▁말이필요없다	-10.5972
▁열라	-10.5973
▁슈퍼맨	-10.5973
어색	-10.5976
볼수	-10.5976
▁재미없네요	-10.5979
▁시험	-10.598
▁실사	-10.5981
▁말씀	-10.5982
맞음	-10.5984
▁충분하다	-10.5984
해야하나	-10.5985
▁초반엔	-10.5987
▁승부	-10.5987
▁개꿀잼	-10.599
▁살리지	-10.6006
시작해서	-10.6011
▁뻔하다	-10.6015
▁주온	-10.6027
▁잔잔함	-10.6048
맘에	-10.6049
싫	-10.6052
▁되돌아	-10.6063
▁잔인함	-10.6065
▁받았다	-10.607
▁모르겠네	-10.6076
▁한가지	-10.6081
애들은	-10.6086
▁억지스럽고	-10.6087
▁심하다	-10.6105
▁훌륭하	-10.6109
▁니네	-10.6111
소재와	-10.6111
▁캐리	-10.6114
▁욕먹	-10.613
행위	-10.6131
▁되야	-10.6131
▁광구	-10.6139
프로그램	-10.6146
▁배우분들	-10.6146
▁캐릭	-10.6154
덧	-10.6154
▁시간때우기	-10.6154
▁안타까움	-10.6154
▁테이큰	-10.6154
▁즐거움	-10.6154
▁마찬가지	-10.6154
▁어차피	-10.6154
▁납득	-10.6154
관객	-10.6154
▁조잡한	-10.6155
▁두고두고	-10.6155
▁수면제	-10.6155
▁기발한	-10.6155
▁지겨워	-10.6155
▁니콜라스	-10.6155
나왔으면	-10.6156
▁자연스럽게	-10.6156
▁잘생겼	-10.6156
▁그럴싸	-10.6157
▁로맨틱코미디	-10.6157
▁풀어낸	-10.6159
바람	-10.616
▁흥분	-10.6162
▁방향	-10.6163
▁십점	-10.6165
시켰	-10.6165
▁재앙	-10.6165
였구나	-10.6165
▁점주고	-10.6167
▁조잡하	-10.6168
▁감동적입니다	-10.6169
▁세계관	-10.6175
▁울었어요	-10.6191
좋네요	-10.6193
▁안녕	-10.6193
▁성형	-10.6194
잼씀	-10.6206
▁비교해	-10.6208
▁잔잔하	-10.6216
▁좋아하지만	-10.6221
▁아무나	-10.6229
▁믿어	-10.6231
▁소유	-10.6231
▁못하겠다	-10.6234
실력	-10.6236
▁아까워서	-10.6239
▁커서	-10.624
▁두명	-10.624
▁나열	-10.6244
▁화질	-10.6248
▁영화라지만	-10.6251
▁제작자	-10.6263
▁팬들	-10.627
하더니	-10.6281
▁신화	-10.6285
영활	-10.6289
투성이	-10.6293
되길	-10.6307
픔	-10.6323
▁이것보다	-10.6323
▁느껴지지	-10.6326
▁낚인	-10.6332
상영	-10.6332
떤	-10.6338
떼	-10.6341
줍니다	-10.6342
▁킬링	-10.6342
귀엽	-10.6343
쏴	-10.6343
톡	-10.6343
▁어정쩡	-10.6343
솜	-10.6343
퀸	-10.6343
▁데이빗	-10.6343
오랫동안	-10.6343
▁김희선	-10.6343
▁감성팔이	-10.6343
어울림	-10.6344
생겨서	-10.6344
▁쉬운	-10.6344
▁굳굳	-10.6345
▁크리스찬	-10.6345
▁방황	-10.6347
▁민족	-10.6349
▁모자라	-10.635
▁음향	-10.6359
노답	-10.6361
▁또라이	-10.6365
▁후하게	-10.6366
▁고증	-10.6367
▁괜찮았던	-10.6372
▁지옥	-10.6373
▁브레	-10.6376
▁해외	-10.6377
▁망쳐놓	-10.6387
▁답답해	-10.6391
▁웃었다	-10.6393
▁애정	-10.6395
제대로	-10.6405
소름	-10.6406
▁진부하	-10.6407
▁귀여웠	-10.6409
▁언어	-10.6414
▁시시하	-10.6415
속으로	-10.6421
▁완성	-10.6433
▁이거보단	-10.6443
▁웃겼다	-10.6447
▁무섭게	-10.6449
▁행복하게	-10.6451
유치하	-10.6469
맞아	-10.648
▁매주	-10.6484
▁넘어서	-10.651
▁미안해	-10.6516
너무좋아	-10.652
누님	-10.6531
뜬	-10.6533
멈	-10.6535
븐	-10.6535
뜸	-10.6535
숀	-10.6535
왈	-10.6535
팽	-10.6535
핫	-10.6535
겻	-10.6535
▁후속편	-10.6535
▁나루토	-10.6535
드려요	-10.6537
▁상큼	-10.6537
▁전성기	-10.6538
아버지	-10.6539
▁파격적	-10.654
섬	-10.6541
샘	-10.6541
▁돌아보게	-10.6542
페이스	-10.6545
▁내취향	-10.6546
▁사이코	-10.6547
잇엇	-10.6552
▁복선	-10.6557
▁순위	-10.6559
초반	-10.6562
내려	-10.6562
명성에	-10.6567
▁거짓	-10.6567
▁살아남	-10.657
▁싶습니다	-10.6574
▁개인적인	-10.6582
▁강추합니다	-10.6583
▁극본	-10.6584
어이없	-10.6584
▁비참	-10.6585
있었는데	-10.6595
▁보게되는	-10.66
▁모든것이	-10.6601
▁빠져들게	-10.6613
▁짜증났	-10.6619
▁괜찮네요	-10.6628
▁못봐주겠	-10.6628
▁막상	-10.663
줘요	-10.6641
▁만원	-10.6646
봣어요	-10.6662
졌음	-10.6672
▁토니	-10.6673
▁끝날	-10.6676
▁밀라	-10.6684
사실	-10.6688
▁무식	-10.6712
▁본격	-10.6724
▁한숨	-10.6729
감명깊	-10.673
소녀	-10.673
렴	-10.6731
둠	-10.6731
잣	-10.6731
▁런닝타임	-10.6731
▁어쨌든	-10.6731
뼈	-10.6731
짙	-10.6731
▁세련된	-10.6731
▁스페인	-10.6731
▁잊지못할	-10.6731
▁설경구	-10.6732
▁완젼	-10.6732
▁가슴아프	-10.6732
▁치밀하	-10.6734
▁늙은	-10.6735
▁닮았	-10.6736
▁자연스러운	-10.6737
▁멋짐	-10.6737
▁어린아이	-10.6738
▁억지스런	-10.6739
될까	-10.674
▁오로라	-10.6741
불쌍	-10.6744
벤	-10.6745
어떻게	-10.6747
화이팅	-10.6747
▁졸잼	-10.6747
▁시골	-10.6747
폴	-10.6751
이후로	-10.6759
▁느껴질	-10.676
▁재밌었습니다	-10.6765
▁기대했	-10.6768
▁웃기기	-10.6774
▁의미있는	-10.6774
▁봐주	-10.6775
▁지독	-10.6775
▁살때	-10.6776
▁오그라들	-10.678
▁보고싶은데	-10.6782
▁꼭봐야	-10.6786
더라고요	-10.6786
지못한	-10.679
▁채워	-10.6792
▁느껴졌다	-10.6799
▁한사람	-10.6801
스틴	-10.6804
달라고	-10.6805
▁뛰어넘	-10.6806
▁모방	-10.6808
▁남자배우	-10.6809
조연	-10.6812
▁못만들	-10.6813
▁제대로된	-10.6814
▁외국인	-10.6815
▁우리에게	-10.6815
▁밋밋한	-10.6826
▁머냐	-10.6837
났음	-10.6851
▁나왔던	-10.6854
▁시청자들	-10.6854
볼때	-10.6862
▁부족하고	-10.6863
▁있었음	-10.6867
▁머야	-10.6872
분들께	-10.6873
▁첨으로	-10.6883
▁본능	-10.6885
빠짐	-10.6887
▁알려주는	-10.6888
재밋엇	-10.689
▁감독에게	-10.6902
▁오랜	-10.6911
살았	-10.6912
닮	-10.6914
죽이고	-10.692
둑	-10.6927
랏	-10.6931
팝	-10.6931
▁겨울왕국	-10.6931
▁고등학생	-10.6931
▁뒤늦게	-10.6931
▁박찬욱	-10.6931
▁크레딧	-10.6931
▁포켓몬	-10.6931
꽁	-10.6931
뻑	-10.6931
쭈	-10.6931
▁손예진	-10.6931
▁어딘가	-10.6932
▁원피스	-10.6932
▁나머진	-10.6932
시끄러	-10.6932
▁흠잡을	-10.6932
▁다니엘	-10.6932
▁엠마	-10.6932
▁오그라드는	-10.6932
▁바란다	-10.6933
피디	-10.6934
▁환장	-10.6934
▁상식	-10.6934
▁공룡	-10.6938
▁눈치	-10.694
▁욕나온다	-10.694
▁아침드라마	-10.6943
▁재탕	-10.6943
▁알아야	-10.6946
▁연습	-10.6948
탐	-10.695
▁불쌍해	-10.6951
고싶었	-10.6956
▁처음본다	-10.696
▁빠질	-10.6961
스탈	-10.6964
▁감정선	-10.6965
▁마블	-10.6973
하길래	-10.6973
▁최고에요	-10.6992
학원	-10.6998
▁시체	-10.7001
▁여유	-10.7002
이런영화	-10.7005
좋은데	-10.7005
▁회상	-10.701
▁웃겨서	-10.7012
▁쓰러	-10.7017
▁화끈한	-10.7025
▁상업영화	-10.7028
▁무협영화	-10.7031
▁역작	-10.704
▁두개	-10.7041
▁스릴감	-10.7044
형제	-10.7046
▁진부하다	-10.7048
▁좋으	-10.705
최악의영화	-10.7082
하였다	-10.7088
올린	-10.7105
▁정부	-10.7121
팠	-10.7135
좆	-10.7136
템	-10.7136
▁아이언맨	-10.7136
▁영웅본색	-10.7136
▁호불호가	-10.7136
뚫	-10.7136
▁짬뽕	-10.7136
▁그냥저냥	-10.7136
▁다이하드	-10.7136
▁최민수	-10.7136
▁아바타	-10.7136
▁전지현	-10.7136
▁이정재	-10.7136
▁힘들어	-10.7137
▁귀찮	-10.7138
▁색채	-10.7139
▁가까이	-10.714
▁흘렸	-10.714
제국	-10.7141
▁찬양	-10.7141
▁새삼	-10.7143
▁시간아까워	-10.7143
▁먹칠	-10.7149
▁있겠지만	-10.715
▁반갑	-10.715
▁히어로물	-10.7153
▁간직	-10.7153
▁뭐랄까	-10.7153
▁진행되는	-10.7157
▁분짜리	-10.7158
▁동화같은	-10.716
잊	-10.7166
캐스팅	-10.7167
▁채우	-10.7168
▁학년때	-10.7169
▁결국엔	-10.7173
▁보는동안	-10.7177
▁광기	-10.718
▁이런식으로	-10.7183
▁없던	-10.7184
▁레오	-10.7188
▁봐줄만	-10.7191
▁당연한	-10.7192
▁있어보이	-10.7207
▁흔하	-10.7209
▁오직	-10.721
▁않습니다	-10.7217
▁다가오	-10.7219
▁최고최고	-10.7221
▁식상하다	-10.7221
▁정체성	-10.7232
▁이딴거	-10.7235
▁구조	-10.7239
할려고	-10.7239
구먼	-10.7241
▁돈아깝다	-10.725
▁이어지는	-10.7255
▁커버	-10.7256
▁만들었으면	-10.7261
있었던	-10.7268
▁낮네요	-10.727
진행	-10.7274
▁독립	-10.7274
▁얻어	-10.728
할정도로	-10.7295
▁적절	-10.7309
▁역사적	-10.7327
딜	-10.7338
올려	-10.7339
나봐요	-10.734
▁일깨워	-10.7342
냄	-10.7342
▁회사	-10.7343
쩍	-10.7344
▁군더더기	-10.7344
▁에드워드	-10.7344
곁	-10.7344
륵	-10.7344
믄	-10.7344
쇄	-10.7344
▁국어책	-10.7344
뜯	-10.7344
▁이것저것	-10.7344
▁최민식	-10.7344
▁팝콘	-10.7344
▁완죤	-10.7344
▁외로움	-10.7344
▁픽션	-10.7344
▁왕가위	-10.7344
▁드니로	-10.7344
▁보낸다	-10.7344
▁쏘우	-10.7345
▁거기서	-10.7345
▁택시	-10.7346
▁호흡	-10.7348
더럽고	-10.7352
것같음	-10.7355
▁생존	-10.7355
▁여태까지	-10.7358
▁치료	-10.7359
▁빨간	-10.736
▁안가는	-10.7363
▁멋져요	-10.7369
▁어설프게	-10.7372
줄알고	-10.7372
▁네이버평점	-10.738
즐	-10.7382
▁되었습니다	-10.7383
▁좋더라	-10.7386
▁귀여워서	-10.7386
▁웃다가	-10.7391
었구나	-10.7393
▁알바생	-10.7395
▁기대된다	-10.74
즐겁고	-10.7406
▁미학	-10.7408
돌려	-10.7409
▁않아요	-10.7421
▁대역	-10.7428
▁갖게	-10.7428
▁피식	-10.743
▁연주	-10.7436
▁허구	-10.7437
어지럽	-10.7442
▁소름끼치	-10.7455
해가는	-10.7457
▁재수없	-10.7459
주었다	-10.746
높아	-10.7466
▁기대했던	-10.7472
▁로마	-10.7476
▁역겹	-10.7482
오르는	-10.7495
룬	-10.7534
▁지금보면	-10.7541
겠는가	-10.7549
랍니다	-10.7554
댓	-10.7554
▁송승헌	-10.7557
숲	-10.7557
턱	-10.7557
▁구혜선	-10.7557
▁엉망진창	-10.7557
▁심리묘사	-10.7557
▁김태희	-10.7557
▁빈약한	-10.7557
▁정주행	-10.7557
▁오페라	-10.7557
▁마누라	-10.7557
▁흥미롭게	-10.7558
▁과장된	-10.7565
▁패션	-10.7567
▁신세계	-10.7571
▁국산	-10.7571
▁경악	-10.7572
▁지루했음	-10.7575
졌던	-10.7578
▁먹먹해	-10.7578
장님	-10.7579
▁아깝습니다	-10.7581
▁심각하게	-10.7584
▁우승	-10.7586
▁감동적이었다	-10.7587
▁인간적으로	-10.7602
▁일찍	-10.7603
▁흉내내	-10.7611
좋아하는데	-10.7611
▁봐야한다	-10.7611
▁불쌍해서	-10.7612
▁이은주	-10.7616
▁만들었냐	-10.7618
▁공연	-10.7621
하려면	-10.7621
▁인연	-10.7634
▁검색해	-10.7635
▁몰입하게	-10.7641
▁포함	-10.7641
▁말았다	-10.7641
조금	-10.765
▁싶음	-10.7653
▁걸작이다	-10.7661
아닌데	-10.7666
▁전라도	-10.7667
소년	-10.7669
흥미롭	-10.7674
근데	-10.7689
▁동감	-10.7697
바른	-10.7699
▁엘리	-10.7718
▁부분에서	-10.7732
▁필요하다	-10.7742
▁느껴졌	-10.7757
▁중학교	-10.7758
▁망쳐	-10.7759
▁뜬금없	-10.776
혐	-10.7772
릅	-10.7774
▁도라에몽	-10.7774
▁스필버그	-10.7774
▁엑스맨	-10.7774
늬	-10.7774
룸	-10.7774
셜	-10.7774
훔	-10.7774
▁가볍지	-10.7774
▁싸이코패스	-10.7774
즉	-10.7774
▁초중반	-10.7774
▁김명민	-10.7774
▁소지섭	-10.7774
▁멘탈	-10.7774
▁빠순이	-10.7774
▁점준것중	-10.7774
▁뉴스	-10.7776
▁람보	-10.7778
땜시	-10.7778
▁낮추	-10.7782
▁황금	-10.7784
▁청년	-10.7784
▁웃으며	-10.7787
▁커피	-10.7788
▁반응	-10.7788
▁공허	-10.7792
남기는데	-10.7794
▁소품	-10.7798
▁반감	-10.78
▁남친	-10.7808
▁재미없었음	-10.7808
▁모순	-10.7809
▁만드냐	-10.7814
▁번역	-10.7814
핵	-10.7834
▁정석	-10.7836
엄청	-10.7839
▁분정도	-10.7843
경찰	-10.7846
▁마법	-10.7848
▁배울	-10.7852
▁경우	-10.7856
▁약하다	-10.7875
▁장소	-10.7875
▁인식	-10.7881
▁자위	-10.7894
▁살인자	-10.7934
▁정점	-10.7938
▁산만하	-10.7943
▁나올까	-10.7949
같애	-10.7961
었을텐데	-10.798
뎀	-10.7995
▁머리속	-10.7996
훌	-10.7996
썰	-10.7996
륭	-10.7996
▁웬만하면	-10.7996
넓	-10.7996
녁	-10.7996
▁깨달음	-10.7996
▁예뻐서	-10.7996
▁공중파	-10.7996
▁신세경	-10.7996
▁드래곤볼	-10.7996
▁데뷔작	-10.7996
▁클라라	-10.7997
▁컬트	-10.7997
그대로	-10.7998
▁심오한	-10.7998
▁부끄러운	-10.8001
▁절묘	-10.8001
▁안성기	-10.8003
▁돈낭비	-10.8003
▁흔적	-10.8004
▁꺼져	-10.8007
할게요	-10.8009
▁출발	-10.8011
▁많은것을	-10.8015
▁운동	-10.8015
▁향한	-10.8023
▁흥미롭지	-10.8023
▁사람마다	-10.8024
▁감동적임	-10.8026
▁경계	-10.8026
▁기억난다	-10.8026
▁다음편	-10.8027
▁시대적	-10.8027
▁인권	-10.8027
▁못따라	-10.8027
▁싶었는데	-10.8038
▁실상	-10.8039
보니깐	-10.804
▁에로물	-10.8048
아까워	-10.8053
▁성경	-10.8056
▁어디까지	-10.8056
▁정통	-10.8057
▁알려주	-10.8058
추억	-10.8068
▁고작	-10.8071
▁법정	-10.8074
▁야하지도	-10.8077
들끼리	-10.8082
▁대학생	-10.8087
▁밝혀	-10.8091
▁화가나	-10.8101
입니까	-10.8108
▁풀어내	-10.8121
▁돈아깝	-10.8131
깐	-10.814
자꾸	-10.8144
▁틀리	-10.8145
▁없으니	-10.8151
▁보는사람	-10.8156
▁인도영화	-10.8159
꺼라	-10.8181
▁우리들	-10.8181
▁씁쓸하	-10.8193
귀신	-10.82
야말로	-10.8204
보기엔	-10.8212
랍	-10.8219
▁소피마르소	-10.8224
▁신데렐라	-10.8224
▁학창시절	-10.8224
▁홧팅	-10.8224
삘	-10.8224
쇠	-10.8224
썬	-10.8224
졋	-10.8224
▁다크나이트	-10.8224
▁숨막히	-10.8224
▁원주율	-10.8224
▁차태현	-10.8224
▁김민종	-10.8224
▁이탈리아	-10.8224
▁중후반	-10.8224
▁황정민	-10.8224
▁힙합	-10.8224
▁간간히	-10.8224
▁장동건	-10.8224
▁지저분	-10.8224
▁엽문	-10.8224
▁임청하	-10.8224
▁손색이	-10.8224
▁이연희	-10.8224
▁틀림없	-10.8224
▁콜린	-10.8224
▁냉정	-10.8224
▁미친듯이	-10.8225
▁전도연	-10.8225
▁가져다	-10.8226
▁강아지	-10.8226
▁러브스토리	-10.8227
▁고인의	-10.8228
▁문득	-10.8228
▁각각	-10.8229
▁직장	-10.823
▁기다렸	-10.823
▁감옥	-10.8231
▁재방송	-10.8237
▁열광	-10.8238
▁여튼	-10.8242
▁환상적인	-10.8244
▁중반부터	-10.8246
▁이기적인	-10.8246
안좋	-10.8248
▁적극	-10.8252
▁의견	-10.8252
미친	-10.826
▁향기	-10.8261
▁초반부터	-10.8264
거같네요	-10.8269
▁힘내	-10.8272
▁한숨만	-10.8275
▁있었습니다	-10.8294
▁파워	-10.8294
기억에남	-10.83
▁기억남	-10.8304
평론가	-10.8305
흠	-10.8305
보고싶은	-10.8305
▁만든건지	-10.8305
▁끝남	-10.8307
갈수록	-10.8314
▁쥐어	-10.8323
큼	-10.8329
▁돋보이	-10.8352
▁형식	-10.8365
하겠지만	-10.8372
▁데려다	-10.8375
▁공포감	-10.8394
또보고싶	-10.8399
▁알게된	-10.8427
▁보게되었	-10.843
킥	-10.8456
밍	-10.8456
헨	-10.8456
▁고맙습니다	-10.8456
▁새록새록	-10.8456
▁아카데미	-10.8456
▁안타까웠	-10.8456
▁트랜스포머	-10.8456
▁흐지부지	-10.8456
꾹	-10.8456
떳	-10.8456
▁미장센	-10.8456
▁박평식	-10.8456
▁더더욱	-10.8456
▁애국심	-10.8456
▁어떠한	-10.8456
▁레이첼	-10.8456
▁다세포소녀	-10.8456
▁성유리	-10.8456
▁농담	-10.8456
▁솔까	-10.8457
▁납치	-10.8457
▁강력추천	-10.8457
▁관람객	-10.8458
▁김구라	-10.8459
▁특수	-10.846
것도아니고	-10.8461
▁에릭	-10.8468
▁허탈	-10.8468
▁몰락	-10.8469
▁교회	-10.8469
▁복수극	-10.8471
▁뒤집	-10.8473
▁좋아하시는	-10.8473
▁태양	-10.8473
▁볼만해요	-10.8475
▁유치하기	-10.8477
짱짱	-10.8483
▁신경쓰	-10.8483
▁더욱더	-10.849
▁분명히	-10.849
▁호감	-10.8494
▁미술	-10.8501
▁실화라는	-10.8506
▁흐르	-10.8507
▁없애	-10.8509
넘치는	-10.8511
▁조악	-10.8515
직원	-10.852
▁보고싶네요	-10.8524
▁등장하는	-10.8524
▁슬프네요	-10.8539
옷	-10.8548
칼	-10.8548
밑	-10.8548
판타지	-10.855
▁못하겠	-10.8576
▁떨어졌	-10.8583
▁좋구	-10.861
지루하다	-10.8611
끝날때까지	-10.8629
▁듣기	-10.8637
잘못	-10.8655
▁깨닫	-10.8659
웠음	-10.868
보고나서	-10.8685
밋	-10.8687
삽	-10.8694
뚜	-10.8694
묶	-10.8694
▁조기종영	-10.8694
▁첫번째	-10.8694
겸	-10.8694
끓	-10.8694
캠	-10.8694
훗	-10.8694
▁어설퍼	-10.8694
▁정확히	-10.8694
▁사무라이	-10.8694
▁시끄럽	-10.8694
▁오우삼	-10.8694
▁따뜻함	-10.8694
▁멈추	-10.8694
▁흑흑	-10.8694
▁색다르	-10.8694
스러울	-10.8694
위원회	-10.8694
▁함부로	-10.8694
▁모자란	-10.8694
▁이따구로	-10.8695
▁스킵	-10.8695
▁지브리	-10.8695
▁어지간	-10.8695
▁증명	-10.8696
▁깜놀	-10.8696
▁갖춘	-10.8696
▁사라진	-10.8698
▁죽기전에	-10.8699
▁재미나게	-10.8699
▁이민기	-10.8701
▁댄스	-10.8702
▁피곤	-10.8711
▁노튼	-10.8711
▁오글거려서	-10.8714
▁모독	-10.8717
▁단역	-10.8721
▁백배	-10.8721
▁유령	-10.8721
▁재밌기만	-10.8723
▁적당하다	-10.8725
▁제왕	-10.8725
▁부각	-10.8726
엇어요	-10.8731
▁찍으	-10.8731
▁히트	-10.8735
위주	-10.8737
▁슬퍼요	-10.8739
▁의미없는	-10.8739
▁구역	-10.8743
▁잼없음	-10.8747
▁울림	-10.8753
▁임신	-10.8759
▁없을까	-10.8775
씩이나	-10.8777
▁퇴보	-10.8799
얼마나	-10.8799
▁돌아오	-10.88
무서워	-10.8801
폭력	-10.8815
▁싶으면	-10.8844
보지마라	-10.8845
▁이해되	-10.8874
뷰	-10.8934
씁	-10.8936
흉	-10.8938
긍	-10.8938
곽	-10.8938
▁과대평가	-10.8938
▁윌리엄	-10.8938
▁톰크루즈	-10.8938
갇	-10.8938
넷	-10.8938
줫	-10.8938
펠	-10.8938
▁키아누	-10.8938
뎌	-10.8938
▁아프리카	-10.8938
▁흑역사	-10.8938
▁긴박감	-10.8938
▁고마운	-10.8938
찜찜	-10.8938
▁오인혜	-10.8938
▁강지환	-10.8938
▁혹평	-10.8938
▁의외의	-10.8938
▁색깔	-10.8939
깁니다	-10.894
▁학살	-10.894
▁눈요기	-10.8941
▁초능력	-10.8943
안쓰는데	-10.8943
밖엔	-10.8943
▁짱짱맨	-10.8944
▁낚여서	-10.8944
▁어딜	-10.8945
▁마틴	-10.8948
▁그럼에도	-10.8949
▁뿌리	-10.895
▁틀어주	-10.8958
▁우왕	-10.8962
▁점주기도	-10.8975
▁아쉬웠지만	-10.8976
▁소소하	-10.8981
▁초등학교때	-10.8982
▁드물	-10.8991
▁끊어	-10.8993
▁어케	-10.8998
▁경제	-10.9
▁다시보게	-10.9
▁짧아	-10.9002
▁잼나요	-10.9003
으세요	-10.9007
수가없다	-10.9009
타령	-10.9015
▁답답해서	-10.9016
▁아쉬워	-10.9018
▁식상하	-10.9044
▁장난감	-10.9052
시나리오	-10.9053
선생님	-10.9054
힘든	-10.9064
병맛	-10.9065
보였다	-10.9133
▁비교하면	-10.9147
지르고	-10.9155
모르겠다	-10.9157
즌	-10.917
믹	-10.9183
끗	-10.9188
▁매끄럽지	-10.9188
▁서프라이즈	-10.9188
▁송혜교	-10.9188
▁엉터리	-10.9188
▁인상깊게	-10.9188
▁인종차별	-10.9188
겄	-10.9188
쉣	-10.9188
탠	-10.9188
딕	-10.9188
펴	-10.9188
▁가슴아픈	-10.9188
▁송지효	-10.9188
▁조승우	-10.9188
습니당	-10.9188
▁윌리스	-10.9188
▁다운로드	-10.9188
▁클라스	-10.9188
▁일어날	-10.9188
▁무서울	-10.9188
▁멀쩡	-10.9189
▁감수성	-10.9189
▁젊음	-10.9189
▁사기꾼	-10.9189
▁힘내세요	-10.9189
▁압도적	-10.9191
▁보여줌	-10.9192
▁사라져	-10.9192
▁경의를	-10.9193
▁원작소설	-10.9193
웠던	-10.9194
헌터	-10.9197
▁존경합니다	-10.9199
십니다	-10.92
▁서극	-10.92
▁극찬	-10.92
▁우롱	-10.9202
▁실패작	-10.9207
▁드문	-10.9208
▁존잼	-10.9209
▁한번씩	-10.921
▁영광	-10.9212
▁중반부	-10.9213
▁질문	-10.9214
▁주관적	-10.9214
▁집단	-10.9215
▁잔잔하지만	-10.9215
▁잊혀	-10.9217
▁무슨말이	-10.9218
▁카피	-10.9219
▁늙었	-10.9222
▁건강	-10.9223
▁기록	-10.9242
할텐데	-10.9277
▁얘들	-10.9281
볼꺼	-10.9285
썩	-10.9312
댓글	-10.9319
탁월한	-10.9321
▁황당하	-10.9333
페이지	-10.9335
▁진정성	-10.9381
즐겁	-10.9393
▁어린이들	-10.9396
오늘	-10.9401
봇	-10.9441
벙	-10.9444
쯧	-10.9444
▁미야자키	-10.9444
뉘	-10.9444
밨	-10.9444
썻	-10.9444
앜	-10.9444
윽	-10.9444
▁끝판왕	-10.9445
▁뚝뚝	-10.9445
▁어둡고	-10.9445
▁여기저기	-10.9445
▁정당화	-10.9445
▁뉴욕	-10.9445
▁찬사를	-10.9445
▁징징	-10.9445
▁임수정	-10.9445
▁닥터	-10.9445
▁신민아	-10.9445
▁거슬리	-10.9445
▁노골적	-10.9447
▁증말	-10.9447
▁내인생최고의	-10.9448
▁담백하	-10.9449
▁스토리라인	-10.945
▁상당한	-10.9451
▁대표적인	-10.9455
▁성찰	-10.9456
▁장혁	-10.9456
▁제정신	-10.9458
▁몇번이나	-10.9464
▁신념	-10.9465
▁시간아까움	-10.9465
▁어색함	-10.9465
▁장나라	-10.9465
노동자	-10.9466
▁총알	-10.9467
것같습니다	-10.9467
지루하지않	-10.9471
클럽	-10.9473
▁알려준	-10.9475
▁어렸을적	-10.9475
▁원표	-10.9477
▁불법	-10.9478
▁남자라면	-10.948
▁울었습니다	-10.9481
▁몰랐는데	-10.9485
작렬	-10.9487
▁재현	-10.9494
▁도중에	-10.9498
▁감동도없고	-10.9504
▁나오다니	-10.9507
활동	-10.951
▁하던가	-10.9513
▁시간아깝	-10.9526
▁무리수	-10.9543
▁꺼내	-10.9565
취향	-10.958
갔으면	-10.958
깜	-10.9587
멀	-10.9588
그렇게	-10.9589
마무리	-10.959
코믹	-10.9592
볼려고	-10.9597
억울	-10.9603
지마시길	-10.9659
▁환상적이	-10.9674
▁봐줄	-10.9676
잊혀지	-10.9681
싼	-10.9701
▁부끄러	-10.9703
옵	-10.9708
깡	-10.9708
릉	-10.9708
▁드림웍스	-10.9708
▁용두사미	-10.9708
▁팀버튼	-10.9708
럿	-10.9708
빤	-10.9708
쏙	-10.9708
코스프레	-10.9708
▁환타지	-10.9708
띵	-10.9708
▁절제된	-10.9708
▁주상욱	-10.9708
▁자본주의	-10.9708
▁끊임없	-10.9708
▁모성애	-10.9708
▁정신나간	-10.9708
▁타이틀	-10.9708
▁아이러니	-10.9708
▁짐승	-10.9708
▁고질라	-10.9709
▁창있네	-10.971
▁억지설정	-10.9714
▁비싼	-10.9714
▁광팬	-10.9715
▁접근	-10.9715
▁바꾼	-10.9716
▁지나친	-10.9718
겁니까	-10.9722
였으나	-10.9725
▁요약	-10.9726
▁절반	-10.9728
만들엇	-10.9731
▁중간부터	-10.9736
▁대실망	-10.9739
▁일탈	-10.9743
▁불행	-10.9749
▁볼만했는데	-10.9752
종류	-10.976
▁알겠지만	-10.9781
합니까	-10.9783
▁유혹	-10.9839
미치도록	-10.9861
퇴	-10.9863
덕분에	-10.9866
결혼	-10.9874
▁표정연기	-10.9874
▁사랑스럽	-10.9893
▁어이가없	-10.9921
▁끝날때	-10.9933
▁몰입되	-10.9942
롯	-10.9971
뱅	-10.9978
뷔	-10.9978
드래곤	-10.9978
펀	-10.9978
▁똑바로	-10.9978
둬	-10.9978
룹	-10.9978
욬	-10.9978
켈	-10.9978
핏	-10.9978
▁양동근	-10.9978
▁장근석	-10.9978
잎	-10.9978
▁클린트	-10.9978
▁팍팍	-10.9978
▁홍금보	-10.9978
▁모티브	-10.9978
▁헷갈	-10.9978
나옵니다	-10.9978
▁한쿡영화	-10.9978
▁두려움	-10.9978
▁나쁘진	-10.9978
▁태어난	-10.9978
▁조용히	-10.9978
▁뮤직비디오	-10.9978
▁유지태	-10.9978
▁플레이	-10.9979
▁사로잡	-10.9979
▁흐뭇	-10.9979
▁불후의	-10.9979
▁일요일	-10.9979
▁이범수	-10.9979
▁돋보인다	-10.998
▁놀랬	-10.9982
▁가끔씩	-10.9982
▁잃어	-10.9982
▁구역질	-10.9986
▁휴먼	-10.9987
▁가해자	-10.999
▁이나영	-10.9991
▁출현	-10.9993
▁별다른	-10.9994
▁환자	-10.9995
▁어이없어서	-10.9998
▁성숙	-11.0002
따윈	-11.0008
▁년동안	-11.0009
일수도	-11.0017
▁아동용	-11.0025
▁전투씬	-11.0053
▁향해	-11.0111
▁진부함	-11.0124
특유의	-11.0152
무서운	-11.0152
애니메이션	-11.0152
고싶지	-11.0159
짓거리	-11.0172
▁점만점	-11.0183
▁잃지	-11.0222
▁오글거려	-11.0232
▁존재한다	-11.024
펑	-11.0255
뎁	-11.0256
탭	-11.0256
▁고스란히	-11.0256
▁서스펜스	-11.0256
▁웹툰	-11.0256
▁인터뷰	-11.0256
▁임권택	-11.0256
▁카메론	-11.0256
▁파라노말	-11.0256
▁파워레인저	-11.0256
맷	-11.0256
쌩	-11.0256
웰	-11.0256
푼	-11.0256
▁컨저링	-11.0256
▁뜨거운	-11.0256
▁강호동	-11.0256
▁불면증	-11.0256
떄문에	-11.0256
▁스피드	-11.0256
▁징그러	-11.0256
▁스텝업	-11.0256
▁특징	-11.0256
▁비정상	-11.0256
▁엑소	-11.0256
▁록키	-11.0257
▁암걸리	-11.0257
▁퍼즐	-11.0257
▁담아내	-11.0257
▁웅장	-11.0257
▁잃어버린	-11.0258
▁온몸	-11.0258
▁짧게	-11.0261
▁비롯	-11.0262
▁언론	-11.0264
▁잔인하기만	-11.0265
▁사라졌	-11.0266
▁끌려	-11.0267
▁지들끼리	-11.0269
▁문학	-11.0272
왜이럼	-11.0273
▁틈이	-11.0274
▁넘어선	-11.0274
▁점도아깝다	-11.0274
▁역쉬	-11.0275
▁해도해도	-11.0275
▁돌려줘	-11.0278
▁이번엔	-11.0279
▁우익	-11.0283
▁타락	-11.0284
▁공감가는	-11.0289
보이는데	-11.0289
▁중학교때	-11.0292
▁난잡하	-11.0293
▁상영시간	-11.0312
것일까	-11.0316
▁어린이용	-11.0318
▁그지없	-11.0343
▁어설프	-11.0356
▁어처구니없	-11.0375
라기보다	-11.0378
▁첨이네	-11.0379
대단히	-11.0417
▁기억될	-11.0438
귀여워	-11.0445
왜이래	-11.0446
않았다	-11.0448
챙겨	-11.0451
로맨스	-11.0451
섯	-11.0518
뿔	-11.0528
뜬금	-11.053
둡	-11.0541
꿨	-11.0541
▁런닝맨	-11.0541
▁식스센스	-11.0541
▁안타까워	-11.0541
▁엉덩이	-11.0541
▁클리셰	-11.0541
넼	-11.0541
▁놀래키	-11.0541
▁별한개도	-11.0541
▁어마어마	-11.0541
▁일베충	-11.0541
▁어우러진	-11.0541
▁말았어야	-11.0541
▁김강우	-11.0541
▁박신양	-11.0541
▁스티브	-11.0542
▁자세히	-11.0542
▁엉엉	-11.0542
▁활용	-11.0543
▁유아인	-11.0544
▁은퇴	-11.0544
▁알게해준	-11.0545
▁흥미롭고	-11.0545
▁영화자체는	-11.0547
▁배속으로	-11.0547
질리지않	-11.0549
▁증거	-11.0549
▁모르겟다	-11.055
▁친절	-11.0552
▁지루했어요	-11.0557
▁산만한	-11.0561
▁악플	-11.0561
▁좋아한다면	-11.0562
마인드	-11.0563
▁간절	-11.0567
▁여왕	-11.0568
▁누워	-11.0572
조각	-11.0604
야되는데	-11.0628
짱짱짱	-11.0738
▁던지는	-11.0745
쭉	-11.0747
▁비극적	-11.0748
뭘	-11.0749
▁조금씩	-11.0796
셉	-11.0836
텀	-11.0836
툰	-11.0836
▁기대됩니다	-11.0836
▁내러티브	-11.0836
▁매트릭스	-11.0836
▁에일리언	-11.0836
▁오리지널	-11.0836
▁인터스텔라	-11.0836
▁크리스토퍼	-11.0836
▁펭귄	-11.0836
▁혹성탈출	-11.0836
꺄	-11.0836
흰	-11.0836
▁줄리엣	-11.0836
▁김하늘	-11.0836
▁양조위	-11.0836
▁오타쿠	-11.0836
▁꼬맹이	-11.0836
▁강혜정	-11.0836
▁베트남	-11.0836
▁멘붕	-11.0836
▁탕웨이	-11.0836
▁기분좋게	-11.0836
▁인디아나	-11.0836
▁섭외	-11.0836
▁하이킥	-11.0836
▁큐브	-11.0836
▁빅뱅	-11.0836
▁이순신	-11.0836
▁푸른	-11.0836
▁가르쳐	-11.0836
▁잠수함	-11.0836
▁케이트	-11.0836
싶을때	-11.0836
▁러셀	-11.0836
▁흔히	-11.0836
▁어울려	-11.0837
씨리즈	-11.0837
▁잘만들어진	-11.0837
▁간첩	-11.0838
▁이해안가	-11.0838
▁일깨워주는	-11.0839
▁이승기	-11.0839
▁생략	-11.084
▁당최	-11.0842
▁차원이	-11.0842
▁경쾌	-11.0842
▁구리다	-11.0842
▁빠져드는	-11.0845
▁알았더니	-11.0845
▁응원합니다	-11.0846
▁서정적	-11.0847
▁말이필요없는	-11.0847
▁빡치	-11.0847
▁고찰	-11.0848
▁닮아	-11.085
▁딱딱	-11.0854
▁않았을까	-11.0855
▁재료	-11.0861
지마셈	-11.0865
▁울나라	-11.0865
충격	-11.0868
▁실화라니	-11.0869
▁예수님	-11.0872
▁앞부분	-11.0905
▁볼거없	-11.0913
▁사나이	-11.0938
볼걸	-11.0978
가능한	-11.0993
▁합쳐	-11.0998
알수있	-11.1012
씹	-11.106
꽝	-11.1061
긴장감	-11.1062
히어로	-11.1065
아직도	-11.1065
볼수없	-11.1087
있을때	-11.1103
첩	-11.1136
뜩	-11.1138
짬	-11.1139
캡	-11.1139
톨	-11.1139
▁보냅니다	-11.1139
▁엑소시스트	-11.1139
▁역사왜곡	-11.1139
긔	-11.1139
뒀	-11.1139
뱉	-11.1139
뺨	-11.1139
쉰	-11.1139
엎	-11.1139
췄	-11.1139
▁재발견	-11.1139
▁어울린다	-11.1139
▁촬영기법	-11.1139
▁홍진호	-11.1139
▁두근두근	-11.1139
▁정재영	-11.1139
▁삽입	-11.1139
▁이동욱	-11.1139
▁관람불가	-11.1139
▁저절로	-11.1139
▁그들만의	-11.114
▁흡사	-11.114
▁묘미	-11.1141
▁묘하게	-11.1141
▁손색없	-11.1141
▁위대함	-11.1141
▁닮은	-11.1143
▁용가리	-11.1144
▁황홀	-11.1144
▁과잉	-11.1145
▁스콧	-11.1147
▁잃고	-11.1147
▁찰리	-11.1148
▁적절히	-11.1149
▁대표작	-11.1149
▁언제쯤	-11.115
▁숨어있	-11.115
▁생각해볼	-11.115
▁미안하지만	-11.1151
▁바랬	-11.1152
▁언급	-11.1153
▁정도껏	-11.1161
▁어린애들	-11.1163
동아리	-11.1163
재밋게봣	-11.117
▁꼽을	-11.1171
▁공포스럽	-11.1198
폭탄	-11.1217
같았음	-11.1292
▁민망하	-11.1294
▁봐왔	-11.1378
잭	-11.1381
▁짝이없	-11.1383
깎	-11.1383
이쁘고	-11.1391
같으니	-11.1396
이쁘다	-11.1397
쎄	-11.1449
률	-11.1451
쿡	-11.1451
흙	-11.1451
눠	-11.1451
댕	-11.1451
쌈	-11.1451
쏠	-11.1451
▁리암니슨	-11.1451
▁묻어나는	-11.1451
▁슬래셔	-11.1451
▁심사위원	-11.1451
▁쌩뚱맞	-11.1451
▁올레티비	-11.1451
▁이스트우드	-11.1451
▁채플린	-11.1451
▁황비홍	-11.1451
▁후덜덜	-11.1451
댐	-11.1451
륙	-11.1451
샷	-11.1451
▁신현준	-11.1451
▁한예슬	-11.1451
▁충무로	-11.1451
▁장쯔이	-11.1451
▁못생긴	-11.1451
▁나중엔	-11.1451
▁옹박	-11.1451
▁주지훈	-11.1452
▁오그라든다	-11.1452
▁박해일	-11.1452
▁사다코	-11.1452
▁화려함	-11.1452
▁나타내	-11.1452
▁아까웠던	-11.1452
▁환불	-11.1452
▁침묵	-11.1453
▁레이싱	-11.1453
씁니다	-11.1454
붕괴	-11.1454
▁둘째	-11.1455
▁아시아	-11.1455
즐거워	-11.1455
▁말아라	-11.1455
▁이준기	-11.1456
▁실컷	-11.1457
▁패턴	-11.1457
▁재평가	-11.1459
▁호텔	-11.1459
▁감동적이었습니다	-11.146
▁맞춘	-11.1465
▁케이지	-11.1467
▁기발하	-11.1513
해주길래	-11.1542
돈주고	-11.1585
▁나쁜놈	-11.1668
본것중	-11.1703
쫌	-11.1717
채널에서	-11.172
낮아서	-11.1727
을위해	-11.1751
팡	-11.1774
▁브래드피트	-11.1774
▁샤론스톤	-11.1774
▁스칼렛	-11.1774
▁어설픔	-11.1774
▁왠만해선	-11.1774
▁웨슬리	-11.1774
▁콘서트	-11.1774
▁휴머니즘	-11.1774
댈	-11.1774
됌	-11.1774
샀	-11.1774
샹	-11.1774
숫	-11.1774
엌	-11.1774
쿄	-11.1774
펄	-11.1774
헝	-11.1774
▁다세포	-11.1774
▁서부극	-11.1774
▁쏠쏠	-11.1774
쌀	-11.1774
▁전문성우	-11.1774
▁집어넣	-11.1774
묵직한	-11.1774
▁담아낸	-11.1774
▁어떨까	-11.1774
▁어수선하	-11.1774
▁별볼일	-11.1774
바이러스	-11.1774
▁나발이고	-11.1774
▁어려울	-11.1774
▁몬스터	-11.1774
▁불필요한	-11.1774
▁뛰쳐	-11.1774
▁롯데	-11.1774
▁유오성	-11.1774
▁크리스틴	-11.1775
▁이성재	-11.1775
▁유아용	-11.1775
▁슈렉	-11.1776
▁훈남	-11.1776
▁빈약하	-11.1776
▁와이프	-11.1776
▁에로틱	-11.1776
▁프레디	-11.1778
▁촌스러운	-11.1778
▁조용한	-11.1778
▁하얀	-11.1779
▁무게감	-11.178
▁이름값	-11.178
▁결합	-11.178
▁잭슨	-11.1781
▁때우기	-11.1781
▁지루하지않고	-11.1782
▁억지스러움	-11.1782
▁질질짜	-11.1784
▁민망한	-11.1785
▁말할것도	-11.1789
거아닌가	-11.1791
▁와이어	-11.1792
헤헤	-11.1807
▁탄탄하	-11.1808
▁젊은이들	-11.182
▁볼게없	-11.1833
▁밥먹	-11.184
▁나쁘지않	-11.1848
좋아할만한	-11.1942
억	-11.1955
뽑	-11.2054
헐	-11.2061
낙	-11.2061
옛	-11.2062
젼	-11.208
냅	-11.2107
됴	-11.2107
샬	-11.2107
콕	-11.2107
횽	-11.2107
꽂	-11.2107
칩	-11.2107
얘	-11.2326
낳	-11.2419
줍	-11.245
훼	-11.2452
킷	-11.2452
탔	-11.2452
닦	-11.2452
듀	-11.2452
촉	-11.2452
쌍	-11.2783
걍	-11.279
뀌	-11.2805
깁	-11.2807
엣	-11.2809
뻘	-11.2809
솟	-11.2809
슐	-11.2809
씌	-11.2809
쫙	-11.2809
쬐	-11.2809
뺀	-11.2809
욜	-11.2809
젓	-11.2809
쪼	-11.3172
곰	-11.3173
튜	-11.3177
뭇	-11.3178
궈	-11.3179
괘	-11.3179
샌	-11.3179
쌔	-11.3179
쑤	-11.3179
욧	-11.3179
췌	-11.3179
귓	-11.3179
뇨	-11.3179
돕	-11.3179
힛	-11.3179
렘	-11.3563
껍	-11.3564
덥	-11.3564
갸	-11.3564
롬	-11.3564
썽	-11.3564
좁	-11.3564
쨩	-11.3564
쪄	-11.3564
켠	-11.3564
밌	-11.3957
펐	-11.3964
꿋	-11.3964
밭	-11.3964
쌤	-11.3964
얹	-11.3964
짖	-11.3964
퍽	-11.3964
훅	-11.3964
씽	-11.3964
첫	-11.3989
톰	-11.399
찜	-11.438
갤	-11.4381
꼼	-11.4381
댔	-11.4381
햐	-11.4381
엥	-11.4381
윙	-11.4381
왠	-11.4422
짠	-11.4425
낄	-11.4815
늠	-11.4815
뛴	-11.4815
몹	-11.4815
셰	-11.4815
얕	-11.4815
쵸	-11.4815
핍	-11.4815
횡	-11.4815
깬	-11.4815
뤘	-11.4815
뤽	-11.4815
붓	-11.4815
녹	-11.4871
낱	-11.527
캅	-11.527
퀼	-11.527
깽	-11.527
낰	-11.527
뎈	-11.527
뜰	-11.527
붐	-11.527
썅	-11.527
얌	-11.527
윗	-11.527
쟝	-11.527
힝	-11.527
넌	-11.5355
캔	-11.5746
죤	-11.5746
앳	-11.5746
겜	-11.5746
곸	-11.5746
굼	-11.5746
밸	-11.5746
짭	-11.5746
휼	-11.5746
됀	-11.5746
웁	-11.5746
낌	-11.6243
쩡	-11.6245
걱	-11.6245
힙	-11.6246
뚤	-11.6246
융	-11.6246
꾀	-11.6246
꿉	-11.6246
뱃	-11.6246
싯	-11.6246
쑈	-11.6246
젬	-11.6246
텍	-11.6246
뵈	-11.6246
빅	-11.6381
맡	-11.6381
얻	-11.6382
밝	-11.6386
얀	-11.6764
댜	-11.6772
돠	-11.6772
빔	-11.6772
빽	-11.6772
샴	-11.6772
섰	-11.6772
얔	-11.6772
푹	-11.6938
펙	-11.732
땟	-11.7328
떴	-11.7328
쁠	-11.7328
욘	-11.7328
욯	-11.7328
읎	-11.7328
쟤	-11.7328
짚	-11.7328
캣	-11.7328
쾅	-11.7328
쿤	-11.7328
퀘	-11.7328
멕	-11.7328
쉘	-11.7328
헬	-11.7525
캬	-11.7525
꽤	-11.7527
칫	-11.7909
갚	-11.7916
걔	-11.7916
귄	-11.7916
넉	-11.7916
뇬	-11.7916
댁	-11.7916
룻	-11.7916
맬	-11.7916
뺐	-11.7916
웡	-11.7916
퉷	-11.7916
햄	-11.7916
숴	-11.7916
훤	-11.7916
켰	-11.8505
젝	-11.8541
쨋	-11.8541
꿰	-11.8541
뤠	-11.8541
뮬	-11.8541
죵	-11.8541
쨔	-11.8541
핰	-11.8541
괄	-11.8541
됏	-11.8541
좃	-11.8541
챔	-11.8541
늑	-11.9207
첼	-11.9207
굉	-11.9208
웹	-11.9208
겅	-11.9208
겔	-11.9208
멧	-11.9208
벡	-11.9208
뿍	-11.9208
슥	-11.9208
쪙	-11.9208
킁	-11.9208
넥	-11.9208
믓	-11.9208
뷁	-11.9208
뿅	-11.9208
쏜	-11.9208
첸	-11.9208
땜	-11.9808
헷	-11.9922
눅	-11.9922
뺑	-11.9922
굽	-11.9922
껌	-11.9922
쒯	-11.9922
잌	-11.9922
쳇	-11.9922
팜	-11.9922
홉	-11.9922
끽	-11.9922
넴	-11.9922
륨	-11.9922
얍	-11.9922
잰	-11.9922
찼	-11.9922
텨	-11.9922
툴	-11.9922
퐁	-11.9922
휙	-11.9922
흣	-11.9922
헠	-11.9922
썹	-11.9922
쩐	-12.0576
섀	-12.0691
깼	-12.0691
꼐	-12.0691
꽈	-12.0691
넛	-12.0691
넝	-12.0691
돔	-12.0691
렜	-12.0691
샵	-12.0691
챈	-12.0691
볶	-12.0691
춥	-12.0691
끙	-12.1525
뿡	-12.1525
넨	-12.1525
뎃	-12.1525
헿	-12.1525
갯	-12.1525
괸	-12.1525
냔	-12.1525
벳	-12.1525
뻗	-12.1525
쎈	-12.1525
왁	-12.1525
욥	-12.1525
졷	-12.1525
캄	-12.1525
팰	-12.1525
햅	-12.1525
눕	-12.1525
멱	-12.1525
곧	-12.2043
꼇	-12.2433
줏	-12.2434
컵	-12.2434
밓	-12.2434
혓	-12.2434
곀	-12.2434
궤	-12.2434
꺠	-12.2434
닠	-12.2434
뒈	-12.2434
딥	-12.2434
랖	-12.2434
쑥	-12.2434
윅	-12.2434
읭	-12.2434
헛	-12.3043
컥	-12.3431
봅	-12.3431
앰	-12.3434
쒸	-12.3434
갘	-12.3434
깟	-12.3434
눔	-12.3434
떵	-12.3434
짰	-12.3434
쨰	-12.3434
쫘	-12.3434
큭	-12.3434
툼	-12.3434
펭	-12.3434
닛	-12.3434
딛	-12.3434
챤	-12.3434
잦	-12.3434
냨	-12.4545
놉	-12.4545
뭄	-12.4545
빰	-12.4545
쏭	-12.4545
앱	-12.4545
왘	-12.4545
쫓	-12.5404
쩝	-12.5405
뒷	-12.6834
촬	-12.7218
킵	-12.722
퀀	-12.7223
웍	-12.7224
밈	-12.889
텝	-13.3314
슷	-13.3377
씸	-13.6586
썪	-13.6587
쌉	-13.6588
숟	-13.6589
뺄	-13.659
빴	-13.6591
벚	-13.6592
랗	-13.6593
괭	-13.6594
흩	-13.6595
헵	-13.6596
롹	-13.6597
쥑	-13.6598
잴	-13.6599
땔	-13.66
놧	-13.6601
뀜	-13.6602
껑	-13.6603
홥	-13.6604
헴	-13.6605
콱	-13.6606
촛	-13.6607
앍	-13.6608
뉜	-13.6609
훑	-13.661
쫑	-13.6611
샛	-13.6612
뒹	-13.6613
덱	-13.6614
낍	-13.6615
굶	-13.6616
괞	-13.6617
휠	-13.6618
츤	-13.6619
좔	-13.662
꺾	-13.6621
횟	-13.6622
핥	-13.6623
풉	-13.6624
폄	-13.6625
큽	-13.6626
칵	-13.6627
옜	-13.6628
샐	-13.6629
쁩	-13.663
뀔	-13.6631
휩	-13.6632
큘	-13.6633
콥	-13.6634
촘	-13.6635
뺴	-13.6636
뭍	-13.6637
멎	-13.6638
핡	-13.6639
뵙	-13.664
꺽	-13.6641
긁	-13.6642
딪	-13.6643
릎	-13.6644
낡	-13.6645
펏	-13.6646
슌	-13.6647
씻	-13.6648
녔	-13.6649
꺅	-13.665
굵	-13.6651
쿼	-13.6652
셸	-13.6653
닳	-13.6654
쥔	-13.6655
왼	-13.6656
픕	-13.6657
핳	-13.6658
딨	-13.6659
웩	-13.666
넋	-13.6661
빚	-13.6662
꽥	-13.6663
뀐	-13.6664
뭡	-13.6665
얽	-13.6666
쫒	-13.6667
앓	-13.6668
텅	-13.6669
꽉	-13.667
붉	-13.6671
땠	-13.6672
멤	-13.6673
밟	-13.6674
홧	-13.6675
틋	-13.6676
뿜	-13.6677
컸	-13.6678
뻣	-13.6679
옮	-13.668
핸	-13.6681
맑	-13.6682
찢	-13.6683
엮	-13.6684
빕	-13.6685
옳	-13.6686
툭	-13.6687
홈	-13.6688
쨌	-13.6689
뭣	-13.669
쫄	-13.6691
틸	-13.6692
뭥	-13.6693
펼	-13.6694
띄	-13.6695
겪	-13.6696
껐	-13.6697
왤	-13.6698
뻤	-13.6699
쏟	-13.67
닙	-13.6701
딧	-13.6702
꿔	-13.6703
섞	-13.6704
쵝	-13.6705
듭	-13.6706
맙	-13.6707
획	-13.6708
겉	-13.6709
쁨	-13.671
웬	-13.6711
됩	-13.6712
늦	-13.6713
볍	-13.6714
찝	-13.6715
묻	-13.6716
멜	-13.6717
똑	-13.6718
랐	-13.6719
훨	-13.672
깊	-13.6721
떻	-13.6722
렇	-13.6723
봤	-13.6724
탤	-13.6724
